/**
  ******************************************************************************
  * @file    network_data.c
  * @author  AST Embedded Analytics Research Platform
  * @date    Mon Nov 29 17:39:24 2021
  * @brief   AI Tool Automatic Code Generator for Embedded NN computing
  ******************************************************************************
  * @attention
  *
  * Copyright (c) 2021 STMicroelectronics.
  * All rights reserved.
  *
  * This software component is licensed by ST under Ultimate Liberty license
  * SLA0044, the "License"; You may not use this file except in compliance with
  * the License. You may obtain a copy of the License at:
  *                             www.st.com/SLA0044
  *
  ******************************************************************************
  */
#include "network_data.h"
#include "ai_platform_interface.h"


AI_ALIGNED(32)
const ai_u64 s_network_weights_array_u64[ 9705 ] = {
  0x3d6714eebd3b14fdU, 0x3d13d8e73d480327U, 0x3ba814633ddae10fU, 0xbcc7175ebe0c61d1U,
  0xbc96465c3d95dd3bU, 0x3df489613dac0bd6U, 0xbdae6f93bc25364dU, 0xbdf46a923d5a71d2U,
  0x3df5f38b3e039958U, 0xbdf2ff91bd26f8b8U, 0x3d923ff2bdb7a7caU, 0xbe037243bd2f3a64U,
  0x3ddfd56ebc7cfd00U, 0xbe09c8e13caceec8U, 0xbd1d8478bdc706deU, 0xbb341b00bd3580e6U,
  0x3da126603c65f270U, 0x3db8a42e3b81a440U, 0xbd9baf713b57f980U, 0x3d8ec1723c6cad80U,
  0xbdfa90f53b90f760U, 0xbd8b44bdbd976da6U, 0xbdd90d5abd5a7304U, 0xbda5e43cbdc6a491U,
  0xbce620203c285090U, 0x3dd2744abd9dc45bU, 0xbc4b99e03b0b0480U, 0xbd55b579be0afd82U,
  0x3e0567f93dcb5971U, 0xbd9f82de3c600fb7U, 0x3d0a96e1bda86223U, 0xbe051e123dc08cf5U,
  0x3e0e7bd1bd6a511bU, 0x3d8b973ebdca2dd1U, 0x3d0260d63dcf91b2U, 0xbd4ff08d3d738a36U,
  0x3b7451c0bdfa73a9U, 0x3c932e783d1f8470U, 0x3e1170373d9aeb5aU, 0xbd4eb9aebe0dc56fU,
  0xbda9ab57be05629cU, 0x3da6d498bd86369eU, 0xbcae6bec3dad8481U, 0x3d9911533dab6845U,
  0xbd3b41eabd888f5cU, 0x3dfe2b50bda8a6daU, 0x3e06068abe13eb8dU, 0x3dc08726bdad7ed8U,
  0x3da286c33d8e3113U, 0x3cd18c70be0c4117U, 0xbdd8308cbdcdaa58U, 0xbd7d2a12bcabdb78U,
  0xbcd986d4bdcca760U, 0xbd81827d3cac6210U, 0xbdea6c4d3de306ebU, 0x3dfcf4e33ded1a97U,
  0xbdf4725abd0d3be0U, 0x3dddc6053d18a7b2U, 0xbcc90c76bd3fdcd4U, 0x3dafd7643d2cc750U,
  0xbdf7c64ebd975130U, 0xbc545dcdbd9e561dU, 0x3d99e8273d33d3ceU, 0xbd7a0a93bdbb3c47U,
  0x3e296b54bd3e91d0U, 0x3df25752bdee24e6U, 0xbcf20bda3e34493dU, 0x3d2c288fbdcc9341U,
  0x3d80f081bdb073b4U, 0x3ddb06733e231101U, 0x3a600ae7bdbafb42U, 0xbde0d588bd5a915bU,
  0xbe05b932bda0d684U, 0xbdab08a4bc675650U, 0xbdaf1424bd9c1fbfU, 0x3de2a3723db643e2U,
  0xbd9f4504bb716100U, 0xbcad6114bdc327e9U, 0xbc5bc2d13da1eabcU, 0xbdab32bbbc8d6dc7U,
  0x3dda6a563e0e6c96U, 0xbdc12041bd9b72e9U, 0x3d47b6803df22d62U, 0xbe087beabe09ee79U,
  0xbe10092ebd4387b2U, 0x3e05b5cbbbf25ae0U, 0x3e04c98d3dbbf90eU, 0x3e1566b13de1e9ddU,
  0xbe0642ddbd7eb397U, 0x3cfc6a2ebd7ac56bU, 0xbcb81d473d33caffU, 0x39a3b0ba3ccee926U,
  0x3d7d27593dfe5f14U, 0xbdd512123dee0963U, 0x3bf069a4be14692bU, 0xbb8817043d15bb1fU,
  0x3de7a7e9bd8e1940U, 0x3e0cdc99be0d530dU, 0xbe14523c3da1fed5U, 0xbd60af05bd7597f3U,
  0x3d9074a7be1e1675U, 0x3d4cad843d8974d8U, 0x3df0d4253c4b27fcU, 0xbd74c7a33dbc48f1U,
  0x3d2908233da1803cU, 0x3c9af521bd835cb2U, 0x3dc29d53bdd16a24U, 0xbd09e1693d745e94U,
  0xbe0f3416bdd79f4eU, 0xbd74a87abc4fcc00U, 0xbe0d6b17bdee2c71U, 0x3e01f0f5bda483feU,
  0xbcd06efbbde0ccc2U, 0x3d96676ebd022501U, 0xbcf051c13cf59b7aU, 0x3d9667be3c84fdb5U,
  0x3d79912abd1f8ab3U, 0xbdb5766abdb8fd5aU, 0xbd86790fbda3e02aU, 0xbdbd7c243e04f251U,
  0xbe04b68f3cd310a8U, 0x3d1903ccbd7e395eU, 0x3d93a90abd10b468U, 0xbd1da0803d323a8cU,
  0xbdffe979bcbc5b88U, 0xbc93af3cbcee2804U, 0x3da4a7cb3d6c1312U, 0x3ddfd2963dd8714bU,
  0xbd9addf63d08e9d2U, 0xbd0653933df8bacfU, 0x3d551dd03daa41e0U, 0xbe0032f73d74c1fcU,
  0x3c7907703d0c6ad0U, 0xbcc462383d0443a8U, 0xbe056bd7be077a57U, 0xbde4f9cfbdb4f332U,
  0x3e0b81c33de4119dU, 0x3d4788e4bd146402U, 0xbddb637d3d1d6b32U, 0xbd1bffc43d7219b1U,
  0xbda78822bde9b0daU, 0xbd8b30e53d8900e4U, 0xbcf184b43d955bcaU, 0x3c92b4a8ba9c2580U,
  0xbca0dfa5bceedf78U, 0x0U, 0x0U, 0xbce50ed8bcad894fU,
  0xbc12ac5300000000U, 0xbc91748cU, 0xbb9ed33a3b4d8f97U, 0xbcd88a71bc817e1bU,
  0xbcf6987400000000U, 0xbbeeeda100000000U, 0xbcc633e2bad6c800U, 0xbc75c906bd183a38U,
  0xbc1fc06f00000000U, 0x0U, 0xbc3a5065U, 0x3b4dd2aeU,
  0xbd80098c3d6d6987U, 0x3ceb452c3cd42f74U, 0xbcb83420bd60a83bU, 0xbd865da43d3a2198U,
  0x3d1c62e8bd96c813U, 0xbd9fb9d3bd6c627aU, 0xbd99d16ebd274ba7U, 0x3d194ba13d85ef17U,
  0xbd76e3543cea12c0U, 0x3d9e2b6b3d0c22daU, 0x3d962c18bd506473U, 0xbc9e3d5dbcfe7a38U,
  0xbda3c0603c2d27e8U, 0xbae68540bda3b67bU, 0x3d121a4a3d0f70afU, 0xbd962eb8bdb56f68U,
  0xbd2b0d153ce5a271U, 0xbd94e0f03d6e6d0aU, 0x3d9000533c935b20U, 0x3c625f6fbbc4d90cU,
  0xbd4f1a563d6c7932U, 0xbd2540863d02de64U, 0x3ce901453d3d012eU, 0x3d925105bd49fd40U,
  0xbab85168bd4b9340U, 0xbda96a303cbc7bb4U, 0xbd3aa50bbc9bac95U, 0xbcf95971bcbdf36fU,
  0xbd8d951f3d0bbc40U, 0x3a3a2d80bd712506U, 0x3da8f2d3bd184790U, 0x3c7eec18bd1d84b9U,
  0xbd8016bd3d07de96U, 0x3d676bf2bd2851a0U, 0x3d3ab51abd85abf0U, 0x3d338f26bd3bf649U,
  0x3be28b2fbd13d766U, 0x3d8bf5a5bdaaa59eU, 0xbd6f68853d7f3459U, 0xbd567ec2bd827c48U,
  0xbd5b4c103bd14bd0U, 0x3d7bafdfbcb9b1ecU, 0x3d6a0da6bb5d872fU, 0x3d823e9fbca14c70U,
  0xbda5cf21bc911540U, 0xbb9481d0bd643ca0U, 0xbd96224e3d89c10aU, 0x3d55ad763ccb61beU,
  0xbb6158e6bca1f788U, 0xbd4995f63d863b9dU, 0x3d2fb86abd39bdb6U, 0x3c52158f3d034c3dU,
  0xbcf3b6463d7aec92U, 0xbcf471f6bd81c0fbU, 0xbd25046b3d1e25c0U, 0x3d0814e3bcf47eacU,
  0x3d4b8f0539b1dd00U, 0xbd983a8e3d7f7022U, 0x3d5409323c4655edU, 0xbdb4a010bbb733e4U,
  0x3d517a073d48cf8aU, 0xbd24558b3d963ca3U, 0xbd77120b3d95853fU, 0xbd1d970b3c9f89f3U,
  0xbd09191e3d643363U, 0xbca76f74bb842050U, 0x3d68569a3d4bd75aU, 0x3cf9adc03cc344f5U,
  0x3d432f49bd0a7c0bU, 0x3d36a1163d2647efU, 0x3d981aa7bd5fe0fcU, 0xbd4cc7673da3c66bU,
  0x37d12408bd4de0c0U, 0x3d5691a3bd8cb5d6U, 0xbaee84cfbd982eacU, 0x3d7c74b43d834547U,
  0xbd3b04a23d0de3a6U, 0xbd39be463d6fb9b2U, 0x3d01b730bd2486ffU, 0xbcb5c900bc249c3eU,
  0x3baf1818bd9a3453U, 0xbc2634183c3e87c0U, 0xbd39bf463cf5c56cU, 0xbda655cdbd37a7b0U,
  0x3bed267dbc441c58U, 0x3d9d575b3cf61306U, 0x3d984ea73c127e79U, 0x3be9796cbd21784fU,
  0x3d9ba23f3d58074aU, 0x3d78cced3d2ea872U, 0xbd45b7a2bd8f099bU, 0xbd261173bca7d028U,
  0x3d8d32d33ba01bd0U, 0xbd22b1dbbd57fd90U, 0xbc41e498bda76045U, 0x3d8bd4a1bd228c0eU,
  0xbcbe7547bcc1b306U, 0x3b9fc750bd5f1810U, 0x3d77c776bd1964ebU, 0x3d8a7a3e3d9bec1aU,
  0x3c33cf8e3da9b513U, 0x3ca6f6cc3c16f685U, 0xbd6229113c7e1b85U, 0xbd2120363ce94a20U,
  0x3cd4cf8fbd013b20U, 0xbdb0f4883d54cb36U, 0x3cfc28cdbd64dc5fU, 0xbce72730bdaea65bU,
  0x3c9246243d59d7a2U, 0x3d39d3463d3ac4c2U, 0x3c257498bd8cf00fU, 0x3d3b794a3d632e57U,
  0x3d4c93c7bd884509U, 0xbc16ee00bcb2636cU, 0x3da21495bcb753c0U, 0xbd88c132bda9a63bU,
  0x3d4e02ba3c136240U, 0xbd998776bc7c85d7U, 0x3ae2a4eb3bcc23acU, 0xbcd149cebd808818U,
  0xbcd1b68abc96cac0U, 0xbcfbcdddbd5319d6U, 0x3bcbc7ba3cc3fb92U, 0xbcc3df1d3cfb9af8U,
  0x3c0b639fbd60a806U, 0x3d6139ea3d4bd54aU, 0xbd93a4fe3c73351eU, 0x3d1d534aba832ee9U,
  0x3d2205ec3d0e29f2U, 0x3cadeb8c3ba40e80U, 0xbd04e8a03c3253c0U, 0x3d6c61e9bd9056beU,
  0xbd8ff37dbd766f76U, 0x3c459318bda98f6cU, 0x3d87ca1bbd23067aU, 0x3c793df33cc4272cU,
  0x3cd42653bd4d3806U, 0x3cccea033c542968U, 0xbd0379b8bd101829U, 0x3cdf4f80bd3eb233U,
  0x3d79d76dbcc3ebb6U, 0xbc3efa283d7f4e72U, 0x3c278bc03c93fa34U, 0x3d6d1766bd9ffab1U,
  0xbd71186b3d25e9caU, 0xbd1d7500bbbcd130U, 0xbd848856bd6155a0U, 0xbd5c8b0bbd71f88bU,
  0xbd2ae61bbd5f95cbU, 0x3d76b05abc40d6e8U, 0xbd2e7a3b3c6cada8U, 0x3ce891acbd42a45bU,
  0xbd7d3aa6bc0a8c80U, 0xbd79b4803d16a7caU, 0xbac6e600bc841c40U, 0x3d3e9dd63cf6384cU,
  0x3d98e4b33cd0f134U, 0xbd20bba0bd3cd15bU, 0x3d74dea6bd9f18d6U, 0xbd844e863d7ba34aU,
  0x3a7f1800bc723480U, 0x3cbb1b2cbc1ee380U, 0x3d8ed57bbd884193U, 0x3d9c5f093d8f0f25U,
  0x3c49df283d7f0632U, 0x3b820d30bc13af98U, 0xbc31b1683d52940aU, 0xbd433f6bbd3a8f56U,
  0x3d3998c6bd4b9dbbU, 0x3c757ec03d622b8aU, 0xbda9bdf0bd85c3ebU, 0x3c1ed618bd673d8bU,
  0xbd53c7663d8dde4dU, 0xbbbbb1d0bda67916U, 0x3d9bbc313cf8774cU, 0xbb0852a03d7eaf3aU,
  0x3d9bc9e9bb3a8f00U, 0x3d01caf0bd465b5bU, 0x3da18b1bbd7897f0U, 0xbd9fe198bd953908U,
  0x3c9ae7c0bd2130b6U, 0xbc264d803d6d8dbaU, 0x3d1a06463d012efaU, 0x3b38e4603c070100U,
  0xbd757406bd65f87bU, 0x3d5d05823c1db9e8U, 0x3d85473b3d983e25U, 0xbd787a60bccac64cU,
  0xbc71daa8bd9281aeU, 0xba3ef6803d16a126U, 0x3c2a2c58bd138e00U, 0xbd7d69303d770486U,
  0xbc1137c0bc8358ccU, 0x3d9b9125bce1a3ccU, 0xbd4e145bbcdbcf76U, 0xbc68fde8bc18de28U,
  0xbba85850bd7e48c0U, 0x3cd69f743d95c26dU, 0x3c5f7468bc671900U, 0xbc191298bd0ad490U,
  0xbd992fe63d9a34d1U, 0xbda303433d307fd6U, 0x3ccb5e0c3d23da8aU, 0x3bcfa7b0bd774b2bU,
  0xbd550256bd15e7bbU, 0x3b309360bd676210U, 0x3d4094cabc9988a0U, 0x3d929871bd45c2fbU,
  0xbcf2b50c3d0aafb0U, 0x3c87bfac3c100a18U, 0xbc9f6cd4bd7af346U, 0xbda5ace3bd19b240U,
  0x3d98235d3b08c600U, 0xbc06a2003d855153U, 0xbbfa0b30bd9f4483U, 0xbda43db8bc1de518U,
  0x3cd90e6cbd2f9396U, 0x3cc68160bd52149bU, 0xbcd31e4cbc581da8U, 0xbb2c13a0bc3c7e80U,
  0x3d769c963d511e3aU, 0x3d4494fabd84a010U, 0xbd99ba7ebd959a1bU, 0xbd8dfefb3d6b3392U,
  0x3c13ed00bd57546bU, 0xbc134dd8bb42aaa0U, 0x3d515d96bd088c80U, 0x3c84cce0bda7be7bU,
  0x3cc6ccf43cef1b60U, 0x3ca3a3343d944d1bU, 0x3d270f6a3d90e531U, 0xbd54cba63cfc4fe0U,
  0xbd68925bbd883f53U, 0xbd5da5763d6925b6U, 0xbd8a84333cb7bbc0U, 0xbc6b8cc0bc308858U,
  0xbcafb3f63cafd4f4U, 0xbda5b72b3da141fbU, 0xbd8863abbcf60016U, 0xbd6b71103d653ea6U,
  0x3c6558a83d8219bdU, 0xbbb2beb03c3e9518U, 0x3d4e83a2bc05d1e8U, 0x3d479402bd5cf2b0U,
  0x3d3973923c13a2d8U, 0x3c8eb1003ce15074U, 0xbcd4b1163d941e5dU, 0x3d53f0a2bcafd14cU,
  0xbd8fe786bc8c91ccU, 0xbc8c4140bcc12aa0U, 0x3d5bd9fabcd9510cU, 0x3cb30ee0bcb44556U,
  0x3bcf0330bd7990bbU, 0x3c94e68c3cf4a494U, 0x3c6419a8bd2b278bU, 0x3d1f316a3d476f1aU,
  0xbda1aa033d4eeef2U, 0xbd70b5863c91b3d4U, 0xbd5220a0bd88dccbU, 0xbd0c2e86bcae63e0U,
  0x3d0e0086bd42e32bU, 0xbd9904b8bd336cb6U, 0x3ce1daccbb31b7a0U, 0x3b62e8003cd1ec6cU,
  0x3da39b31bcf26da0U, 0xbb4fa6003c067568U, 0x3d815305bd96afbeU, 0x3d81e05bbd4df9ebU,
  0xbcddbce0bc836b6cU, 0x3d91de35bd79190bU, 0xbda962a3bd9b5c6bU, 0xbd408d963cd66bb4U,
  0x3cdfe3cc3d88f315U, 0x3d81eee5bbefe9d0U, 0x3d24f64abcd8ca2cU, 0xbd6b50a6bc162100U,
  0x3d6c9dca3d72a0caU, 0xbd1c7e3b3d26fa5aU, 0x3d8545e13d9893a5U, 0x3d4bb102bc80ea00U,
  0xb92a2a003d5e30f6U, 0xbd8310783d9352adU, 0x3cafe00c3d60afc6U, 0x3d33f5a2bce820acU,
  0xbc9ac00cba8be000U, 0xbd1334f03d5fb24aU, 0xbcea1dac3d0dc3c6U, 0x3d99f6d1bd428e30U,
  0x3d563c80bcf6110aU, 0xbbc8de803da72b01U, 0xbd073e403da11ddbU, 0xbdafed373d2b6bb9U,
  0x3c752b363d89f0ebU, 0xbcc7006cbda19001U, 0xbd929c32bd6feed5U, 0x3d6b98d13c8312cdU,
  0xbc894508bd8b53feU, 0xbd46b3fbbc697798U, 0xbd58c4863becbc8dU, 0xbd91610e3d528429U,
  0x3d012cc4bc0cacd8U, 0x3d1dc1b6bca617ccU, 0xb897ec003cfe3691U, 0x3d37e55abcff060aU,
  0xbb920d71bd339656U, 0x3d38e8763b7907a0U, 0x3c9353ec3da90033U, 0x3d25bfa2bcc5f003U,
  0xbd5ab660bd9d03deU, 0xbd39ae50bc2645ecU, 0x3da9aefabd744058U, 0xbc4be8a4bd48fbf1U,
  0xbc797a11bd49a280U, 0xbd994a16bda5827eU, 0x3c8e322bbcfa172bU, 0xbd2e24c33d1717f8U,
  0xba0debfabcf9abacU, 0x3cbd03943d99bf9dU, 0x3c91ea003ca1f52dU, 0xbcb1b2ac3b80b188U,
  0xbc2d57dcbc9e2b8cU, 0x3d0fab9a3da1222dU, 0x3d325406bd8d760eU, 0x3d9f30d03c10d6c4U,
  0xbda2d962bd10b72bU, 0xbb66f6603d4d2af4U, 0x3cdcf19bbd9d2807U, 0xbdb49b673d9a8005U,
  0xbcd31d04bd368b0bU, 0x3c89331e3d5f3d26U, 0xbd84da13393c7f2dU, 0x3ca261643cb9e4f3U,
  0xbd83cdf3bd2d8ce0U, 0xbc4ece983d8ae4fdU, 0x3d7a8b363c7cba1cU, 0x3d372532ba06db53U,
  0xbda53e993d96826dU, 0x3d331da2bcec1a20U, 0xbd1d75b63d7676e2U, 0xbd4415a03cd4f3cbU,
  0xbcddf6f3bd144ccbU, 0xbd85b5a8bd33335eU, 0xbd80aea23c7efbc3U, 0xbd3c22acbd834fffU,
  0xbd12f835bb68b500U, 0x3c033d83bcbf66e0U, 0xbd603ca7bdb09cfaU, 0x3c500912bb6102beU,
  0x3d7c89e6bc12e2c0U, 0xbcb79856bcb36636U, 0xbd9042b83cb8ee0dU, 0x3d818bf3bc9c59b9U,
  0xbd5edc443c269a9fU, 0xbd095e86bd7aaf70U, 0xbd9cc3e0bd7aeb86U, 0xbd802ee23d5e407cU,
  0xbd604bcbbca53bd4U, 0xbd8ec4c6bc388349U, 0x3dabfdc93d1a6002U, 0x3d8e0ce13cdbca0cU,
  0xbd7daabfbd0d0660U, 0xbd8ec34bbd165056U, 0xbd98713d3c9101d2U, 0xbd292d58bbfa1d68U,
  0x3c272a63bda90393U, 0xbd55fd2bbd39e9a0U, 0xbcccaf00bd230227U, 0xbc9ef5603ce18c33U,
  0x3d435871bc1a9504U, 0xbda9b7383d62f55aU, 0x3c51f2d83da2d759U, 0xbc653f4fbd62048aU,
  0xbb8d2975bd79080bU, 0x3d7a37eabcfeb967U, 0xbcb2de2cbd17e7afU, 0xbd2ad9d43d87d231U,
  0xbd0d8c9cbd89c1cbU, 0xbcbefa8c3d968445U, 0xbd7af15dbd6d558aU, 0x3d7435ecbd00b04eU,
  0xbd18638dbda279f8U, 0xbd96f63e3da3e4fdU, 0xbc9688e03d54a3deU, 0x3d94ad453d8f51acU,
  0x3d5cc4543d038606U, 0x3d8886153d6c4316U, 0x3d3233dabd8d7c46U, 0x3d41a45cbd268aa0U,
  0x3d0a391fbc1c6f58U, 0xbcdaf016bd5078d8U, 0xbd3a99a33d879b5aU, 0xbd121ef23da6585cU,
  0xbd4912683bf298d0U, 0xbc0b772dbccd32ccU, 0x3b5f1937bd7f3addU, 0x3be9f550bd01c895U,
  0xbc1162253c9405ccU, 0x3d5c7056ba42d980U, 0x3da2e0133b2fca89U, 0x3ce91b143c56590fU,
  0x3d1b97aa3d99793eU, 0xbd121450bda5bb30U, 0xbd71e386bd9cbdd8U, 0xbd8167e1bd5157abU,
  0x3d684f5cbd898e4eU, 0xbd8c9363bdaf584eU, 0x3d0db617bdb773cfU, 0xbd1554ab3d57f6c4U,
  0x3b9127e03d00cc16U, 0x3cc7042cbcea6c20U, 0xbc2e854bbd401faaU, 0x3c8a52a33cdede2dU,
  0x3cbf1d95bb9f8d80U, 0x3d92cc113c7cecd8U, 0x3d1fd650bd49c94dU, 0xbc44b5403d14d80dU,
  0xbd4558cf3cd2287fU, 0xbd9d724bbb5e5e60U, 0x3d87711b3b230060U, 0x3da16397bd86848eU,
  0x3d1ab0debd6d5c56U, 0xbd21dfd03b67366aU, 0x3c175dc33d93718eU, 0x3d39c8453d88bab3U,
  0x3d28fca83cd4776cU, 0x3d404f0cbd358c5bU, 0x3c913a5d3d6f2bc1U, 0xbd394b90bdac7e81U,
  0x3cc510fbbd86e6b3U, 0xbd3e079bbcc297acU, 0xbd40d8f03b970ecbU, 0x39902300bd6327cfU,
  0x3daa2ae53cf3704cU, 0x3cb47eec3cdea7ecU, 0x3d7d5766bca51500U, 0xbd1388e63d70f446U,
  0xbd40642b3b928ad0U, 0x3c9af160bc138d00U, 0xbd9642f0bd9419f3U, 0xbc58dba83d334516U,
  0xbb334c60bd81a040U, 0x3d4b63aabc6cd198U, 0x3d1f557a3c2be140U, 0xbd827e46ba456980U,
  0xbd9bcee33d59b036U, 0x3d0a12b03ca69a34U, 0xbd125576bda4c833U, 0x3ca858803d3498a2U,
  0x3ce1ea403ae13ac0U, 0x3d0f7f7a3da19e23U, 0xbda3d08ebd8075aeU, 0x3d224e3a3d9ebe43U,
  0xbc7113183d13c560U, 0x3cab77b43d01bdaaU, 0x3d1ce59abd2e58abU, 0xbd20b9003cd49fd4U,
  0x3da0a253bd94370eU, 0xbd702c303d716e76U, 0xbd8db8903d04781aU, 0xbd32c0903ce6770cU,
  0xbd9070aebc38bf98U, 0xbd18ab06bd9f7b06U, 0xb9b88d00bd99c056U, 0xbc77a0e83d93221bU,
  0xbda6d380bd8d429bU, 0x3d833f03bca34e74U, 0xbccaff96bc96a5acU, 0xbd95cf03bd05751bU,
  0xbda1b9eb3d1c72a0U, 0x3c989be03c949514U, 0x3d085520bd937de8U, 0xbd062e003d5e76caU,
  0xbda76758bc456e28U, 0xbcd293b63d351092U, 0x3d61bb82bda139a0U, 0xbd37ac16bca7608cU,
  0xbd9357033cfc9f0cU, 0x3d8f3b633da849f3U, 0xbd2e07e03d1abd70U, 0x3d161fa0bbb20a80U,
  0x3c8fea80bb7c76a0U, 0xbd2b2fd0bd42ff46U, 0x3d9c3f23bd7b2a56U, 0x3d1d21b03d32839aU,
  0x3d900c71bd2a8940U, 0xbd4dea303cfad06cU, 0x3d6f1142bd6cbc46U, 0x3d8672f93d045636U,
  0x3c0614003c58a7a8U, 0xbcb80e363d86ee29U, 0x3d32b2e6bd1106a6U, 0x3d8317893d9984d1U,
  0xbc45f4d83c081fc0U, 0xbd0e7256bda3bb56U, 0x3d7b3a66bd9aaedbU, 0xbceeaf963c8c38e0U,
  0x3daa742db9fc6000U, 0x3bf22fd03d2caf82U, 0x3c3aac803d8a651dU, 0x3d5b67823c43abe8U,
  0xbd40befb3cb7fbc0U, 0x3d5c093a3cf64b54U, 0x3d421602bb9cdfb0U, 0x3c3eb7803d1a2ec6U,
  0x3d95b5933da5890dU, 0xbb8c2400bd96fad6U, 0xbd1079abbd5d757bU, 0xbd5b1e063d09ef06U,
  0x3ca8df6cbd95a973U, 0xbd76e57bbd8e7c83U, 0x3c56fa403da6a349U, 0x3d0e03aabd8f86deU,
  0xbcdba1ccbd7083dbU, 0xbc287ce8bd9ff2d0U, 0x3d9c2ec13d7a2f5aU, 0x3c052a98bd997b78U,
  0x3c79ef283d9d8145U, 0xbc040558bd6fbcb6U, 0xbb24ed603cc59b2cU, 0xbca737e03bdfe350U,
  0xbd86c7203d9c0585U, 0x3c74d740bc85844cU, 0xbd7fe2403d829b0bU, 0x3d206ed6bd780c76U,
  0xbc4b1698bd46bbf6U, 0x3ccc1db43c8b4d54U, 0x3d93228dbca22120U, 0xbd073e8bbce5488cU,
  0xbcedc38c3d802d71U, 0x3da308733b16e000U, 0xbb895d303d156706U, 0xbd3e242bbc96382cU,
  0x3cd302a03d6fc72aU, 0x3d1309403c075928U, 0x3d3c53f6bcb8b6c0U, 0xbda546aebcddb8acU,
  0xbd7950503d4d837aU, 0xbd4f7f463d51346aU, 0xbd261d86bca8172cU, 0xbd5565e03d99c833U,
  0xbd9ecfa03b0d2760U, 0x3d7d0ad2bda51933U, 0xbc9da5c0bcf4c4ccU, 0x3bd8ac80bcedef8cU,
  0xbd36b4db3d172a16U, 0x3d914aa9bc8ff5b4U, 0x3d8930893d974e49U, 0xbd84e23e3bf5b330U,
  0x3d62a8aabc9f008cU, 0xbbd7d080bcda48f6U, 0x3d5420ba3c99bd4cU, 0x3c3e4698bd7e726bU,
  0xbd93c8e6ba197a80U, 0x3d819ea1bd1e3e16U, 0xbbc7ef50bd661520U, 0xbcd5c4c03d2b08e6U,
  0xbae744c03adb12c0U, 0xbd11e060bd75d336U, 0x3bb4b4b0bda55e80U, 0xbd6cbaa63d5d15c2U,
  0xbd18ce80bd1c2fe6U, 0x3d95aa833ce6de34U, 0xbda615433c2c11d8U, 0x3d05c096bc7dc268U,
  0xbd73dff0bc82fa6cU, 0xbd6e0680bd75fe0bU, 0x3da3ec41bd62ecf6U, 0x3d9e9fa3bd5e2600U,
  0xbd9247a0bd8c16beU, 0xbd3b4a8bbd7c4e7bU, 0xbda884d83d80a903U, 0x3d807f49bd246496U,
  0x3d2865c6bd0339a0U, 0xbd803718bd9e3846U, 0xbcbdfc763d58d892U, 0xbd506f26ba0c9800U,
  0x3d1799dc3d1ad816U, 0xbdaa4756bd2e11b0U, 0x3d12d35abc83dcc0U, 0x3cb4553f3d643601U,
  0x3c801cc3bc98544cU, 0xbcb876ecbcf9f49bU, 0xbcd938523d85c422U, 0x3d82f3d3bc8ddd61U,
  0xbd7beac13d7fcb66U, 0xbd8bdbeebda74ffbU, 0xbcd081c43cc0b356U, 0xbd9b4bafbd8e0c4aU,
  0xbc418110bda39f83U, 0x3d938d6dbb028fa0U, 0xbcd82b8cbdafe7e0U, 0xbc898ce03c408a23U,
  0xbd902ff3bd49da5aU, 0x3da29ce5bcda1320U, 0x3d110a203cbe4f0cU, 0x3d495a0bbd4bebe0U,
  0xbd2efb7fbd156606U, 0xbd9503b0bd27cf40U, 0xbd630f90bc98655bU, 0xbd577abd3c566ea0U,
  0x3d334d9dbcd5df80U, 0xbd5abbd73d85f461U, 0xbd8372b8bd45bd3dU, 0x3c57f5fcbd197b09U,
  0x3d75b778bd438aebU, 0xbd1f710bbd825860U, 0x3da39ef33d3673b7U, 0x3c4f0c283d8ba695U,
  0xbd1b2b0d3d19fe50U, 0x3d3619a63d37e8c2U, 0x3a09a9803d744b4aU, 0x3da3a9af3c162dd0U,
  0x3cf1f5d6bd5f88dbU, 0xbda594d83c908789U, 0x3c72cea53b12f802U, 0xbd8533bf3bb636c5U,
  0x3d08ea653d90746dU, 0x3d8b3617bda6fcf6U, 0xbc2fc7713d80a68aU, 0x3d856ac2bd3be6b4U,
  0xbda8406a3c98f554U, 0xbd2988603da1ac95U, 0x3c3dfad83d0dae19U, 0x3d97b6bd3c7a16c1U,
  0x3d6d86643a103a34U, 0x3d7afeaabd77cee6U, 0x3d265d00bd887000U, 0xbd7e72643bc1365fU,
  0xbcf5e20dbda5a008U, 0x3d513b66bce2242cU, 0xbd7e0ba4bd1b9e29U, 0x3ce58855bc70fca1U,
  0xbd246f183d7d3da6U, 0xbdc31e3abd88a146U, 0xbd90863abdb645aeU, 0x3c1822b83d2a9d68U,
  0x3d67fb403d9128abU, 0x3d94d3293d711cc6U, 0x3d165da6bdaa881eU, 0x3d8c23d93d2aac15U,
  0xbd27db513d734cacU, 0x3c2043c0bd58f0ebU, 0xbc0837003d6e0ca6U, 0xbd88023fbd652601U,
  0xbd609665bbcb6d80U, 0xbd2172b0bd9c1f8cU, 0xbd94a347bc9afe03U, 0x3cfc71fd3db8dcbdU,
  0xbd11fdc33cad3214U, 0xbd46c259bd6c62a0U, 0xbdb41add3c85f007U, 0x3b3682d03c6938abU,
  0xbcd525c43d240720U, 0x3b89f3b03d1a1d10U, 0xbc5abed8bd43cbe4U, 0xbd0f4b56bd6943e9U,
  0x3d5fc8cbbd655794U, 0x3cdab6343bb9fe80U, 0xbd840fdb3d34606aU, 0xbd6cf5f13c9b540fU,
  0xbda203a8bcfc396cU, 0xbda3c9c83d9445b1U, 0x3da9f5623d5dea12U, 0x3d8f99c03ceafb9aU,
  0x3d2882ecbd9b0c70U, 0x3cde0ba93b0ff9a0U, 0x3d522f4a3a56dfa2U, 0xbcc023d0bd478080U,
  0x3d5a53743d98efbdU, 0xbd0c2ae63d88fd1bU, 0xbd793d903cbd6bf7U, 0xbc0b43983d942826U,
  0x3bc1cedd3d89863eU, 0x3d9bdffb3d67366aU, 0x3d3b0b66bd06841bU, 0xbbf2d595bca7098fU,
  0x3d535a633d5a74eaU, 0x3d8d726bbdb52fefU, 0x3d4dbbd9bdb6047eU, 0xbd8fb357bccd135cU,
  0x3cc0ee523c953c60U, 0x3cfb25293daaa883U, 0xbd9c17f3bd8cea36U, 0x3cb3fc3a3c83102bU,
  0x3d6d1f28bc800ba0U, 0x3d3d23763ce0178cU, 0x3beac2503d530248U, 0xba02a2803d1cf990U,
  0x3cf5e13d3d6c560eU, 0xbd39a8d63b7df7a0U, 0x3d12a40a3d605b42U, 0xbcfe533c3b16935bU,
  0xbdb2a774bd94b5d3U, 0xb947d0003d1f097bU, 0xbda45189bdbc07c9U, 0x3d8192de3daabe1cU,
  0x3c9ab5f13c3a1ea8U, 0x3d0260c13d22d096U, 0xbdabc98ebca1f348U, 0xbd0056d93d5695ebU,
  0xbdbf4c65bc64ada8U, 0xbcbaadacbcb4406cU, 0x3d962295bce6e272U, 0x3d90a3e1bd75a559U,
  0x3d7c95203d92a240U, 0xbac74540bd99eba0U, 0xbd84a8c03d402512U, 0xbb8f67efbd8f2931U,
  0x3c9086b0bcec0396U, 0x3ceee28cbd8f98b3U, 0x3ad8e5a23cb0a6c1U, 0xbd4d6343bb216039U,
  0xbdb897eabb814380U, 0xbd3d22c93c12c2c0U, 0xbd1f199f3d634f77U, 0x3bf5717ebb720dccU,
  0xbdac2776bcdde3b6U, 0xb8c194003d9356b3U, 0xbda180203d87c0ecU, 0xbc2f0018bdad9eb8U,
  0xbcff49a63afdd8dbU, 0x3d7aec7a3c8a400cU, 0xbce31ae0bd3091a0U, 0x3c3374c0bc8f24eeU,
  0xbd2ec72cbda4a490U, 0xbcf5ddccbc864b48U, 0x3d3aed32bd8b8682U, 0x3d37bf673c8efea0U,
  0x3d1be695bd9f889eU, 0x3d857f293c353e28U, 0xbd22a4843a00a1a3U, 0xbd9b7f083d845472U,
  0xbc0588d7bd071cfbU, 0x3d8529fd3da3722dU, 0xbd6100f63d5b57e8U, 0xbd4ef820bd9c4ca2U,
  0xbca15771bc255fffU, 0xbbd8ead03d47aef2U, 0x3c477198bd77ca00U, 0x3c875b00bd1c821aU,
  0x3c8171e73da6efcdU, 0x3d06ae96bdaf8944U, 0xbd0aa8503d96ef8eU, 0x3d86d40f3d1628a0U,
  0x3c3b2853bd580ba0U, 0x3d7f97333c61ed80U, 0xbdb29a26bc01b06dU, 0x3cdd30e7bd55990eU,
  0xbd1648243d70cf8aU, 0x3d41082a3c587918U, 0xbca2a2d4bd8e4e1eU, 0x3d4ca1c6bc808002U,
  0x3c746693bd8afe55U, 0x3d98e7d13d12ca9aU, 0x3daa23bbbd8d51f3U, 0xbd7112d6bd99fb6bU,
  0xbd262d07bd701e96U, 0x3c7f63803d96a563U, 0x3cec430c3c220b72U, 0x3d6846e53d809a75U,
  0xbc82cb6bbd2bdd5bU, 0x3cf31b43bda2c1a8U, 0x3c180b97bceccc4cU, 0x3cea72bfbc18a7bdU,
  0xbda2f282bca3d9b4U, 0xbd4a53b03d2760a0U, 0xbda7c2703abceaadU, 0x3d93015bbd8b1433U,
  0x3d465819bd651cb9U, 0xbd8dd50b3c16b780U, 0x3c406440bd2d0b40U, 0x3d94227dbd9a9045U,
  0x3d7b4543bd7daaf0U, 0xbd5629403d82df3aU, 0xbd90f8183ca2788eU, 0x3d242b2dbbcccbb0U,
  0xbbba255ebd1ef69bU, 0xbd958f603c2da958U, 0xbb04f68fbd0c598cU, 0x3d12e84bbdab5190U,
  0xbd12c39d3d9c30cdU, 0xbd9eaa2bbd4adcbbU, 0x3b3eee00bc830cafU, 0x3cb2bf4cbda94c07U,
  0xbbd7c1cabd770e7cU, 0xbd3237a03b87b730U, 0xbd21b190bbd967d0U, 0x3ce9a7c0bd500c47U,
  0xbd1ec454bd64a466U, 0xbd9e9d5eba702aa2U, 0xbd7349a6bc9d859bU, 0xbd9b6eff3d36a6daU,
  0xbd7e4a7a3d7578faU, 0xbd55fa2bbcb09becU, 0x3d7637383d8fb28eU, 0x3d382183bd699067U,
  0xbd6859433d47d536U, 0xbc1d2968bd4a414bU, 0x3d16048a3cb3ab8bU, 0xbd19c9103cdaba55U,
  0x3bcee5d8bd329640U, 0x3c2e26e8bd7737f0U, 0xbc7ea580bd8a71c8U, 0x3d9ed63bbda04ba6U,
  0xbd78d6a33d81c571U, 0x3d9658c33d0f5820U, 0xbd49572bbcfdc63cU, 0xbcb72ca13d7d2582U,
  0xbd21efcabdaa52feU, 0xbda6fa6b3a96e000U, 0xbd55d2f9bccc8bb3U, 0x3cf9a1373ccbacedU,
  0x3d89c88cbd75e55bU, 0x3c3cd300bda952b8U, 0x3da6eecdbd07426cU, 0x3ca2a894bd7b5c4dU,
  0x3be913783d7abfa8U, 0xbd0070a6bc8fcb00U, 0xbb22e7a0bd827ae6U, 0xbd42b8fb3d29dd76U,
  0x3d3a4840bd500d70U, 0x3cde2dcc3d671032U, 0xbd956a6b3d75b5d0U, 0xbdb352423b773160U,
  0xbd011d243d76908aU, 0x3d03fb063d75918aU, 0x3c91339e3cac0c06U, 0xbdae300ebd2cf340U,
  0xbceb4adbbd5c5c4bU, 0x3b82f1303cc635ecU, 0xbcfdc1cc3d6e04ecU, 0xbd29e9abbd81a43dU,
  0x3bf5861b3d660b82U, 0xbd4a6f10bd8a60b3U, 0x3bfe64d0bb792560U, 0x3d8ede7d3c7c6f4eU,
  0x3d262ee43cb92bccU, 0x3c9239943ced94acU, 0x3d68290a3d881cdcU, 0x3d2b03a4bc6b8181U,
  0xbd7f4b1a3d82dc71U, 0xbce5cb05bd34c56bU, 0xbc6f6786bc93b3a7U, 0xba806b5a3c5f0d54U,
  0xbba457eabc8e104cU, 0x3d70e6b2bd4f88cbU, 0xbd596b563d2b8e7fU, 0xbbed3830bd48381cU,
  0xbd0c2c8b3d5a3139U, 0x3d900f393d7a5732U, 0xbd3bacb0bd4028c0U, 0xbd80bc86bd805725U,
  0xbb8299a2bd63a110U, 0x3d1975fabc77c15cU, 0xbd5c8606bd142058U, 0x3d3b2d3f3d530ca2U,
  0x3d807f513cf0cdccU, 0xbdaf38923c747f98U, 0xbd93f9823d8ffdcbU, 0xbd34e70b3c0e237cU,
  0xbb4b395e3d149cf6U, 0xbd451c803ca68074U, 0x3c5a7640bd376200U, 0xbd007ce63d199924U,
  0xbd732c9dbb5bf38cU, 0x3d2c480abd88b36eU, 0x3d540b96ba592180U, 0xbcaff53dbd47ad3cU,
  0x3cf920613da4bc49U, 0x3d15885a3da07b7aU, 0xbd714bd5bd811006U, 0x3d7563fbbd3802a6U,
  0xbd0cd6c3bda324bbU, 0xbd8495723d8255c3U, 0xbcbb90993d8c36adU, 0x3d811b31bc34b247U,
  0xbd7d07d4bd8e8e18U, 0xbc98daa03d57f882U, 0x3d6ff4dabcfbf3caU, 0xbcf10d8cba540b4aU,
  0xbd9487553d8a1633U, 0x3ca0eb74bd3d091bU, 0x3bed15503d957851U, 0x3d0179b33d8fad45U,
  0xbb055449bd91f82eU, 0xbb2c2760bad5de75U, 0xbd1c9c4bbd558c6aU, 0xbd27b98c3d6a1e4cU,
  0x3d931385bda78ef0U, 0xbbc688993b53dca0U, 0xbc1abbcb3d52f026U, 0x3d6463643d4c7fbcU,
  0xbd13f4bebd1106abU, 0x3da1f12dbcd68fccU, 0xbd42591bbd1e2b05U, 0xbd2bd1103d1c8800U,
  0xbd877bf33d89fdf0U, 0xbaf18c003da61e61U, 0xbc0ce2283cab2794U, 0xbceace723d9a2d58U,
  0x3d181c71bd4a3916U, 0x3d160070bce09f3aU, 0x3d5d86323cb81656U, 0xbd78b5bd3c8d23b5U,
  0xbd5c4a783d014f06U, 0x3b00d3853d97a3fdU, 0x3ce659dc3d73d5a3U, 0x3badc6c43d7072dcU,
  0x3d7436bd3d364362U, 0xbd8a5df03d1c5b80U, 0x3c696f18bc80ad14U, 0x3d3701f2bca96daaU,
  0x3c1af7c23d7fd859U, 0xbd478e1b3cd587ecU, 0xbc7dba003c1a4f68U, 0xbc5250043d5e119bU,
  0xbc5545b03da7d3b1U, 0xbd92e07bbd3b887dU, 0x3d95eb8e3cec8e8eU, 0x3d3418d3bd4e9317U,
  0xbd56d856bd9a68c8U, 0xbcb7a8243d15ec16U, 0x3d4eeabbbccfef7eU, 0x3d23543f3c4eaf78U,
  0x3c1172663d9d4e63U, 0x3d5f706abcee626cU, 0xbd89d808bd4d0c4bU, 0x3d63cff63d6104ffU,
  0x3d9667b6bd920408U, 0x3d6fccda3d80e26dU, 0xbc35f3c0bcd61bc0U, 0xbc375a18bdaa21cdU,
  0xbcfd1c9f3d06880aU, 0xbd13e4e03d3721eaU, 0x3c872707bd17d0b6U, 0xbcdacb883cc9c65eU,
  0xbcdcb9dabd8a84e8U, 0xbb35dc393bd0cd50U, 0xbc3a4e0fbca83c7eU, 0x3cca6cacbd8d8888U,
  0x3d6a75b4bd3f730bU, 0x3cda7b8c3b0f4060U, 0x3d796ff23bb51822U, 0xbd4e9cf6bc19ec03U,
  0xbc36bcc3bb97d398U, 0x3cb9cda0bd1f1096U, 0x3d4b0e3a3d962bd5U, 0x3d9a18ce3ca4051fU,
  0xbc46ed743d988c49U, 0xbc171ae8bcaa81a2U, 0xbd6b6621bd8c5cacU, 0xbdc4a3fabd74dd56U,
  0xbd7bdc7fbc86a1ecU, 0x3c8ae2323c93858cU, 0xbd9fa2473baf6793U, 0xbd0929a63ca9b459U,
  0xbdb57ecb3c0c1918U, 0x3b825c30bda1995bU, 0xbd35c006bd575e1bU, 0x3d53365a3d71a445U,
  0xbd95fb523d115a06U, 0x3d6eda763d72651aU, 0xbd5e30f6bc3c1c68U, 0xbdc6a3d5bd820d8cU,
  0xbce3b1b9bc04f7a8U, 0x3a3bdc003d504bb3U, 0x3d8cac8fbd9649aaU, 0x3c452993bda87613U,
  0xbcc70c62bd15e42bU, 0xbcd2350a3d951801U, 0xbd42c4433d0283e0U, 0xbdb044a4bc28b5a7U,
  0xbdb29ee53cb32db4U, 0xbd9013be3bf6c750U, 0xbd2a32403d2b3e15U, 0xbc57a2403d31197dU,
  0x3c67c92cbd6beb38U, 0x3cd5aba03c121b98U, 0x3cffe6203cc78dacU, 0xbdbb8414bdb77669U,
  0xbd7ee0c5bd1c89bbU, 0x3d3c0a0a3d95442fU, 0x3d83ddcfbc7a8261U, 0x3d2f3b6dbc8d7c4eU,
  0x3c303b5e3cc578a0U, 0xbdb6e851bd9c6013U, 0xbdbceff93c8c0a52U, 0xbdb76893bc6a1585U,
  0x3cc27fd5bd926e00U, 0x3d9bb85d3c3131c0U, 0xbc859634bc1f4400U, 0x3d98a10bbcb54c53U,
  0xbd629d1f3b1ab98eU, 0xbd034e2bbcbe3916U, 0x3d3455063abd1c00U, 0x3da7f0eabd3c809bU,
  0x3caebd82bba5e750U, 0xbc83166cbba4e184U, 0xbc9e73ba3d11f6abU, 0xbc253e703cfccf35U,
  0xbcccce2abbf608b0U, 0xbd033763bd30442bU, 0x3d39c8753d4149bbU, 0x3d4672703d301b40U,
  0xbb0ef18cbc5cd198U, 0x3d0a94c6bd79ee4bU, 0x3d83b6eb3d8b0676U, 0x3d175de03c810138U,
  0xbdcd43e7bc567461U, 0xbd9afac6bd414a7bU, 0xbd896ab03d83d395U, 0xbc5fef66bc22118eU,
  0x3d93907e3ca35b40U, 0x3d93dab93df7f043U, 0x3da8707cbd09d375U, 0x3e1c5c083e24219cU,
  0xbb99ac393d95d1cdU, 0x3af03551bc8ffc80U, 0x3d8e0a9f3d18749aU, 0x3afada60bbb2dceeU,
  0x3d9867793ca72b00U, 0xbd91a9cb3b70eb00U, 0xbce1c9c03a4fb48aU, 0x3c2bdf00b99fd116U,
  0xbd029efeba7b5a4bU, 0xbbc9bed03ca5f520U, 0x3d6a66523d836ff9U, 0xbdb410073c1069b3U,
  0xbcaa5341bd441c0bU, 0xbbef4b00bcd087f1U, 0x3cab60e5bc6ac20dU, 0xbcb7e5c93cb52645U,
  0xbc268da1bd643c46U, 0xbc795a933bac06b0U, 0x3d866d933d50d613U, 0xbd7608853d3873adU,
  0xbdacf9f4bd9b69deU, 0x3c245628bc420300U, 0x3d06ae6abdb3b9efU, 0xbd9fcb10bd2b1eeaU,
  0xbc0831053cd4f2b0U, 0xbd6e0fa03ca9ae4cU, 0x3b34daa0bd2d8526U, 0x3daa1c4ebd07d59dU,
  0x3b9350b5bd5bd8c0U, 0xbd1233d63d3cb369U, 0x3d11dcbfbd2fdb09U, 0xbd39b44d3cf77694U,
  0x3c5174b9bd820946U, 0x3d68e411bd9e68bbU, 0x3d86953bbceb1e2eU, 0x3da7a0b63d8eaa5dU,
  0xbd4bf7683d3f3d1aU, 0xbd5b2d70bc825dd4U, 0xbcd246d63c4ba65cU, 0x3d964049bd7d73eaU,
  0xbd9f6de0bba0150fU, 0x3d3857d6bb3e8160U, 0x3c5a9ca83d918991U, 0xbdf84a7e3cca8ceeU,
  0x3c4b471bbbfe7c30U, 0x3d76b5163cce02f1U, 0xbd5c76e5bc052408U, 0x3e1b9cf33e532aafU,
  0x3b6fa75abd52bb76U, 0xbd9304ca3d41f2d6U, 0x3daf282e3d8e7d51U, 0xbd7799193d8a08bbU,
  0xbcf572153d4b5d16U, 0x3da82f0bbc9c8db4U, 0xbd5e67cb3daba4e5U, 0xbd3c38fb3d15ac6eU,
  0xbd05b90e3d76cea8U, 0xbd8493debccaa796U, 0xbd4db760bca0a7ccU, 0x3d580b5d3dabefe8U,
  0x3d4561e5bda7a898U, 0xbd37f33b3a9ea5baU, 0x3d5c7027bccaef43U, 0xbd1be8e23d2005feU,
  0x3d226c8e3d1e6856U, 0xbd175e31bd81e9f8U, 0xbd88d101bd0a3d8eU, 0x3d0fe0eabd913554U,
  0x3d8682cf3ca14d8cU, 0xbcb80780ba6a8680U, 0x3cf57c40bda056d6U, 0x3d61ba223d3b6a5bU,
  0x3dccab10bcb57bf9U, 0x3c41df00bd67947bU, 0xbd395560bd614aa6U, 0x3e25c40a3e1a9291U,
  0x3dabe4d93d97c869U, 0x3c217b00bd5648e2U, 0xbd82a6993d047867U, 0x3d5df2b73cb00d2cU,
  0x3c69f0473d146da0U, 0x3da9152dbd65c67bU, 0x3d8e00d1bd1efa9cU, 0xbc9272863d9d6cf5U,
  0xbceee48abd0afd1bU, 0xbc1eb598bd7ee970U, 0xbd3db49bbd588ffcU, 0x3cb844803d196d4eU,
  0xbd14c7af3d92e7ebU, 0x3d8689fdbda4df2eU, 0xbd326b96bd3edf8bU, 0xbcd8ea163c23ea9eU,
  0xbd961ebfbd830b7bU, 0xbd2c01963d92117aU, 0x3cbf1bd7bd01fa3cU, 0x3dc8705e3e2f8e46U,
  0xbd3269b13d83eacdU, 0xbd11369ebd72ba36U, 0x3dde65fb3d59b43eU, 0x3d1f4f51bd1d54dcU,
  0xbd4fd9f73d9de485U, 0x3caed4943d598d26U, 0xbc94e5343d684fa4U, 0x3c9684343d21085bU,
  0x3d25955a3d9ee0daU, 0x3d169370bc1e1ac0U, 0xbc908f4c3d229b40U, 0x3d9ab89b3d208a28U,
  0x3d3b5a97bd92333eU, 0xbd00a650bdc9af94U, 0x3d126bf8bd8d9fc8U, 0xbd4478d43dd0629dU,
  0x3deb5842bcbe4d8cU, 0x3d0b094d3d9d9db1U, 0xbc63525bbc1216f1U, 0xbcce2050bc80c484U,
  0x3d82d3a73d6f13caU, 0x3d2bd232bd1050e0U, 0x3d3b6deabd3feffdU, 0xbccd0b363d081476U,
  0x3dad814a3dc09d80U, 0xbd3f2280bd3ad73bU, 0xbd0bac003cc090f4U, 0x3df9d7e33e2b7672U,
  0xbd76783b3b53d860U, 0xbcff460c3dabd06dU, 0xbd4720e9bc2cf62aU, 0xbd20b5e9bccf1572U,
  0x3e288e953d597f46U, 0x3d8f9782bd313bebU, 0x3d03bd1cbd6723e4U, 0xbd8e7e5e3d41c47aU,
  0x3d956fa2bd0a5900U, 0xbd539370bc8ac720U, 0x3cd5d9e0bd94379aU, 0x3c79fa00bd4e609bU,
  0x3d952cc3bce4de56U, 0xbd7a551b3d8d3e59U, 0x3c1cf5403d8e9cb9U, 0x3d4f4696bca7a36cU,
  0xbc877cb4bc5cc398U, 0xbd9bab063d456592U, 0xbd54b64bbd3f398bU, 0x3cafb3943d67c4b2U,
  0xbd2cd4463d415202U, 0xbd4d20763d1e23c6U, 0x3ac24d403cc50b34U, 0xbda9adce3d4035b6U,
  0xbd416f0bbd945f50U, 0xbb2193003da3a9b3U, 0xbd676796bd0e756bU, 0xbd232a36bbb3b9d0U,
  0xbae8d940bd91a106U, 0x3d92ce753d1e87d0U, 0xbd23a7563cb008a0U, 0x3cb69d143ceeafacU,
  0xbdaa1ee3bd8c078bU, 0x3d6dd8723b81b150U, 0xbcbd0d56bd30772bU, 0x3d18b12abd74bdbbU,
  0x3d296bf6bce79df6U, 0x3d6e0d8a3b804300U, 0x3d08e9a0bcee0436U, 0x3d8565513d4acc82U,
  0xbd872c033ca883ccU, 0xbcb826b6bcb0000cU, 0xba11dc00bd902888U, 0xbd79bb0b3d2fd8b2U,
  0xbcb73a16bd63aa96U, 0x3d5f46b23d310512U, 0xbd821a0e3cc75f00U, 0xbd773c7b3ca9af80U,
  0xbd88eea03d2b8692U, 0x3c2a7a80b8b5b400U, 0x3da2d8c3bd4247d0U, 0x3d459d4a3d463982U,
  0x3d8530b13cd649e0U, 0xbd7496f0bcd4752cU, 0x3d56f286bd4cb27bU, 0x3d5b1df2bd80fabeU,
  0x3d1c53103ccd6954U, 0x3d9007733c385780U, 0xbb4e7da03c104a68U, 0xbd70f7c03d8bb96bU,
  0xbcaee4cc3c85cf0cU, 0xbd37f450bd21626bU, 0x3d6817aabca6822cU, 0xbda9742ebd8613b3U,
  0x3cdbe7ecbd4acfa6U, 0xbd2021f0bc480bd8U, 0xbd9eb678bc832620U, 0xbd6654663b69e900U,
  0x3b733ea0bd5f80b0U, 0xbda71e163d24ff40U, 0x3cd950c0bd7c8c40U, 0x3c148a98bcdb8980U,
  0x3d33a1c23cbd89ecU, 0xbc7df7803d811c25U, 0xbd6e5b0b3bd33180U, 0xbd5c43fbbd6bc34bU,
  0xbda0b0d83d1123eaU, 0x3c4844c0bd7a3f86U, 0x3b85f2d03d397da2U, 0x3d2b30d6bd59b406U,
  0xbcbd06c0bd58b3bbU, 0x3ce2e9f43cfcdfd4U, 0x3d0f23463d8f4c25U, 0x3d85c563bd1ad9dbU,
  0x3bd505803d9b666dU, 0x3d612b7a3ccabf4cU, 0xbcca8ea0bd2c4220U, 0x3da47ad5bd5a9b6bU,
  0xbd37c0bb3d0c2e66U, 0xbc737a003d0d9860U, 0xbda8ad233d14532aU, 0x3cc83454bd1a8386U,
  0x3b90a4003a90b400U, 0xbd7c47d6bcdbab16U, 0x3da20d95bd2edebbU, 0xbd17f8e63da9a93dU,
  0x3d06e5babd1fd71bU, 0x3d5e8dca3d7d8172U, 0x3d4a53c63c5f1780U, 0xbd0862503ca4c5d4U,
  0xbd7fb930bd3613fbU, 0xbd2c5836bd970eebU, 0x3d9348bb3d754a72U, 0x3cff9f14bca62b54U,
  0x3cf252ec3d326102U, 0x3d2e01e6bd1aa010U, 0x3caaefecbc6bb940U, 0x3d8fdb913d870e05U,
  0xbd05b886bc0bf200U, 0xbd6bf3a0bca0e4b4U, 0xbda95f06bc9c1c60U, 0xbbdafad03d6a5b32U,
  0x3d89f24bbc718a00U, 0xbd89f523bb7c9100U, 0x3cdefc143da80821U, 0x3d3186babbcc2b00U,
  0xbd29f856bc862b2cU, 0x3d9623cbbda4759eU, 0x3d19d8b6bbf8a5b0U, 0xbd85e793bc12d558U,
  0x3cdc26743d4f6b8aU, 0xbd9417163b9a0f00U, 0xbdaa44c0bce20f36U, 0xbd1a815b3cbf5360U,
  0xb9fadd003cbb3a80U, 0x3d4d7162bd70b1fbU, 0x3cd4522c3d13e5b6U, 0x3d844323bc430d68U,
  0xbcecedf63c06c980U, 0xbca265c03d3e885aU, 0xbcf09f6cbd45e5e0U, 0x3c9026403d89f28dU,
  0xbd9938103d4c28baU, 0xbcbfbd2c3cc61e14U, 0x3cc955ecbd95be28U, 0xbca64e2c3c4393c0U,
  0x3cb8b3a0bcae3cf6U, 0x3da9d5c1bc2ff798U, 0xbbd83a00bd5cd07bU, 0xbd912a863d310336U,
  0x3d961441bcb04bf6U, 0xbc2df3683cf5a66cU, 0x3c88bcccbc861ef4U, 0x3bbebdd03d03acc0U,
  0xbc1484a8bd9205aeU, 0xbd4cfe00bd5727ebU, 0xbd72c700bd12280bU, 0xbc5720e83d47cd42U,
  0xbd8079c83c617768U, 0x3d0e9ffa3bfaae30U, 0x3c7f7a40bd4f5debU, 0x3d893e63bcace120U,
  0x3d96e5753cdafd94U, 0x3cf573a0bcdf6440U, 0xbcb52a203c962c14U, 0x3cbe06ec3a7c7a80U,
  0xbdb0279abd821765U, 0x3d940bd9bd8ad9a0U, 0xbd8e372bbd1609c0U, 0xbd9d5e863d9543bcU,
  0xbd9bfbcf3da2166bU, 0x3da16a833b53ac22U, 0x3da4a3ac3da06acfU, 0xbd02119abc9b38c7U,
  0xbd7dc5b1bd5c26b6U, 0x3d35350c3d1567b6U, 0xbc4123c8bd93f1a7U, 0x3d0ce98f3af5b0b5U,
  0x3d9476453b990550U, 0x3b10b7003c6dc2e8U, 0xbc53a518bd36e45eU, 0xbd853663bdaeb3d9U,
  0xbcb6e99c3c82d2ecU, 0x3d31aa96bd35919bU, 0x3cdd1234bda75558U, 0xbd1b9795bdaa7a7fU,
  0x3b1b7010bd8989a0U, 0xbd9f1cd3bd92a45bU, 0x3d95ad3bbb1794fcU, 0xbd5aed9dbdb2d717U,
  0xbda6b016bc19a068U, 0x3d987aabbd6a7840U, 0x3c850c133d989657U, 0x3d84a0ff3d6471e8U,
  0xbd4b70c93c811bf4U, 0xbcaf79b63d9c3aadU, 0xbcfe580c3d261d3dU, 0xbda2b683bd93a2cbU,
  0x3d0ff3dbbd0493e6U, 0x3cb1be40bd0c8c7bU, 0x3d9abe713d760782U, 0xbd821fd83b18cbeeU,
  0xbd80325d3c618140U, 0x3d4415e63d9b409cU, 0x3d776ee63d5c6585U, 0x3d1f850a3d7592f4U,
  0x3bf1102c3ce3f98cU, 0xbd88d690bd577b66U, 0x3ce0365abda2e564U, 0xbcbcb35fbc356b53U,
  0xbca892893d2beab2U, 0x3cd43f40bd8dee66U, 0xbc3024a83c04bc4bU, 0xbcdc662cbb8f425cU,
  0xbd66e4123c057934U, 0x3d35cc06bd7ea386U, 0xbd1d3fb6b8ac9400U, 0x3d4945aebcf05b08U,
  0xbc3a6b163d9d83e1U, 0xbd724c703cc218c5U, 0xbd5656423d2d2db4U, 0x3c4676953d9f3b7aU,
  0x3d8ed3bd3ccf0260U, 0x3d2b62d83c06edc0U, 0x3d0b30e8bd1bc5bcU, 0xbd065419bbc7ed0cU,
  0xbbc3f7ff3d3905d2U, 0x3d7916a23c7922d8U, 0x3ae6bac03d74df75U, 0x3d193da03bb2d9a1U,
  0xbcaae58bbd00e4d0U, 0x3cf99acc3d42647aU, 0x3c7421183d65de92U, 0xbda0df2bbcea1610U,
  0x3c93b59d3da7c899U, 0x3d24184a3d149df7U, 0xbcd2f4c03d97c488U, 0x3d54d6e3bd3baa3fU,
  0x3d85fd6e3aea0140U, 0xbd968fe73d42092aU, 0xbd0a26a23d926462U, 0xbda1a452b9b66f33U,
  0x3da2457bbda3993eU, 0x3d86a68bbcca924cU, 0x3d06aa26bd26a68fU, 0x3aeeb8c03c98f8aaU,
  0xbd893a493d3f0985U, 0x3d6d24cabd7b4bbbU, 0xbd9a7efebcd80076U, 0xbd9d716bbd76babfU,
  0xbd8278ed3d4e4b8aU, 0x3d5b740abd1360e5U, 0xbc4f4948bd914addU, 0x3c2929e3bdb3a474U,
  0x3b472990bc944a6cU, 0xbdae429d3d62c702U, 0x3d3f64483bf9632eU, 0x3c84c16b3d12846cU,
  0xbd54b1ac3d45882aU, 0x3d7559923d367edaU, 0xbb4f3660bcc4c48dU, 0xbc8667ecbd8191e6U,
  0xbd0fed213d9d77a2U, 0xbd14c32bbd907b60U, 0x3c6068a83d4e5a5aU, 0x3d7e53133c923fb1U,
  0xbb72833a3d5cd0e2U, 0xbda952163cc15c6fU, 0xbd5eaaca3d5015e0U, 0x3d2512a7bd3c9440U,
  0x3d839b343c944bd4U, 0x3d8d537a3d52c1eaU, 0xbd7b0aeb3d9aed9dU, 0xbd65ec39bd44fc06U,
  0xbb586b5dbd4294a6U, 0x3cbc62c0bce0ea00U, 0xbd98d6383d7eeceaU, 0xbd73e6e03d6e8557U,
  0x3c8bec13bd33cb90U, 0x3d5a35023d3b0b12U, 0xbc9bdae03d247e9aU, 0xbd8252a6bd9978a6U,
  0x3d72f57abd845bb6U, 0x3d371c223d9740c4U, 0x3d4e985abd6ea0d2U, 0xbd3662213d714da7U,
  0xbd8c8abcbc840314U, 0x3d296950bd9cc3c0U, 0xbc28e788bd981044U, 0xbd5c1fb43c8430e5U,
  0x3d43131ebd94cfe3U, 0xbd569af63bf95080U, 0x3d1f080abd7066edU, 0xbd89c5483d62fb9dU,
  0xbc17c136bd0da218U, 0xbd74183bbd5a8f26U, 0x3d5592423b9b0c80U, 0xbc9143d13cfef591U,
  0x3cc501d63d3a50faU, 0x3b30e300bd316698U, 0xbcbac4dbbd0f671cU, 0x3d199c90bd37f910U,
  0x3cd50842bd6df1d0U, 0x3d1e10f33d0d3320U, 0xbcb55dd2bd8cd33cU, 0xbda2dc1dbd07850dU,
  0x3ced0eefbcbe98b6U, 0x3d8c963d3d741e26U, 0x3d9028e1bd202069U, 0x3d8cc5213c78bf79U,
  0x3d85f1133c20a2e8U, 0x3c1314d83c14d568U, 0x3d96e49bbd686610U, 0x3d44e7d23d0a3176U,
  0xbd8bd3c6bd937f20U, 0x3ca12134bbc0b7d0U, 0xbd1ea6e6bd4c10abU, 0xbd862786bcb8502cU,
  0x3d352a86bd34df20U, 0xbb62fa003cfac8acU, 0x3d1f34603d0160d0U, 0xbd7dc636bd62d36bU,
  0xbd1da0603cf1c0e0U, 0xbc07c128bd9e5a93U, 0xbcce80163d664a86U, 0xbd26fd80bcb9d556U,
  0xbd0ce930bb749100U, 0x3d1ffb30bc99df14U, 0x3be481d0bd986658U, 0x3d83d9a93d4698baU,
  0xbd6bf436bd5f7946U, 0xbd4c9600bd627c00U, 0x3c689040bceca940U, 0x3ce9f10c3d3cac22U,
  0x3ce62d6cbd8a25d8U, 0xbcd3bf8cbd8016cbU, 0x3d5d731abc84fb54U, 0x3ca9f734bc0d28e8U,
  0x3d56ee8a3c78a8c0U, 0x3d1beb00bda76700U, 0x3cd1a900bc0337a8U, 0x3d3fa21a3d9ede41U,
  0xbcea8516bcb008ecU, 0xbd7356c63d8fc37dU, 0xbd6048d63ca9aef4U, 0x3d621ea63bca0850U,
  0x3ce4c7543c9ee9ecU, 0x3d8b6093bda7f280U, 0xbcad1a00bd6c45e6U, 0x3d09ff00bd55f396U,
  0xbd708b463d829b9dU, 0xbd37e22b3bb26c50U, 0x3d49136abc736598U, 0xbda7413ebd1b474bU,
  0xbd9db553bb4c3600U, 0x3d30838a3d888da5U, 0xbce48aac3d9070ebU, 0x3c207d80bd55fc06U,
  0xbcee2820bd0f89d6U, 0xbc816f4cbd818c53U, 0x3c8f70ccbcba5120U, 0xbce91a80bd9e3cc0U,
  0x3cb7bf8cbc42ea58U, 0x3d5a92023c1e1100U, 0x3d7d8b4abd72f140U, 0x3da2e7a13c829c8cU,
  0xbd93ff2e3a442680U, 0x3d54e67abcd03b60U, 0x3d3d85a63c452e98U, 0x3d8bcf35bce96340U,
  0xbb00e400bd951eabU, 0xbd1114103d0c04aaU, 0xbd844cce3be10550U, 0x3d9b9a9d3ccc3c40U,
  0xbda4436bbdaa1478U, 0x3c84668cbd063186U, 0xbaac1f403d2d02e2U, 0xbc2788d83c9153ccU,
  0x3d3311d6bd47a69bU, 0xbd5d9f16bda6c49eU, 0x3cb414f4bda3f3f6U, 0xbd5749f0b9d1a500U,
  0x3d28f8f63d8a7959U, 0xbd0d1eebbd871200U, 0xbd0fdcd03d838b01U, 0xbd58d880bd76f2e6U,
  0x3d624e4a3d8fd9ebU, 0xbc782cc0b9654600U, 0xbd4c18a63d769ec6U, 0xbd72448bbda029e8U,
  0xbc9c0f8cbcfc496cU, 0xbc85c9ac3d4bdad2U, 0x3d7fd3c6bd4be3f0U, 0x3d861bcdbd9988e8U,
  0xbda4cc683d446586U, 0x3cc4a90cbd411e60U, 0xbd60a3563d8539fdU, 0x3d318206bad5fd40U,
  0x3c154e003d9cb30bU, 0x3d97dca3bd15d6cbU, 0x3d195df03d05712aU, 0x3d830f21bd030696U,
  0xbd967193bb0b7aa0U, 0x3a847cc03d9a5e93U, 0xbda6102bbcda7a56U, 0xbb8df9b03d762e12U,
  0xbacfd200bca9ffa0U, 0x3d5e64a2bcf43ad6U, 0xbd4817263c22cc00U, 0x3d3214b63d9f4843U,
  0xbd2d3c06bd3ee2c6U, 0xbb90d3803da9b7bbU, 0x3c6398003c863bc0U, 0x3d789d3a3da3ac1dU,
  0xbd597d003d105916U, 0xbd2532363d6118eaU, 0xbd00dd3bbbaff300U, 0xbcf0eff6bd66e14bU,
  0xbd9bcc63bd305780U, 0x3d2d78f6bd3390fbU, 0x3d1926aa3ced9034U, 0xbc75b418bc7c4d40U,
  0xbce365ec3c94b534U, 0x3d512e5a3d018b46U, 0x3d5b5c263cb743ccU, 0x3cd2a514bb9bd830U,
  0xbd8d8740bd20b756U, 0x3cf7f500bd5b87f6U, 0x3d8e6fe13d2f9c06U, 0xbd540ceb3b2b5fa0U,
  0x3caf8fcc3c3aefa8U, 0x3cb63f60bd1bb6b6U, 0x3c160be8bda80266U, 0xbd9006063d914d8bU,
  0x3d5c04563d2a4606U, 0x3d9504bd3c83faccU, 0xbbadfc30bce42be0U, 0xbcef2fccbc23e368U,
  0xbcd7d1ac3d17e6a0U, 0xbd5f14b03c7bc080U, 0x3d9987313d9dcbddU, 0x3d6bf81abd227166U,
  0xbd103ea63cfcdb0cU, 0xbd4ab4b63d83a315U, 0x3ceec7c03d39f236U, 0xbbe1f4803ba99f30U,
  0xbc5f8968bcc214e0U, 0x3cdc3e8c3cf4a3b4U, 0xbda183d33d076e60U, 0xb888b400bd913a53U,
  0x3d6916a6bd073c60U, 0xbbb28b003d911411U, 0xbd5a3610bd004b36U, 0xbda0f1cebb2dc360U,
  0xbd7cac273d8d3cbcU, 0x3c9d290cbd9ac47bU, 0x3d891053bbfed9b0U, 0x3bdc9fa23d6af145U,
  0x3ca00bb43ca7c34cU, 0xbdaa90403a848c75U, 0x3d88a34abd5fc3f0U, 0xbd8af8fc3d646e95U,
  0x3d206c2b3d683da6U, 0xbcaead6fbd666c20U, 0x3ca108f03d33457eU, 0x3d48371a3d1cac70U,
  0xbd1741f73c90f960U, 0xbd3e9e803d5f30c6U, 0xbcda9556bca17b59U, 0xbd16f70bbda73834U,
  0xbd90aaed3c5df11bU, 0xbd90ac63bd55824bU, 0xbd8b5856bda8afb8U, 0xbd708f52bcd58d4bU,
  0x3cba5ee33daaaa8dU, 0x3d9192d1bd7f560dU, 0xbd7884f63cc4ab54U, 0x3d384b163cf9a11bU,
  0xbd0ad49abd0fbc50U, 0x3d36dfddbd7f4a80U, 0x3c28cc2abd320f02U, 0x3d08896fbd4069f6U,
  0x3cabde303da13ac1U, 0x3b982f80bd017c4bU, 0x3cb2fea0bd2b4b97U, 0x3d23d84a3d4d3e1eU,
  0x3be98d0dbd87844dU, 0xbd800726bd54bc6bU, 0x3c62a018bcd96cacU, 0xbd289943bca8a191U,
  0xbd8018843d7ff4a2U, 0x3c96b76cbd9ee2afU, 0xbd0e89443cd9b2ebU, 0x3d84c568bdac06a4U,
  0x3c6e23c3bd8e26c3U, 0xbcd936a5bd586696U, 0x3d0fb76a3d3b3460U, 0xbce71f6b3cbe4bfaU,
  0xbd81d0aabd8e614bU, 0x3da107b53ca6fc74U, 0x3da4dc993d323d49U, 0xbd26ab40bc48ac4bU,
  0x3c1182f73d6d64d8U, 0x3d8cc8153c9866a0U, 0x3bd4c380bc581080U, 0x3cd6c870bc9bf5adU,
  0xbd2fe2643d97435dU, 0x3c7d6668bdb6ce30U, 0xbd0d4849bd8fcdc7U, 0x3cbbd0c2bd1d8b8bU,
  0xbc32d891bd6b2b86U, 0x3c5dd079bda3e920U, 0xbcc45e1dbdb65cdbU, 0xbd4e143cbd42bdb5U,
  0x3d5f34e2bd949fa0U, 0xbd0796a63d5b09eaU, 0x3ced66943d56589dU, 0xbc8fd354bc5e5198U,
  0xbda225bebd1e071bU, 0xbd03ba36bda1e7abU, 0x3c4c2bc0bd20d990U, 0xbc6edef83d8a8c42U,
  0xbd8ab69fbd6a3710U, 0xbd371680bd64f9ecU, 0x3d9d98593c72bed9U, 0x3c934566bd8fc304U,
  0x3d8123d83d6fff16U, 0xbb16a73b3a5fb180U, 0x3d25e9e5bd94d7a8U, 0xbc7d4d0b3ccc8c5eU,
  0x3cc2a5e3bbd66880U, 0x3be6ef00bc9db760U, 0x3d71a7623d35ab86U, 0xbbf75eb03d7b8575U,
  0x3c72753bbd7790b1U, 0x3da3171b3d55fdb6U, 0xbd9a94c8bc1d31c0U, 0xbd0eddef3d34cfc9U,
  0xbdb8a0a8bd11969bU, 0x3d501b22bc666d14U, 0x3d6a4a5fbc9c040fU, 0x3bc2dd09bd67092fU,
  0xbd21c7aa3d3941f2U, 0xb887b860bda8408eU, 0x3c10d888bd24b07cU, 0x3ca7795abd440821U,
  0x3c7151753d13960aU, 0xbd0586d6bd63af4bU, 0x3d6b40f63d3411b8U, 0xbcacdbc0bd989e1bU,
  0xbdb33a23bdb9bc23U, 0xbd84c01bbd73aee6U, 0xbbffc200bda6a530U, 0xbdaad9fd3d48a2b8U,
  0xbd70464ebc580768U, 0xbda233583d774235U, 0xbd9ae04abd41e3e9U, 0xbd0516dc3cc20230U,
  0x3ba10cc6bd2cabb6U, 0xbd77dc07bccda440U, 0xbd0f6161bc445f8bU, 0x3d8f31253c4a81c4U,
  0x3d1ae18ebccc56a0U, 0x3d6dc086bd9203aeU, 0xbd23a170bd8a8511U, 0xbc176768bc95c93dU,
  0xbd9d315c3d70ce7fU, 0x3d18a8263da95495U, 0xbd865a4e3d9a69a5U, 0xbb40d13b3d47ef70U,
  0xbcd4f2a6bd96ac06U, 0xbd5c0fcb3c9c6423U, 0xbd8985e5bd91eb41U, 0x3cfd81fd3d02537cU,
  0x3d7299093d2c20a2U, 0x3d3b969e3cf9aa0cU, 0x3c8bcf6f3d0ac15dU, 0xbd977021bd95ca8eU,
  0x3d0502e0bda2cd1bU, 0xbc80d4d43cf213ecU, 0x3d125e863d1c93d1U, 0xbd87f156bca2f751U,
  0xbd1176dcbda57ca2U, 0xbd8613e0bd401b5bU, 0xbcb6c8a03d7367e2U, 0x3cac39e8bb9944a0U,
  0xbd9a31b4bda8059bU, 0x3d21e436bd836276U, 0xbd39a1a6bbe38a4bU, 0x3c7f9244bcb0a7edU,
  0x3d87b8c7bd3231dbU, 0xbd8a15afbd92a223U, 0xbd2aec8c3d575edbU, 0x3d272069bd03e00fU,
  0x3d30eb24bd3fed66U, 0x3d41ac9a3d31883aU, 0xbc05dd18baf09af5U, 0x3d73f5963d34922eU,
  0xbd3cd83bbd3dc7dbU, 0x3d7d67363d2929f6U, 0x3c99dd74bbe17dd0U, 0xbd89d566bd9a8770U,
  0x3d595356bcee0f56U, 0xbca85bcc3da80239U, 0xbd965423bda3f360U, 0xbc3cb158bc14fde8U,
  0xbc8364ccbd655100U, 0x3d1f41d0bd1e5646U, 0xbcc8deb63d8d4be9U, 0x3d151d36bda7621bU,
  0xbc9f9eccbd453c46U, 0xbc457440bc635bd8U, 0x3d21fe3a3ca162b4U, 0x3ceca900bd54834bU,
  0xbcf850963cd026c0U, 0x3d0899203c670f68U, 0x3d589ec2bd8550fbU, 0x3d967cc3bda29980U,
  0xbc38f1c03d203506U, 0xbd5b1dbb3da13dadU, 0xbda400b33d1b7970U, 0x3c94c0ec3da297a1U,
  0xbd834a6b3c4e4768U, 0x3c0c7ba83d26a930U, 0x3d3a94b23c6bf018U, 0x3d2dbfdabd626080U,
  0xbd9b4c40bd9710aeU, 0x3d23a3903d64de62U, 0x3d363adabd7112b0U, 0x3da009bdbda2fb28U,
  0xbd1a7866bbaa7b00U, 0x3cd3cfecbb8efe30U, 0x3d57cb263caf472cU, 0x3cc265d4bda16dbbU,
  0x3c28ba983d09f416U, 0x3c8595a03cdfbdc0U, 0xbd28e42bbd4aaafbU, 0xbd237eb03c5eea58U,
  0xbda48ef03d856839U, 0x3cef08b4bd40074bU, 0x3cf956343d60e1daU, 0x3d982ad1bb9dea80U,
  0xbc3b37a83d8b8f79U, 0xbd6c8b6bba384d80U, 0xbda02f963d7a1966U, 0x3afb5b40bd3ba210U,
  0x3d9577d1bd9922e0U, 0xbd8f84d3bda485b3U, 0x3d0f37f03d861db1U, 0xbce65220bc0b6318U,
  0x3d85f27bbccf994cU, 0x3d7ad566bcf32060U, 0xbd94d6003d5f00f6U, 0x3cd6c200bc1c5ca8U,
  0xbd5a3cf0bcb399d6U, 0xbd271ce03da2791dU, 0xbd643800bd9e65d3U, 0xbd0313103c95c68cU,
  0xbcb43620bcba038cU, 0x3b8d4b503d5d749aU, 0xbcd86e363cc0874cU, 0x3bd49300bd8ff168U,
  0x3d480b8a3d6b1ef2U, 0x3bf24eb0bc352068U, 0xbbcd66303d08bd36U, 0xbd78f69bbcdcd040U,
  0xbd31fdd03d9563ebU, 0x3c1aaa283da99b63U, 0x3d0c52f63d6fe2daU, 0x3d9223093d05eae0U,
  0xbc815fc03d713912U, 0x3d276f1a3d3519baU, 0xbd6b6dd0bd65d536U, 0xbd935236bd96ec8bU,
  0xbd84bc163d33f576U, 0x3da47c853d619212U, 0xbc3d4d183d6724b6U, 0x3cdf444c3cfeb7f4U,
  0xbce5216c3d228950U, 0x3d84fb233cedbb94U, 0x3d129f86bcc7fa00U, 0x3c811bc0bd53e9ebU,
  0x3da56ad53d62820aU, 0x3d8d8429bcf729acU, 0xbd1a1790bd42e75bU, 0xbd6d5d5bbc9a1de0U,
  0x3b3538603d31f802U, 0xbd671906bd912be0U, 0xbc0e9e583b32e300U, 0xbcbbed00bd434cb0U,
  0xbd37ddabbd66b380U, 0x3c64e6a83d693a5aU, 0x3d23fd56bb722800U, 0xbd9d8410bd09c940U,
  0xbbf2e2d0bcb0de16U, 0xbd8c88d63d1ea4f0U, 0xbd464f103d95dba3U, 0xbda9670bbd3c8bdbU,
  0xbc927d8c3cdead80U, 0xbd177d00bd590c2bU, 0xbbe14200bd8281eeU, 0xbbf5eb303d24361aU,
  0xbd50615bbbd69cb0U, 0x3d4e4dc2bcbf0ec0U, 0xbd205630bda92178U, 0xbd1120cb3d1a2a2aU,
  0xbd7ebea03bfd8780U, 0x3c8854f4bccdf9b6U, 0xbb0144603d5d6482U, 0xbd640066bd84bb06U,
  0xbbb7df80bd5c0fe0U, 0x3bf386503d82f791U, 0x3d7c60063d862439U, 0x3d568ada3d443db6U,
  0x3da03ad33d8ce04dU, 0xbd3e63d6bd940da3U, 0xbd8c33b8bd48eb76U, 0xbd0f7f3b3cd018ccU,
  0x3d8b8cd93da2ee1dU, 0x3ca000203aa58200U, 0xbbf8fbb0bcde9b00U, 0xbda5b5b83d2ba836U,
  0x39fd5b00bc7c4700U, 0x3d8ad8e93ce28ad4U, 0x3da54a21bd1be51bU, 0xbc6cd9283d1928b6U,
  0x3cc3a4f43d7fd4aaU, 0xbcfae9ecbbc92100U, 0xbb78bf60bd9b3df3U, 0xbd1cbecb3d55e89aU,
  0xbda84533bd069b7bU, 0x3d52b1ca3c86e334U, 0xbbb57ad0bca20f00U, 0x3d0534dabd5b46cbU,
  0xbd085f0bbd47b990U, 0x3c3beb80bd9f0346U, 0x3d6a5946bd5143a0U, 0xbd9a7e983c9883a0U,
  0xbd36c1903d2c09caU, 0x3b8da680bd7a15a0U, 0x3da976a5bd030036U, 0x3cdff02c3d7faa5aU,
  0x3d49d84b3d8ceb36U, 0xbd5cb1563d152590U, 0xbd3cedcb3c3c5ba8U, 0xbce449e83d920f32U,
  0x3d916fbe3d30b8baU, 0xbd7e60f0bd96a1cbU, 0x3d0c88efbd4f6532U, 0xbcd5fc91bca1a02fU,
  0x3d8d1e573d9dda99U, 0x3d249bcf3be97c50U, 0xbd4d64fd3c43494dU, 0x3d3fc84dbdbc030eU,
  0x3d330802bd37787bU, 0x3cd083f43d05e1e6U, 0x3d2ec812bd021a46U, 0x3d2e54e23d18f4aeU,
  0xbd45e1c43d20c95cU, 0x3ce218b4bbda7430U, 0xbd8ca64e3c12ea40U, 0xbc842af2bba0b257U,
  0x3c9062323ca7ed94U, 0xbd5e88203cc5f128U, 0xbd82d1a13d92682dU, 0xbd840103bc792862U,
  0x3d380b513d93fcfbU, 0xbd58e6c63c656300U, 0xbd61f0f9bd87e6e7U, 0xbdb614073d35ec04U,
  0xbdbbc6503d8374d5U, 0x3cedb654bd32e0b6U, 0xbcb002203d0fba73U, 0x3da61e93bdc0c4d4U,
  0xbdbc9d313d9231bfU, 0x3d76c1723d1f70c6U, 0xbcafcfd63d116050U, 0x398f4060bc892beeU,
  0x3d0b3556bd0603abU, 0x3a62a5803b065c3fU, 0xbc85b714bd91a43dU, 0xbd66781e3d5ef401U,
  0x3cd80a533d83f463U, 0x3d4e6d013d9d78b3U, 0xbc8b3c743d8d5a72U, 0x3ccd16813ca6d9deU,
  0x3cd3f9053c480e58U, 0xbd53e7003d135c50U, 0xbc039bc0bd241b40U, 0xbb9b2a00bd7fa40cU,
  0xbd90b7d43d5d4225U, 0xbd7c5b163c6f0fa8U, 0x3d233dca3da06ed1U, 0x3c3bdb57bda014ccU,
  0xbd242ecc3d167ee6U, 0xbcb3690c3d9f1e11U, 0x3d35c206bda74e99U, 0xbd0261233d685fc2U,
  0xbccfd3373d8615f1U, 0x3a9b11f53c7f36c0U, 0x3d9671e2bd967091U, 0x3d6d6f1d3cf88fe6U,
  0xbcfb49a33cc8d180U, 0x3d698feabd4f4266U, 0x3d57247a3d8a7535U, 0xbd82cf3bbd3d79e2U,
  0x3c19b7c2bd9ae244U, 0xbd82081ebd1659b0U, 0xbd4fceb0bd82d216U, 0x3d6056893d1e4ebcU,
  0x3d3b169e3d0d9ec0U, 0x3d8390313d05b07dU, 0x3d9dd28bbd7c4d95U, 0x3d725bbfbd31f7b3U,
  0x3d84966e3d3c2976U, 0x3cf76db33d7be5c6U, 0xbd76f4633c38c383U, 0x3c89c7fbbcdade51U,
  0x3d3857853d397ffaU, 0xbb570f003d55396aU, 0xbc5628983c0371a3U, 0xbc7456183c4db99eU,
  0x3d72c227bc07d1f6U, 0x3d136efa3d181740U, 0xbcab4c56bd233c4bU, 0xbda13571bd977bd0U,
  0x3d1d517d3c6b1f00U, 0xbd1920e0bc9c35f7U, 0xbd045bd0bd40a944U, 0x3d9c2833bd9a0844U,
  0xbd92c99fbda4f816U, 0xbd2208e33da5e97dU, 0x3cbdf0adb893ecbbU, 0x3d75b1ebbd890f60U,
  0x3d8a57a9bd0e7ed6U, 0x3c569f68bd2da466U, 0xbd2b243b3c717fd1U, 0x3d9e27c1bd50244aU,
  0xbdbadbf53d8d3252U, 0x3baaca50bd922cf6U, 0xbd7123963da8cfabU, 0xbd7647d3bd7172c0U,
  0x3cdbad1f3cde3694U, 0xbd94497bba0f1271U, 0xbd47ad4c3d601755U, 0x3d814e77bd8d44fcU,
  0x3d7c7a0d3d3d5ea2U, 0x3d853063bd4d626bU, 0x3d495461bcf93f9dU, 0xbd3869e0bc63f127U,
  0x3d0e0703bd8a3570U, 0xbd4317763d93e141U, 0xbca878ac3c4d9186U, 0x3d794292bd42cd8eU,
  0xbb5befc3bdac5912U, 0xbd2d9bcb3d9d1c35U, 0xbd2bded03d33eef6U, 0xbd2342f63d93ad6dU,
  0xbc502832bd2e8640U, 0x3d1491a0bd95fd16U, 0xbc5dec8a3d18aedfU, 0xbd3567fcbd28cc52U,
  0xbda6aa6fbd3bbb96U, 0xbd994a6f3d95021bU, 0x3d3c1e54bc9d0777U, 0xbdace2c03c484d35U,
  0x3d1259673bcfbc80U, 0xbcfaee4c3cbf5434U, 0x39e7d0003d251bd2U, 0xbcca40cc3b98f5cbU,
  0x3d1835023d3bef77U, 0x3d9eda453c8a3880U, 0x3d659ef23ccd4894U, 0x3d3ba87bbd419217U,
  0x3b8ada7bbd8465e8U, 0xbda57a96bd0bf9f7U, 0xbcc3e5cebd3b0b9eU, 0x3c3df93a3d90161eU,
  0x3d7a1a993d5f7ca6U, 0xbd2541d13cd06d20U, 0x3d981b223d674812U, 0xbc4d60a9bd52b27bU,
  0xbd03901f3cb61d34U, 0x3c0ec5d83d8a38e1U, 0xbd86da9ebd344ecdU, 0x3be3ca30bd582409U,
  0x3cb194c03d222aa6U, 0x3d4769c23da7d765U, 0xbd80a75e3d2d5002U, 0xbad2e9d2bd8cfb56U,
  0x3cdd7b843cbf1f20U, 0xbd83cd4ebb802db3U, 0xbdad8c2c3d05a78bU, 0x3d13fe03bd91812bU,
  0xbd039faabd2207fbU, 0xbcd9d4503d9a1a45U, 0x3d94a0c6bd1bed8aU, 0x3bd61b2bbb2148b5U,
  0x3b5843b9bd517b16U, 0xbd015876bc6a8e18U, 0xbd80f9febcc5100aU, 0x3d9df59dbd9c87abU,
  0xbc586f923d2a4f6cU, 0xbc8e3dac3d392ae6U, 0x3c767fa8bd689890U, 0x3d1ffd563d5c20ffU,
  0x3d03f918bd2fe5cbU, 0xbd114d1bbda8d20aU, 0xbd8e536a3d40d535U, 0x3d13b0a6bba5e180U,
  0xbcf7d1f73c7fd658U, 0x3d777c093da980b5U, 0x3d68325fbad08da1U, 0x3d77bbd63d17f0faU,
  0xbda6b403bd30e20bU, 0x3d31fa463d77e786U, 0x3bfc7f00bcb8abd3U, 0x3d6c2036bcd4e0b1U,
  0x3d845f70bcef33e4U, 0xbda708363da490ebU, 0x3d4f8ac2bd154fa0U, 0x3cda84c2bda14312U,
  0xbcaa94e6bccffb0cU, 0xbd3f0f2b3b07c84bU, 0xbca8e26d3d783216U, 0x3d1af25a3cd075cbU,
  0x3c52d678bcb9e5f6U, 0xbd82c2f23c98ef60U, 0xbbc02312bd860b94U, 0x3bbc2d7fbd399d7aU,
  0x3d85bd79bda9539bU, 0x3d2cc092bda74173U, 0x3caea7f43d5c0c36U, 0xbd95942b3c83eb43U,
  0x3c614cef3d79e0acU, 0x3d279d3abc96baecU, 0x3d3f39d6bca239f4U, 0xbd08721abbdea38cU,
  0xbc90e191bd77b4b0U, 0x3d88b3bdbc25bb9eU, 0xbcce2350bd377f53U, 0xbdac8639bd747f4bU,
  0xbc8354f43bc9d550U, 0x3c01eb2dbd85c9abU, 0xbc540e34bdae41c3U, 0x3c0df426bcc45d71U,
  0xbc74dc5e3d8c60e1U, 0x3d8117e9bc4b4040U, 0x3d2a21e03d7949cdU, 0x3d3317aa3d3e908aU,
  0x3d8be2963cab4ec0U, 0xbd30ce063d94a06dU, 0xbb1dd4003d698d7aU, 0x3d656b843c4fa7fbU,
  0x3cab2ee9bc260158U, 0xbc4ec8e8bd74b92aU, 0xbd5ab84e3cc87b6aU, 0x3d8be8fbbd895a48U,
  0x3cf6eb543d6e63eaU, 0x3d71a3b63d69bf7aU, 0xbb55c3c7bc29e74cU, 0xbd01319cbc31a792U,
  0xbcac3810bb30c000U, 0x3d30a8863adc30c0U, 0x3d6834fabd8c1ce3U, 0x3cbab46cbc198761U,
  0xbcfee14cbb27f44bU, 0xbcf07a803b2b2200U, 0xbc72af803d7cd416U, 0xbce5f1723d272678U,
  0x3d948eacbc0f6e98U, 0x3daa73a13c5c4d23U, 0x3db610f43d2ce9cbU, 0x3c2fce653d44ddb8U,
  0xbcccdd8b3d6d6796U, 0xbb9666e43d603f5aU, 0x3c46e43dbd354235U, 0xbd464d1ebd8c6d40U,
  0xbd8b54fbbcfff66cU, 0x3d791aea3c605f80U, 0x3c9ea6d4bc093243U, 0x3d56649abd24932dU,
  0x3d8a6e2bbbcce0beU, 0xbd855a9eba3de180U, 0x3d548962bca1732cU, 0x3caf3e6e3ab1a2bfU,
  0xbd85eebd3d4f5a96U, 0x3da646dd3d07dea0U, 0x3d9af0873d9cb6f7U, 0xbd72b639bceb12efU,
  0xbd1de83abbc03450U, 0xbda118d7bd894536U, 0x3ce1876ebcd31fffU, 0x3cd99ab4bda0ee5aU,
  0xbd1b0d6abda71230U, 0xbc3a20583c852d94U, 0x3cf932b4bc77679dU, 0x3cf16c40bdabfb12U,
  0xbdad34003d70b33cU, 0x3d7fb532bd1ca97bU, 0xbcb30616bc1fc518U, 0x3cb7f62fbd319189U,
  0xbd592feebda52696U, 0xbd533e46bd0f8963U, 0xbd8386e73c80b712U, 0x3cdf1c9f3cf27abaU,
  0xbd56a1493d60c392U, 0x3c95a1d93d93926bU, 0xbda3eccbbd90b84eU, 0xbcaca9bf3c5b2eebU,
  0x3cc44c6c3b407300U, 0xbd1dfb80bc016980U, 0xbc3253583d17e141U, 0xbd1486bbbdb1d814U,
  0x3d1e0a62bd7438b8U, 0xbd9db0683da792b1U, 0xbd05ef00bd5d99d0U, 0xbc0820593c6d3c5cU,
  0xbd1b882e3d954c13U, 0xb9bd2d00bd880bd2U, 0x3d43a7f63d6210a8U, 0xbc307dd93c44473bU,
  0xbdb19d9ebc68ca18U, 0xbcff21c83d0fcd90U, 0xba7c58ce3d7e5588U, 0x3d027f3d3bd3e738U,
  0xbd527144bd8044e0U, 0x3d83eb413bcda930U, 0x3d5fcb6abdb1b019U, 0x3cdf0c00bda44a8dU,
  0x3d5040f23d87faffU, 0x3d88f7933cc201d4U, 0xbd5ca936bd33b516U, 0xbdb46465bd02e36bU,
  0xbbcdc0503cfe8a8cU, 0x3d72b98abd6a7a64U, 0x3d14b1af3d5e9e27U, 0xbd8ca830bd11f0e8U,
  0xbd8a633a3d8d6b29U, 0xbd30d3893d073560U, 0x3d166110bcfbdceeU, 0xbd74dd243d8a8382U,
  0x3d686456bd6a0b5bU, 0xbd6d05a0bcaa2fe0U, 0xbbe939b0bd886961U, 0xbc5621803cb63c58U,
  0x3c101325bd865ed8U, 0xbd175afbbd8b7d33U, 0x3c9bf1b4bd83eed3U, 0x3d626942bda3d88eU,
  0xbd250b363cbe0c0cU, 0xbd493490bb541e7dU, 0xbda4c98bbd7a61f6U, 0x3c5853a6bd3c0df0U,
  0xbb15b447bda129b0U, 0xbcff35093d90cac3U, 0xbc6df5cbbd31d1c4U, 0xbd95ef453d0bad2eU,
  0x3d64f8733da0c8ebU, 0xbc1189583cf93cb4U, 0xbd2fda063d22fb2dU, 0x3d809b0d3cb3ff4bU,
  0xbb9dc3743a194bc2U, 0x3d9417693a363000U, 0x3d1fe94abd1636fbU, 0x3ceaf183bdb253c7U,
  0xbdaf50103cfea394U, 0x3d52b3dabd7eacbeU, 0xbd52b0eb3d9689c2U, 0x3d376606bd932a13U,
  0x3d6c6aa7bce15d8cU, 0xbd9ea89c3c843e6cU, 0x3d8109bd3d16ca37U, 0xbd99682f3d5f33dcU,
  0x3d3e105e3d058270U, 0x3b153100bcfa762cU, 0x3da1cc033ce0e2adU, 0x3be3c500bd802fd5U,
  0x3d58ae71bcc5a07aU, 0xbc9f5ab43d62b45aU, 0x3d80d521bd5e195bU, 0x3d915921bd00e74bU,
  0x3cf8da2fbc752e18U, 0xbc79d4c03caf5a44U, 0x3c028613bcefb4b7U, 0xbda31226bda0f82fU,
  0x3d2a4fb0bb364260U, 0xbc97b1bf3a10a980U, 0xbd293436bd8004e1U, 0xbd3b58973c5e5a7cU,
  0xbd8d3a7b3d8e20d1U, 0x3c17ebe83d0737caU, 0x3d005d6a3d294c13U, 0x3d08e530bd47d155U,
  0x3d9856193d862ae4U, 0x3d4842523d3eadfaU, 0x3d7a4e6abd377ae6U, 0xbca6da9fbd445e24U,
  0x3d97708e3cd52754U, 0xbc85db60bc9be735U, 0xbc9a879dbd7a038eU, 0x3c3d9ee7bb035805U,
  0x3d10f94c3c5e9e98U, 0xbd1ba9c4bd2afce0U, 0xbd96aff23d4ee501U, 0x3cf0530ebc21ec0eU,
  0x3b0a5ecdbd5f8296U, 0x3c0155d83d49fbaaU, 0xbd476c40bd9e588dU, 0xbd9ac24ebd909fffU,
  0x3d93f37cbd9440abU, 0x3ca426c0bd9e2538U, 0x3ce7bfa03d9f90a1U, 0xbd913b293d712e78U,
  0x3c8650aabd24d896U, 0x3d84f209bdb92520U, 0xbc887d45bccd6e10U, 0x3c8bef35bdaff24aU,
  0xbc8966b4bcbe5d0cU, 0xbd5f3462bc9e7000U, 0xbd9659593c704eb4U, 0x3b541e9e3caddebbU,
  0x3d0d8be73bda1ed0U, 0xbd6b0f963d0a32caU, 0xbd9cedb0bd2b3d3fU, 0x3d47a7eabdac16b0U,
  0xbc80c6d6bd8d13e8U, 0xbd7a42f6bd4d3ba0U, 0xba85b0c03d85c815U, 0xbd94efc33d8b8a3aU,
  0xbd99cae4bd1b7ba0U, 0x3d6f85fa3d778ffcU, 0xbd34ee7e3c9d8744U, 0x3bccc7563d3dea0dU,
  0x3d4b9c213d9a26a3U, 0xbd30a3e13d8b53bbU, 0x3d66d80a3d87cf52U, 0x3cc936593d076418U,
  0xbd758e983d24ea50U, 0x3d13a6803cdec554U, 0xbd7a4e6b3d7eded0U, 0x3c9e8514bda46c78U,
  0xbdac7cbf3d7b9d13U, 0xbcc216ccbcbbd2ccU, 0x3d3fa016bd3ebe80U, 0x3d61036abcdb8863U,
  0xbcf6ffd1bd341266U, 0xbd9695683d04f12dU, 0xbdb593013d4013c9U, 0x3d22e559bd69e68dU,
  0x3d3baad6bda1badeU, 0x3d6438063d40dea2U, 0xbdb3c92e3d73e7fcU, 0xbdb4d87cbd9c96d6U,
  0x3cbb60273d62cc7aU, 0x3d9f295b3c5f7768U, 0xbce4e82cbd7c891eU, 0x3cb19874bdb24110U,
  0xbc1aadac3b409807U, 0x3d21baca3d545246U, 0xbcfc0496bc5f8f68U, 0xbc6c63513cdf3b29U,
  0xbd0664d1bd81ceb3U, 0x3d15ff76bd840815U, 0x3d5c2c2bbd258836U, 0xbd78595fbd7290cbU,
  0x3d970e603d4cb1d2U, 0x3d45087cbd789b70U, 0xbc8def8dbbc1ac99U, 0x3cec5bfb3d6d32e5U,
  0xbd9216a3bd7b581bU, 0x3cf168e0bcf0ebc0U, 0x3da638eb3d8a9723U, 0xbd08abe6bc88e562U,
  0xbd8b73883bb6f872U, 0x3d0e55ca3d96149bU, 0xbda55bb33bf64030U, 0x3d83cae83cf35640U,
  0xbd8712aabc234428U, 0x3d92904dbd84124bU, 0xbd337c99bd1f4331U, 0xbd9a1fd33d92457cU,
  0xbda862ffbd8c7936U, 0x3c334be93bf410b0U, 0xbda2a87bbd1dc32aU, 0xbcacdf6dbc2fe501U,
  0x3d1f3733bdaa71bbU, 0xbd80eba33d5d1f5aU, 0xbda401003d5ac911U, 0xbd3de0c6bd79e870U,
  0xbc0877a3bd1de426U, 0xbd2f5b263d54a6a2U, 0x3d8dcf253d3c0902U, 0x3d90cfd0bc25c69eU,
  0xbda83cddbcfd3a80U, 0xbb2f1460bd972adeU, 0xbd3a9a393d3d679eU, 0x3d35f9a7bc81c0acU,
  0xbcd7b23ebd4a1ffbU, 0xbd3df217bce7e2d6U, 0x3bbe3ee73d322bc4U, 0xbca18b123c27e2f7U,
  0x3d33177e3d88e7fbU, 0x3d80bc11bd95148bU, 0x3d6cf97abd0c55a6U, 0x3d0e78903c99c2faU,
  0xbd08deb7bd35adb0U, 0x3d2a12f0bc4e5ca8U, 0x3d11af463d1cebeaU, 0xbc8bb14abd8d8dc2U,
  0xbd1ed4ecbcae9cd6U, 0x3d3de2023d49f114U, 0xbd350b243d854b2dU, 0xbc95338ebd6c0aa2U,
  0xbd92a2213d8baa0bU, 0x3d5fef653d525e66U, 0x3d25270cbba3d69fU, 0x3d51fbc3bd346df8U,
  0x3d0bd74d3cd6db6cU, 0x3d62c142bc2c9318U, 0xbd4998fb3caf3b8dU, 0x3cdbac74bd9b7bcbU,
  0xbbea80b23d9b1521U, 0x3c889d00bd882b06U, 0xbd49582b3d75639aU, 0x3c36085cbbfbf515U,
  0x3d5ab4773d62020aU, 0x3d15580abd9629ebU, 0x3d453d273acb1cb2U, 0x3b9ad81d3c1dfa22U,
  0xbcb39ad1bd79fe10U, 0xbd3dc224bda6c193U, 0x3d9864ccbda4b08fU, 0xbc81989d3d3f7f8aU,
  0x3d811e7bbd8feb00U, 0x3d9b5bd1bbe71c00U, 0x3d1b026a3cc4a710U, 0xbd0988b0bd45e52bU,
  0x3cd68b743d9a8aacU, 0xbce1d9a0bd51de5bU, 0xbd191f6bbcc37c76U, 0xbd991682bb8478f6U,
  0x3c2287f63d6f6092U, 0x3cf6d6a03cce250cU, 0x3da50f543bff75aaU, 0x3c6e37dbbc536da3U,
  0xbd4ecc87bd7989c6U, 0x3d4ff6d43ab140c0U, 0xbd94405f3d84415eU, 0xbc6f747e3d960ad9U,
  0xbd2f9092bd6639a0U, 0xbd0c4ffb3d584fb6U, 0x3c8d30543acb6f8fU, 0xbda74dae3d5e94c2U,
  0xbc510698bd4f0993U, 0xbd294ba0bbf3e380U, 0x3d1261603b282ba0U, 0x3d61996c3d394e96U,
  0xb99450ce3d059266U, 0xbc1b11a83c70c635U, 0xbd9e62bc3d8b31a4U, 0x3d4090b1bd31439aU,
  0x3d8b273b3d0390b6U, 0x3d2f4b2c3d40f9c2U, 0x3d842003bc68a032U, 0x3d6beb52bd0ce421U,
  0xbcf9661b3d8d6e71U, 0xbd4e540bbbbd5130U, 0xbd9067d3bd636945U, 0xbd4187f63cd4a79eU,
  0x3d82d4663cda4ae4U, 0xbc02db00bcff7cc0U, 0x3d91178bbd989748U, 0xbd39fb2cbd81221aU,
  0xbcdc8f233d023cf6U, 0xbd847d083d8897b9U, 0x3d74bb653d9c59ccU, 0xbd9b57653d3de93cU,
  0xbd41ca53bd3de0d6U, 0xbd31d6c2bd0e644bU, 0xbdb0b8e0bc0ecbf2U, 0xbda65d113cdfedbaU,
  0xbd6ce67ebd56ad36U, 0xbd6e04a0bc194de8U, 0xbd0b48f03ba13fc4U, 0x3d5648c63d7ace92U,
  0xbd5292c4bda14577U, 0xbd6fc97b3c887a6cU, 0xbc13e058bba98b80U, 0xbda9a7aabd346364U,
  0x3d943b6c3d8db07dU, 0x3d4a692a3c45b706U, 0xbd94e7a53d7bc00dU, 0xbda580bdbcb5a09dU,
  0x3cf7830f3d7dec46U, 0x3cb2aa093d227b3aU, 0xbd763141bd778013U, 0x3d07e2a0bbd0df6cU,
  0xbd41e731bcd63b4cU, 0xbd9f3570bc9017b4U, 0xbd95f7e63c88549aU, 0xbc9822003d42ea02U,
  0x3c584eefbd1354ecU, 0x3da4c1f1bd7640d0U, 0x3d44267a3d7bd6b6U, 0xbd8871043d92aa41U,
  0x3d469d63bd8aeac3U, 0xbc9c99d4bdadb9c7U, 0xbcbbed11bd030d4dU, 0x3c66ae4b3d80ecf0U,
  0xbd8bbd02bcdc3876U, 0xbda19eecbda6c61bU, 0xbd0af6c13d163f7aU, 0x3c31fcebbdb1003dU,
  0x3d87751cbd92ddaeU, 0xbd6e8c40bd8ae473U, 0x3d872d15bd5f703fU, 0x3cca996c3c2af7b8U,
  0x3bd17b6abc9493d9U, 0xbd8a1178bd6300d0U, 0x3d94d26bbd8a4ad6U, 0xbda35f52bc672f49U,
  0xbd6fb69f3d419b3aU, 0xbd2e47063d69304aU, 0xbcd825283d221b67U, 0xbc6be604bdc49d58U,
  0xbdd49eb2bd6042abU, 0x3d219f2a3d8216c9U, 0xbccad1b9bd563b8cU, 0x3d1912edbca6bdbdU,
  0x3d4546b2bd6e0260U, 0xbd37e7f6bc0b40a8U, 0x3d0f1e60bc6ca532U, 0xba95c4c0bd907e4eU,
  0x3bd66e5cbd875501U, 0x3d0ece5abce95256U, 0xbd8234ee3d3b009aU, 0x3dfd753f3d94685dU,
  0xbc1f37e0bd1271f6U, 0x3d19423abd81f52cU, 0xbcc1c344bc44baf6U, 0xbce163e6bcfb36e8U,
  0xbd916b1e3d2e401aU, 0xbca649ab3c80aa34U, 0x3c2d44ab3ca2c109U, 0xbda2a7d03d6fcf9bU,
  0xbd96506fbd47e716U, 0x3c6819403ce59c74U, 0x3d8881a93cf1927bU, 0x3d351a06bbef85e2U,
  0x3bd32b753d2a5a35U, 0xbd464540bd69c966U, 0x3d8eb785bd2688a6U, 0x3dc343663df62b45U,
  0x3dd2bf59bc00c818U, 0x3d916455bc92be5dU, 0xbd87b91c3da55254U, 0x3c9f8c63bd5c87caU,
  0x3ca44a163c15d468U, 0x3d9783033c7458c0U, 0x3d02175b3d85faa9U, 0xbd45307cbdaea07bU,
  0x3da01f1d3d63f296U, 0xbcd538e03d090f4aU, 0xbda32ba33d39f50dU, 0xbda4d0063cfdc472U,
  0xbd664fd03d3daa24U, 0x3c411068bcf76d56U, 0xbc853aacbb667d00U, 0xbda9e418bdb76d20U,
  0xbd9e131bbd09613bU, 0x3d85815d3d0678c8U, 0x3d14214bbd9222eaU, 0xbc351154bd8c9cbfU,
  0xbdc9ab60bcc9d800U, 0x3c591009bc36ec80U, 0x3bd780d73da11867U, 0x3d8615513d47dd83U,
  0xbd44eea73d9fdacbU, 0xbd930528bd60bf86U, 0x3c321b403a00e002U, 0x3d4d8c42bc0690b3U,
  0xbd3f5a36ba1a5636U, 0x3d7d92b63b452aa0U, 0xbcd9ee16bcd9e6ecU, 0x3b2d16d03c6c001cU,
  0xbc9fb7033c8c79ecU, 0x3b9c3dd0bd01c2f4U, 0x3c89413bbae442a1U, 0x3d9e0dabbd8db57bU,
  0xbab03b4c3da28ed3U, 0xbd8cb15d3d457c72U, 0xbda3928dbcbcb03aU, 0xbdb0827d3d17e073U,
  0x3c489aaabd9a6c66U, 0xbd3642503cc4e954U, 0x3d92846bbd6da712U, 0x3d95dbc13c9642d7U,
  0x3b06e743bd68e142U, 0x3d81ddfbbbda78b0U, 0xbcc472963bc23700U, 0xbd97bf91bd902d7aU,
  0x3cfd9894bb71c2a0U, 0x3d934ef9bcf9110bU, 0xbd757828bda74ae5U, 0xbda66e75bd9b9c6cU,
  0xbdaec7723c96bb20U, 0x3da1b395bda438b8U, 0x3befe65b3da0c450U, 0x3cb515633d930dd6U,
  0x3d0c1c60bd88a3b6U, 0x3d0383063d98acb3U, 0x3d0b39aa3d6f0229U, 0xbd7103703d97f66dU,
  0xbd51bf993d6116e2U, 0x3da639d33cd2b500U, 0x3d771656bd620ecbU, 0xbd84f507be11ab5cU,
  0xbdb99f5dbc8c062cU, 0x3d49fbb23d749153U, 0x3c91dab1bdaf8bf6U, 0x3c93b2fdbd623fa7U,
  0xbd4a79dbbc82f4c0U, 0x3ced066d3d9aeb33U, 0xbd813510bbd724dcU, 0x3cbe6eecbd9fbee6U,
  0xbb9d64f8bd9af2d8U, 0xbd52182b3c35ba68U, 0x3c3a4a803d8b81feU, 0xbd867b18bd4e9f21U,
  0xbcbb54c8bd67e09bU, 0xbc5b9a98bd642d2bU, 0x3d63812a3d9facf1U, 0xbdb450b6be06a04dU,
  0xbd6b1f5e3d3f735aU, 0xbbcffe30bda7bd02U, 0x3d1d1e653d3ecf83U, 0xbdbf1a25bc3a1e4fU,
  0xbd707eb03d988311U, 0x3cd7c0433bea3230U, 0x3cbc80463b852193U, 0x3d8d88323d25133bU,
  0x3c9894fcbd9ea08eU, 0x39c26b003d62803aU, 0xbd59588bbd1538ecU, 0x3d2770303d58ac98U,
  0x3d2b065a3c38358dU, 0x3c2f7b683d772046U, 0x3d14207abd64f58bU, 0x3cfafe0f3d043b09U,
  0x3cee1c9a3da08c95U, 0x3cdff7603c8d01d1U, 0xbce486113c9e0b08U, 0xbd89f7babd50a7a6U,
  0x3c1bc0c43cf97b80U, 0xbce8a2723d967f63U, 0xbd5b6740bd298311U, 0xbd86da87bdc0916dU,
  0x3d881213bca22bacU, 0xbcb48e4cbd17e51bU, 0x3c5632e83d86c305U, 0xbda8f9e8bd6a66eaU,
  0x3d97ea993d1a8680U, 0xbad64400bd86655eU, 0x3d8f5c113b7f3ca0U, 0xbbdc43d43da59773U,
  0x3d97a34f3da1e0f5U, 0xbbedb130bd28cb35U, 0x3d172636bd4bd7a4U, 0xbc99c7663c9bc36eU,
  0xbc793800bc56f640U, 0x3d878b903cb0b300U, 0xbd844cd8bd57d78eU, 0xbd44523dbd19ad32U,
  0xbd166e113d8f3ad1U, 0xbda2b0cb3d67aaaaU, 0x3d84becd3b4252d2U, 0xbd1c26d6bcc3bedfU,
  0x3bdad14abd50dab2U, 0xbd369e363d9afacbU, 0x3c915b20bd46769bU, 0x3defff6c3e0139b8U,
  0xbd79135a3c8ff734U, 0xbaec0340bd959b06U, 0xbcd61822bcce274fU, 0x3c6ea6cc3da3062bU,
  0x3c0cd094bd809473U, 0x3cfb4a053cfde040U, 0xbcef58a0bd4d8698U, 0x3d603aa03d3e3acaU,
  0xbda07ce13d6a2b22U, 0xbcdb0e8c3d75d5d2U, 0xbd203fe0bcc9c7b1U, 0x3d1d8cb0bd63f48dU,
  0x3d8dc56cbc5f1ab8U, 0xbd91603e3d5004b2U, 0xbda5d7cb3cc367d4U, 0x398fb42fbd822c6bU,
  0x3d74ae5c3c973ee0U, 0x3c569e683d95cd80U, 0xbd8504413d247caeU, 0xbc468dd73e827ed3U,
  0x3c0cd3a13d954865U, 0x3cd1d9133c0e2d28U, 0xbd6d5e03bd2be91fU, 0x3d27661d3c66cb38U,
  0xbc51275fbc0fe518U, 0xbd859a66bd9f00a3U, 0x3c451fa83d9a6ab2U, 0xbd2090203d490a49U,
  0x3d843a113d1d5d78U, 0xbc415da83b82a6b0U, 0x3d80f1633da44963U, 0xbbe3c203bbc4852dU,
  0x3ce781263d8e6db5U, 0x3cc79fac3d8fa02eU, 0x3d8743f0bcc0cf4fU, 0x3c58052a3cd7a47bU,
  0x3cdcd7d4bd01fc1bU, 0xbdb92a5e3d1109f0U, 0x3da7a71f3d8a960aU, 0x3cd25d14bca46be2U,
  0x3d2ae028bda9a333U, 0x3cb2fa6c3da4b3a5U, 0xbd2cd23b3b50cce8U, 0x3c825214bcffe51dU,
  0xbb3ddb2b3d0ddcd5U, 0x3b0090603da58ff3U, 0x39baa3003d98ae7dU, 0x3e292c403b40f706U,
  0x3c981ea6bcfe3c6cU, 0x3d2f7712bcffb757U, 0xbd7dc66cbd083c76U, 0x3ba31a163d1bfadcU,
  0x3cf727babd620c96U, 0xbd9d48933d7558baU, 0x3dbcf963bd025c78U, 0xbd7111893d2036a3U,
  0xbd5e1a01bcdd2eb6U, 0x3d910e91bd39034bU, 0x3d8994c1bb8f27f2U, 0x3d632c323d6d8a50U,
  0x3b1bcfb43d95f5c2U, 0x3d8d7569399d1b00U, 0x3d525256bd60df66U, 0xbd6b9af53e0bab04U,
  0xbbf0e13f3c9284e0U, 0xbc7d23003d87e579U, 0xbbf3bb563d3f4f24U, 0x3df226efbb82e67aU,
  0xbc09c09b3c92218cU, 0x3daa801fbd92b470U, 0x3d99e5a83d858d05U, 0x3d8441c33d539e60U,
  0x3c8f4d503ca50af4U, 0x3c2007d8bcc41496U, 0x3d3a8a52bd320ce7U, 0x3d7074023daaa68eU,
  0x3d8afdae3d2e556cU, 0xbd667b70bcc362f6U, 0xbd394e8b3d73106aU, 0xbd7a6273bda09226U,
  0xbc3174143cb81b0cU, 0x3d30bffa3cb2a57bU, 0x3c638b4fbdb95cdaU, 0xbd80be43bde648ecU,
  0x3d921ac33cebb36cU, 0x3d4f8840ba586800U, 0x3b03f1663d2a8ef1U, 0xbdb47ba83d84d610U,
  0x3bb567363cefa9f4U, 0x3b0595a03d14a5b6U, 0x3d4e9f8abdaeaf2dU, 0x3d4ee722bdbcf1b6U,
  0xbd960aea3d2de510U, 0xbda92e8bbcaabe40U, 0xbd26c9d6bd03ec16U, 0x3d43580dbd935018U,
  0xbd3082943d8258e3U, 0x3d68258abd2546f7U, 0x3d7b68bc3b80f26fU, 0x3da7af5a3d3ab9e6U,
  0x3cd010dbbd702750U, 0xbd9b5f9cbb9c1650U, 0x3d1735f73d722671U, 0x3cd2e30fba75d36cU,
  0x3bbcce023d764342U, 0x3d06cb2a3d4cbd52U, 0xbbfb9330bd6e825aU, 0xbbc44c503d35c5feU,
  0xbcedd710bd2b10d6U, 0xbd0cd3163cf92dccU, 0x3cda56003c99c86cU, 0xbc48583cbc3feaceU,
  0xbc91b4583cea27a0U, 0xbd07c0a63d67d7c9U, 0x3c50d3c8bda03f37U, 0x3d2721bc3d257ff9U,
  0x3d6bf2f03cbeffa0U, 0xbbaac1c8bd4907c0U, 0xbd87d95bbdb4feccU, 0xbda51cefbd4d043aU,
  0x3ce50d703d133966U, 0x3cdd69b43cae0000U, 0xbcd03d8c3c88fd80U, 0x3d11fdf0bd5c48d8U,
  0xbd4d3013bda39255U, 0xbd405bf63d115796U, 0x3d9926353d5df292U, 0x3ca8803ebd9d9018U,
  0x3cec0fc0bd7d0a7bU, 0x3d02b9603c07eec5U, 0xbc97cca73be7ca0bU, 0x3d990447bd4f8f59U,
  0xbc3a1dee3d588476U, 0x3b7330a93d6face6U, 0x3cfcb850bd40bdc6U, 0x3c67d466bcb525b6U,
  0x3cf805eb3da3b4f9U, 0xbda490363d926d3dU, 0xbd75ac963d386fc1U, 0x3d80cb7d3d39f159U,
  0x3d6ee16fbc16cd49U, 0x3d145236bd237c36U, 0x3cdc1a0c3d9bb821U, 0xbcff34e23d0f4147U,
  0x3d59be40bd460976U, 0xbda0dc233ca56120U, 0x3daa6806bcb4f67bU, 0x3c1c4e2d3d5dc629U,
  0xbd3783933d91e521U, 0xbd775a023d22804aU, 0x3d9692e8bc99036bU, 0xbda89e3d3d32966dU,
  0x3ce4dd12bd10863bU, 0xbca41194bd373c20U, 0xbd0eb586bcfb4162U, 0x3d2a2576bd89ae0eU,
  0xbd556ec83d97e337U, 0x3d05c456bd632cd6U, 0xbd8fbafebd3bad3bU, 0x3d94a02cbda34fe7U,
  0x3d5777a63d50c2c2U, 0xbb956300bd4b3636U, 0x3b7570f53d31177cU, 0xbc4517913d9e48b0U,
  0x3d4bd81abd3b2160U, 0xbdaf6ddebd72d616U, 0x3adf117cbdaf6fb3U, 0xbc9da13a3d98a2a3U,
  0xbd2604acbb86bd00U, 0xbd93adc0bd9586c8U, 0xbd23c0803bd65eceU, 0xbd5d7f563c8df148U,
  0xbd5613bebd851e35U, 0xbd5c57503d837a79U, 0x3d04f43abd3c132bU, 0x3d8221e2bd94848dU,
  0x3d6bbe673c940e2cU, 0x3c5232583c26b4a6U, 0xbd3fd2c9bd4915f0U, 0x3d983c04bd81274cU,
  0x3a8dee1a3d6fea86U, 0xbda013a63cd19940U, 0xbbd5a4d83d8b9d9aU, 0x3d0fe81e3ca5a261U,
  0x3d1e226dbd97448eU, 0xbba1c330bccc0860U, 0xbcb64da03c7643a4U, 0x3c4312003d6517d2U,
  0xbc8c0e04bd7c7fe5U, 0x3d994fd33d4b84c2U, 0xbda375233ceb552cU, 0x3a5d11af3d0a2e0fU,
  0x3c7aeb4d3d895a7dU, 0x3d47dc96bcf21f18U, 0xbd8870133d1f66afU, 0x3d4b5fc53c0f0b7dU,
  0xbd44edf03d6d2d26U, 0xbda45fe63d9d7dbbU, 0xbd3525503d6ffc8dU, 0xbd654ef43c8cd1e8U,
  0xbd2461173d8cc5adU, 0xbc96f3003d9136e9U, 0xbcf27776bd92ed11U, 0x3d80accdbd85bbf6U,
  0x3d24bc1ebd46ca60U, 0xbda840583d8ec731U, 0x3d8b64fd3cc8b7a0U, 0x3da013ecbdaaac34U,
  0xbc7f4939bd5eb3ebU, 0x3d668f0abd310b2bU, 0xbd402112bcfa5ff3U, 0x3c5d870fbd811f56U,
  0xbd57a4083d661086U, 0x3ce17a7bbd8c1170U, 0xbc8a534cbcd8d484U, 0x3d83e0453c975938U,
  0xbdaed2373d7b0fb2U, 0xbd71c99b3d842b9dU, 0x3d745eba3be29482U, 0x3d9209d5bd7f3f5cU,
  0xbc0472773d9bd7bdU, 0xb77fa0003d6fc4b2U, 0xbcdbb46c3da7ca55U, 0x3d9ee52fbd89a927U,
  0x3d21d9c1bda99548U, 0xbd346df0bc455ed2U, 0xbd50f27f3c23f1e4U, 0x386f6321bad1f80dU,
  0xbd43f69cbd345b9bU, 0xbd98b12b3d8605a9U, 0x3c9de8083d2be729U, 0x3d1cc8443cf6449aU,
  0x3d3b9bf8bda54beeU, 0xbd9355c63c0faa58U, 0xba9a7ac03d882026U, 0xbd7a01503d331311U,
  0xbd88cdb43d88afe2U, 0x3d8c8ce33d98ad11U, 0x3d83c763bd546ff6U, 0x3d1fdfe6bd8a6faaU,
  0x3d9a6e05bda937ceU, 0x3d09b6a0bcab453dU, 0x3d0f9819bd9e9e9bU, 0xbd5faecfbd0d4319U,
  0xbda9ec1bbd86ef78U, 0x3d458b623c793668U, 0x3d5ca3f73b2fab3cU, 0x3d3b7b7bba3f8e8bU,
  0x3d10e7d83d444d9aU, 0xbd0bbf76bce2a26cU, 0xbd9227283d439d34U, 0xbda030f8bd9bfe36U,
  0xbca92677bdad29ebU, 0x3d73f00abd4c1adbU, 0xbd2262563d60d192U, 0x3d1f00fcbd992f31U,
  0xbd4584d7bba8bd50U, 0x3d10b6e63c769b5eU, 0xbcf6ad543c46f157U, 0x3d96fb083c4d5612U,
  0xbc504ff2bd3d7a86U, 0xbd2a6ac13be1ef30U, 0x3d5d24a4bd4665a6U, 0xbd0a05643b7ba88cU,
  0xbd275b7f3d9d2f33U, 0x3d7505aa3bbe93d0U, 0xbd8775163cb7d9dbU, 0xbda20d083d26927dU,
  0xbc18cb13bd84278cU, 0x3d095f403c653098U, 0x3d7cd3aabd7f6b1bU, 0x3b8064203d65ba2aU,
  0xbcfdc5ae3d87ba2dU, 0x3d26a946bc89c541U, 0x3d4c8debbd7987d2U, 0x3d8d5ac6bd750b3cU,
  0x3c03d8c3bc192d40U, 0x3c9c997cbc806000U, 0xbd632193bd853d42U, 0x3d05671a3d18547eU,
  0x3d9f481a39ad8d00U, 0x3d90fbc33d6a83eaU, 0xbd7cf4d63b807ec4U, 0x3da993993bde81dfU,
  0x3ca2087bbc13fd8fU, 0xbd34ae163c2bf998U, 0xbb21ce603c1c6d68U, 0x3cda8c25bc96a8eeU,
  0x3d3f64763d7b07caU, 0x3c2e16a83cbe6278U, 0xbcfec037bd121f6fU, 0xbb78c08e3d6c1963U,
  0x3d205aacbd80533bU, 0x3d3c93a83d4884e2U, 0xbca923ccbcf15b18U, 0xbb45050e3da04908U,
  0x3ca07ea53d07d23aU, 0xbd0978c0bd0ecf5bU, 0xbc6f58a8ba5c702cU, 0xbda6f57bbd1a66c4U,
  0xbcad1fcfb9c7545dU, 0x3cae090c3ce2ca74U, 0xbd985906bb939f50U, 0xbd8dd2243c9ba63fU,
  0xbba3e234bc9abb34U, 0x3cfa45ecbd056217U, 0x3da79aefbccf5f95U, 0x3cad59773d635caeU,
  0x39bf0fb0bb8e57d0U, 0xbd4ee5f8bd58d5fbU, 0xbcd0bbf6bc32db80U, 0xbd035041bc14aae1U,
  0xbc8c9e3fbd1fcc46U, 0x3da267c13d33717aU, 0xbc0a9e583c92ec34U, 0x3da7b1fb3d8183ccU,
  0xbc41fff3bc2f6caeU, 0xbcbda56cbd87e103U, 0xbd96575bbd7bc1a6U, 0xbda79a0dbcebaf55U,
  0xbd8bef0fbd851c1bU, 0x3d5aceb2bbaf2ddcU, 0x3d7dcb023c2269b7U, 0xbd4950e3bd955d0eU,
  0xbd96acb0bda2210eU, 0xbd4780333d95c55bU, 0xbd717c54bd1edacbU, 0xbd33f4313d9d0484U,
  0x3d8a999d3d8c819bU, 0x3d7619ea3d6c0c32U, 0xbcf66100bd94f245U, 0x3d7e8f56bd923833U,
  0xbda230763d50d49fU, 0xbd89bad83ce8d7b4U, 0x3da35f4b3d85924dU, 0xbd39c9113cae8d15U,
  0xbda1f8f6bd6930c0U, 0x3d7d5afabd5d153dU, 0xbd56ad103ba7639bU, 0xbdac50efbd291840U,
  0xbd59af08bd45f8f6U, 0xbda43a1ebc780700U, 0xbd9a769c3cc8e0a0U, 0xbd0671d23d8ada63U,
  0x3cd6d0e93d2ec9b6U, 0x3d466b163d87bbe5U, 0xbb9521d03ccc5f2bU, 0xbd6db46b3d5b4654U,
  0x3d819b583d000448U, 0x3d8147953d145f6aU, 0xbd5163a6bd84ba63U, 0x3c0771d8bd101f5eU,
  0x3d1a5c86bd53fc00U, 0x3ccebb343d1cef2bU, 0x3da30b903c687d7bU, 0xbd526390bd7a66e8U,
  0xbd819eef3c6fce98U, 0xbd7b2aed3cf6630cU, 0xbd36a362bd8bcbb5U, 0x3d7ab4e33ce0db59U,
  0xbb9e93b0bd8edbbeU, 0x3d620d22bc720568U, 0xbd9069c8bd165203U, 0x3c1c62983d29f5eaU,
  0xbd0da1803d2edee1U, 0xbd81b5583ba49950U, 0x3da25d1bbd78f4b0U, 0x3cc1f2413d824f89U,
  0xbd149041bda18783U, 0x3d4ed202bd22479aU, 0x3d61f8dabdae9433U, 0xbda5cc04bd148345U,
  0x3d13ae67bcd2ce96U, 0x3d3a177fbbb55500U, 0x3d6550de3d944c6cU, 0x3d9b9b703b97630aU,
  0x3ca1d9fabcc60d8cU, 0xbd7f38fb3d7ba8faU, 0x3c345498bd5c54d1U, 0xbdaa2d28bcf5af84U,
  0xbd83c6293c8985f0U, 0x3d578c52bc0f3480U, 0xbd71e1b03d26e696U, 0x3c43d81d3d920ef2U,
  0xbcf964873cbcccecU, 0x3ce47f8c3d186af7U, 0x3d2fffff3bb05fb8U, 0x3d12f6443ca2508aU,
  0x3ce9a7193c957934U, 0xbbb51a6a3d82b019U, 0x3bd32fe4bd80030bU, 0xbcac17f9bb1dedddU,
  0x3c071a0cbc841214U, 0x3d833853bbbcb080U, 0x3c02a600bd5d80a3U, 0x3d26b920bd401736U,
  0x3d45056e3d936b0aU, 0x3cd97b0cbc271098U, 0x3c2d3a58bd208c50U, 0x3807cfe63d27639dU,
  0x3d0ce216bd283966U, 0xbcb5f44cbd744334U, 0x3d817c82bcab5040U, 0xbd822d18bcffc60dU,
  0xbcb78419bda7c370U, 0x3b30fd99bd9eedb6U, 0xbda4f378bcc9e37eU, 0x3c7039ecbbb4ebb1U,
  0xbda792523da623fbU, 0x3d7f26723da0a9bdU, 0x3d91bee93d0ed744U, 0x3bf258503d632467U,
  0xbc2732153d73d184U, 0xbd476c003b888f30U, 0xbd5b7bd0bd83c0dbU, 0xbdaeda4b3d091322U,
  0xbd5b6a9dbd4c9e06U, 0x3d845d11bd867399U, 0x3c4b5d9ebd0de9b7U, 0xbd305e1abd6b4a27U,
  0x3d72fd8cbd87149eU, 0xbdaafa4d3da1442bU, 0xbdaa30113d28db36U, 0x3d6a8a90bcb28c1cU,
  0x3d80094e3bca0ad0U, 0xbc1d4400bd68a89bU, 0x3c9be460bd8de141U, 0x3c3048583ca7d9fdU,
  0xbc6db8c13d4132d3U, 0xbd9ddacebd8e552bU, 0xbd72c4f63d36dd86U, 0xbcd0e09b3d620478U,
  0xbd361dd1bafb0cc0U, 0x3d87f525bd806c0aU, 0x3c0809ddbdad3383U, 0x3d3127edbd8683d3U,
  0x3c9a8df43cd67e4cU, 0x3b027e873d30fc22U, 0xbb8878d83d935fdeU, 0x3d3fdd313cbb3975U,
  0xbd78f8b33d1d65b6U, 0xbd854a383d920403U, 0x3c3093c0bd59aee0U, 0x3d98891b3d29bbe5U,
  0xbcc79e933d27ea0dU, 0x3cac53803d0ec966U, 0x3d96c9853d7ade46U, 0xbd33d146bd48820cU,
  0x3d089e913d8ae761U, 0xbd37a06b3c557623U, 0x3b0c239a3d4d2d7eU, 0x3cb5114cbd12866dU,
  0x3d3f5326bce60576U, 0x3d138af23d5eb242U, 0xbd04381c3d8ad8e5U, 0x3d1163cd3d1183f4U,
  0xbd9a55883d48ebcaU, 0xbcdfe02cbd4baf26U, 0xbd2517f0bc6f1978U, 0xbda57b5bbd32d670U,
  0xbc5db9b4bcb41808U, 0xbd971afebd8a6976U, 0x3d0d585abc1d6218U, 0x3ce82c22bda9180bU,
  0xbdb274433d127346U, 0xbda196ee3d53cb4bU, 0x3d8afb00bd1e6f5fU, 0x3cea44f2bcd259b2U,
  0x3cf44afdbd44bf4bU, 0xbd47faa83d2e0222U, 0xbca7402c3ad94059U, 0x3d91b864bca36822U,
  0xbd3086c4bca4cf14U, 0xbceaa080bd35cfb6U, 0xbd25b660bd086e63U, 0xbd797716bd9f399bU,
  0xbcd3d1393d78d84eU, 0xbd6edd80bc870a8cU, 0xbd84eeb63c88ba20U, 0xbcf81e26bdb6a645U,
  0x3d56e8c83d4b9942U, 0x3bae3eb03ccff42aU, 0x3d8c2bbf3d44d3c9U, 0xbd8b533cbd8ff89eU,
  0xbd402fa6bce179d6U, 0xbda015d03c5ffb58U, 0xbc112c68bd0d23b4U, 0xbd631934bda696c5U,
  0x3cda564c3d0a95c0U, 0xbd90f65e3cb92f2cU, 0xbaaa1600bd81b9feU, 0xbaedf400bd8f806dU,
  0x3d482ca5bd7ded9fU, 0x3da17505bd8614b3U, 0xbcb1c7a0bd049b8bU, 0xbd878113bdb01f02U,
  0xbd35a0c0bc04a798U, 0x3cf320c03d892d8bU, 0x3aceb07b3cdc0b69U, 0x3cdf8e36bd57d6b6U,
  0x3d932316bda67028U, 0x3d87c4b23d8a84c3U, 0xbd8055b9bd8799dfU, 0x3d77af2c3d7ca9c0U,
  0x3d7731b13c1158c0U, 0xbd8499863c9ffa40U, 0xbcd2fa8cbcc2e369U, 0x3d9423433b81d9fdU,
  0x3d9af12d3d13728dU, 0xbd0fea963d83f125U, 0xbbe7b3503d8bcd15U, 0x3d59e0383caafad8U,
  0xbd578d6a3d73fc36U, 0xbd8f5f083b8e8a2fU, 0xbd991ac03cb31b9aU, 0x3bca70b0bd6eb897U,
  0x3d01dde73d72f35aU, 0xbc220e7bbabfeac0U, 0xbd886200bbd48d6cU, 0x3d5f9178bd15eb67U,
  0x3d60091e3d91152bU, 0xbca5c1acbd52283bU, 0x3d8ba4693d3f48c5U, 0x3c904b4cbca79d04U,
  0x3c6677cabd026d65U, 0xbcc07d96bc3c78a8U, 0xbd3dacb03d447e4aU, 0xbcfe83e63d0d7eceU,
  0xbd887f0fbd7be8a6U, 0xbd83cc7b3beaac91U, 0xbcd210623d023c77U, 0xbdafa2143d639ae1U,
  0xbd990eef3c3bcb28U, 0xbd84fc6ebd99fec8U, 0xbd14e9e73d8f2d54U, 0x3cdf941dbd613335U,
  0xbd858899bd8c2593U, 0x3d43a4a2bd3ad506U, 0xbca7f2543ccd9828U, 0x3d958c733d8bc185U,
  0x3d3b83f5bd69c35eU, 0x3d1068b63d1b19eaU, 0xbd20c176bd9cf996U, 0xbd725fb0bd6bf97aU,
  0x3cfc574b3c00fb68U, 0x3d38cd42bd909885U, 0x3d1c9db3bdaa7850U, 0x3d6ff2193d53c432U,
  0x3c78575c3ca425d4U, 0xbd9cee3c3d2d3aa2U, 0x3d86961d3d47d0e0U, 0x3d7f9ee33cdd2d9cU,
  0x3d9278c5bd255096U, 0xbd0136b03d369902U, 0xbd30051b3d170728U, 0xbd8aa940bd51170dU,
  0xb9aff3003d66bad6U, 0x3d26f216bd75faebU, 0xbd9e08633c536940U, 0x3d8ea7cd3d55a3c6U,
  0x3d152a5abc9f3340U, 0xbd4d27203c8f8b14U, 0xbda6644b3c731398U, 0xbb4abf00bd4c2d56U,
  0x3ca6f2acbd1c53fbU, 0xbd5c36a6bcbb60c0U, 0xbd379a80bd0bb36bU, 0x3c4e9140bd955be8U,
  0xbd9a11333d3b99faU, 0xbcf0dad6bd9b64c0U, 0xbd6a85c63cb0f2ccU, 0xbd0005503d99e653U,
  0xbd839903bba41d30U, 0xbd339ecb3c8ea754U, 0xbda345f03c3654c0U, 0xbd88f6de3d1dcaa0U,
  0xbc31e700bda7b298U, 0x3a612980bd4f2800U, 0x3d07999a3d16383aU, 0xbd35f506bb521900U,
  0x3d4b7f123d953b83U, 0x3d988ba93b9cebd0U, 0xbc238398bd19a63bU, 0x3cd694143b220ea0U,
  0xbc8994acbd9442f3U, 0xbd31fb203d1a08baU, 0x3d07690abd0d4090U, 0x3d009acabc1ec158U,
  0x3d437eba3c092300U, 0xbc8673e0bccfe26cU, 0x3d6dd5c23d9f8a15U, 0x3d45ecb6bcef7c80U,
  0xbc5480183d044b76U, 0x3da34ce5bc1994d8U, 0xbcfcf4b6bd282d5bU, 0x3d0e5b5a3d1eaac6U,
  0xb931f000bd5c051bU, 0x3d57b6423d9de68bU, 0xbd6f8fab3d0e8900U, 0x3c5b9680bd28ece0U,
  0x3d502b2abda55c5eU, 0x3d6243563d91c869U, 0x3c499068bccf7f8cU, 0xbda051eebd9558dbU,
  0x3d1437963d9fdcbbU, 0x3d12036a3c7f86c0U, 0xbbfacd803c5d9e18U, 0xbda150c8bd901de6U,
  0xbceddd0c3cae3660U, 0x3ce4f460bd867933U, 0x3d966b85bca5f374U, 0xbd8ffb103d4e610aU,
  0x3d857c833cbd2a60U, 0xbd5295c03c80bf40U, 0xbcc58d76bd1e43b6U, 0xbc9bf2c0bcded136U,
  0x3d157200bd028ecbU, 0xbc7dbda83d1f91a0U, 0xbd250e763ce815ccU, 0x3cbdfdacbccc4c2cU,
  0x3d1d09c63d978aebU, 0x3d9ff6fd3d975a91U, 0xbd662c8b3d7a62eaU, 0xbd41bf663b3abb60U,
  0xbd737e4bbd5f8416U, 0xbd1dad20bd7dcc86U, 0x3c7acfe83c8b25acU, 0x3c58a7d8bd9792f8U,
  0xbd5f9dcb3da8349bU, 0xbcb61ef6bd72f6e6U, 0xbc42a9c0bd6c538bU, 0xbd142a2bbd5ea1c0U,
  0x3d1f4c6a3d0d1c6aU, 0xbd1fe250bd39b2cbU, 0xbd972adbbd5a509bU, 0x3d80591dbca639d4U,
  0x3d4aa1c23d1ab186U, 0xbd766b16bc9d44c0U, 0x3ca33c94bcef5cacU, 0x3da6df69bd62d1d6U,
  0xbc948a6cbd193f40U, 0x3d9d0a21bc8e738cU, 0xbd8b828bbca198e0U, 0x3d8c3fc13b8819d0U,
  0x3ca17e40bd9a0518U, 0xbda2d0be3d8a4aa9U, 0xbd3e0ba03d50ed7aU, 0xbd4ac3103d66b3aaU,
  0xbd8e5cc6bceba92cU, 0x3d04bc403d3a15f6U, 0x3d3701b6bd3c413bU, 0xbd5b580bbd7758abU,
  0xbcca4a0c3cb44e6cU, 0x3c8dd460bd91692eU, 0xbd3270b6bd6a6b60U, 0x3d1e33863b6ce100U,
  0xbd788a3bbd9eaa56U, 0xbcecd356bd99e280U, 0x3d8e1b7dbd5fa6fbU, 0xbc52bd803d86a3bdU,
  0x3c2aec683d3a176aU, 0x3c8f3c543d6b773aU, 0xbad730c03c3ddc98U, 0xbb903a803cd7c854U,
  0x3d3730a23d980b85U, 0xbd8d88303da970cbU, 0xbd9fa128bd34f64bU, 0xbcbadaa03d4a17d2U,
  0xbd754606bd014eb6U, 0xbcc4ef2cbd59ee7bU, 0xbd2e0f2bbd68ae1bU, 0x3bf43b503c11f598U,
  0x3d9c3fb3bc5be3d8U, 0xbc958600bd42dc3bU, 0xbbf869003d78bea6U, 0xbda3c1f33c719dc0U,
  0xbbc3c2803b545fa0U, 0xbca654343d9132e5U, 0x3d0be5eabce55b80U, 0x3d478d1abc01c728U,
  0x3da99a01bd99b8e6U, 0xbd7cda40bd9a9576U, 0x3d09fc963c506cd8U, 0x3cf457943b963630U,
  0xbd514bc03d704682U, 0xbc66fb58bc1394c0U, 0x3cc820943da845e5U, 0x3d4681623d8d89a9U,
  0xbd8918103d220ea0U, 0xbd8ca083bd12223bU, 0x3bfa94b0bc554168U, 0x3c7421c03d3e6fe6U,
  0x3d2fd9623ae60a00U, 0x3ba2f150bd36c350U, 0xbd5cf5903d38852aU, 0xbd7f40c03ce847f4U,
  0x3d89540bbd8d3ae0U, 0xbd05f6bbbcc3f80cU, 0xbd0000ebbd972c93U, 0x3d43f26a3d8a8f0bU,
  0xbb63f368bd2960e6U, 0x3d9b288d3d92385dU, 0x3d50523abda6d420U, 0x3cbe9ba03d9f9047U,
  0xbda0a8473cd2f72cU, 0x3d12ded6bd7f43bbU, 0xbc7f7b9e3d80a0b6U, 0xbb87ad833cf48129U,
  0xbd083da9bcb84616U, 0xbd9fe55d3d1074daU, 0xbcd05ed3bd6a8f18U, 0xbc5138e53b9c9217U,
  0x3c60cf9e3d71bf86U, 0xbd1cdd90bd82d6deU, 0x3d98a4fbbcffdcfdU, 0xbd4f4c163d868f26U,
  0xbd8262b63d78380eU, 0x3d6803523d743956U, 0xbd7327f63c48cee8U, 0xbd1f0857bd0ed6f4U,
  0xbdaea42dbd6eb636U, 0xbbe140d0bd22d72cU, 0xbd34d973bd866c34U, 0x3cd6883dbd9510f1U,
  0xbc8e5a723d7440faU, 0xbcf818453cca636cU, 0xbc0ca8ea3be473beU, 0xbda59384b88815f2U,
  0xbc785e6cbd9887d3U, 0x3da02e3b3d8cb5d3U, 0x3ccf83803c6bef73U, 0xbd8833a03d0873c2U,
  0xbd15a6df3d2ead44U, 0x3cf34d943d01bf2aU, 0xbb6b3d603d94338bU, 0xbd29694a3da22919U,
  0xbce6be0abcf272a0U, 0xbd06cce6bd858460U, 0xbd13eb06bcaf50e3U, 0xbd9fb755bce092ffU,
  0xbb85a38cbd7bf100U, 0xbd6b0ccbbd37e5e0U, 0x3d94a8703d77ce0aU, 0x3d5e34e43d2fe42eU,
  0xbc2c82b43d91b921U, 0x3cc5570cbd08a126U, 0xbd8562a33cf62bf5U, 0xbc56d228bc512f88U,
  0xbd343e2a3c30af13U, 0x3d832c9bbab68800U, 0x3d9340db3cd5def4U, 0x3c49ce62bd0c52ecU,
  0xbd2909583d260afaU, 0x3da8fc7d3d9a80aeU, 0xbd94ef3ebda476beU, 0x3d9124973cf6adb8U,
  0xbd9e057d3d1e5960U, 0xbd95b0e6bcb5beccU, 0xbc9760dbbcc6dbfaU, 0x3d120e743d1b231eU,
  0x3c257f31bd8ad6b3U, 0xbd167bd6bc7bf840U, 0x3d85a695bcd05676U, 0x3c9ed66c3ced1b09U,
  0x3c7646283d8211f7U, 0xbcd0a58c3d85f44dU, 0x3c9f324cbd340cf0U, 0xbd9c525c3d571eb0U,
  0x3ce5293cbc567da8U, 0xbda5f386bcca730aU, 0xbda12a9d3d078663U, 0xbc86fd11bbcc93a4U,
  0x3d2507f73ce20160U, 0x3d7cc2243d9e766dU, 0x39408cd43d8899e8U, 0x3c766b76ba5e6f35U,
  0x3d2320a4bc06d418U, 0xbc98c9803da35c55U, 0x3d347852bcdaa10bU, 0x3cc6d394bdb6444bU,
  0xbc42de2dbd83f8dcU, 0x3d92cd7bbd1f2cbbU, 0xbd366ca03c38c758U, 0x3bafc31dbc1aa5afU,
  0xbbab2646bd98af16U, 0x3cedb000bcad9193U, 0x3d061472bd6e9a18U, 0x3d9f85ef3d74ced9U,
  0x3c8aa9083d620122U, 0xbcf181073d85bea3U, 0x3b5f7469bd4467a0U, 0x3d5cff213c4c1e13U,
  0xbd4d5abebd8be373U, 0xbbfac3d0bcaaad36U, 0x3cf766ecbd1646e2U, 0xbd79c2a6bbcbb1fcU,
  0xbce8fb743cf7c163U, 0xbc8fe234bc3a8540U, 0xbcb1dd003d9a4e13U, 0x3d866c183d75a490U,
  0xbc2c1b7bbd9fd0feU, 0xbd88d6203cb6724cU, 0xbcbeb88b3d3fdebfU, 0x3cde9a6abda2fc3bU,
  0x3bc5a1c73d7c3172U, 0xbd9940983d10c9aaU, 0xbc289f5abc7e09f9U, 0xbcb787e63cb5b970U,
  0xbc48b1673cf327b4U, 0x3acd3ec0bcce0e2cU, 0x3cb5c1743d86f201U, 0xbd3e6ee0bcd204a5U,
  0xbcce04533a9333c2U, 0x3d941021bcaa37a0U, 0x3d26e430bc854a60U, 0x3d7c6cd23d2f2353U,
  0xbd62d3723d738c3aU, 0x3d1919dabda289b5U, 0x3b7ab7e8bd396af0U, 0xbd200e7c3bda11c5U,
  0x3d72aee13d254276U, 0xbbfe5c83bd0978ebU, 0x3d88f99f3b66d357U, 0x3c9766023c03e227U,
  0xbc8fcd0b3cd0af6cU, 0xbd110e403d98f291U, 0xbc5cb6683d96f5abU, 0x3b6cd6a0bcafabe1U,
  0x3ca7d9a73d383a39U, 0xbd4b66ebbd674486U, 0xbc8fa7e03cc33ca0U, 0xbd38f5053d68bbabU,
  0x3bb987f53d5f728aU, 0x3c8791ac3c1bccb5U, 0x3d2a22e33ced98f7U, 0x3c03d3a13c461ae1U,
  0xba3418b13d96e1fdU, 0xbb613f013d96554bU, 0xbda4ce45bd4f163eU, 0xbd226666bc8492daU,
  0xbd386af03d97c9fbU, 0x3cc40ec03c295900U, 0xbd633496bce0eca6U, 0x3d9abb0b3d359723U,
  0x3d291fc1bdac7a57U, 0x3bfc11b0bd3ec596U, 0xbda33d063d9ca6d3U, 0x3d198c223cb88c36U,
  0xbbdd707d3c3b5680U, 0x3d7b1d76bcde3c0bU, 0x3d15249d3cbb7d29U, 0xbc72e1aabd8726d2U,
  0xbc0b51643cf3848cU, 0x3d19d496bd4f9fbbU, 0x3d5951f8bc07fdb8U, 0xbccaf04dbb259768U,
  0xbd8d96d63c4b9240U, 0xbd31d9103d048ef6U, 0xbd43a28bbd95c20eU, 0x3c4ff018bdb20797U,
  0x3d767f0d3c63ed5aU, 0xbd165f10bd9c8093U, 0xbd1d4710bd0c78bbU, 0x3cea1d5dbd6d7b90U,
  0xbda2fa903d17fb30U, 0xbc929eac3d795a39U, 0xbd398778bd19c431U, 0x3d42cb74bd66818cU,
  0xbd364f7ebda9e3dbU, 0xbd4852293c1b6328U, 0xbc75a3b4bda562bcU, 0xbc30b5cfbd59887aU,
  0xbdbc3e35bd993103U, 0x3d64b4063d1fb496U, 0x3d81f979bcc19be3U, 0xbd43e6663d38f3c1U,
  0xbd3048ce3c944513U, 0xbc2461803d97ecddU, 0xbbf28d503d95b981U, 0xbb55a92b3d499153U,
  0xbdb1e77e3da299d9U, 0xbcc65aacbd21ef4aU, 0x3c6e7fc13d7ab36aU, 0xbdb15302bda44dd0U,
  0xbda756ce3d9e20e9U, 0x3d75cdcd3d0809c0U, 0xbd52a86ebc1aa8a6U, 0x3cb00353bc64976fU,
  0xbd337a45bd4c7b8bU, 0xbd17c030bcbb9356U, 0xbd476586bd7e2318U, 0x3ce152403d527450U,
  0x3c20e7423d486a05U, 0xbd593f163da570b1U, 0xbc6f2298bcce40ccU, 0xbc5057b4bd6eb26cU,
  0xbd5c1b3c3d283bf0U, 0x3c2589983c815e01U, 0xbd82092abcc8d380U, 0x3cb798923c80df2aU,
  0xbd98b6efbb8b5850U, 0xbb9ba76dbceacdecU, 0xbc8105bbbd872227U, 0x3d951f563d820aeaU,
  0x3ca06945bd8d26e8U, 0x3d11cfc63b2aa760U, 0xbd37a36b3d30c6c1U, 0xbd4373d63cb3a082U,
  0xbab3c4dcbdba9e51U, 0xbbff70d03c9bd7c0U, 0x3d8c11cd3b41d060U, 0x3cd79820bda0c96fU,
  0xbd4641b43d8288b3U, 0xbd833f633d54c489U, 0x3d2ef48bbab877f8U, 0xbd4e4b71bd2078e9U,
  0x3d35f4fb3d8f2409U, 0xbd27b3ee3c822b00U, 0x3d393d043d91cb8bU, 0x3c85e47f3d052a8eU,
  0xbd044103bda0e630U, 0xbd9136c63da53f9bU, 0x3d9f7eedbcb01779U, 0x3d70ec56bd96541aU,
  0xbcc9c543bd53f9ccU, 0xbd5aa186bd7918e6U, 0x3d5058eabb02e400U, 0x3c9c1c0dbcb63461U,
  0xbd8ca4143d18edc6U, 0xbd40abcbbd8cba21U, 0xbd92c18d3c8ad02eU, 0xbd8c0707bcac04a1U,
  0x3d1a63bebbb65130U, 0xbcf19d743cf211a0U, 0x3ca8043b3cee64e0U, 0xbccadc25bd7a7248U,
  0x3d4affe7bce57056U, 0xbcb12eacbd74eeb6U, 0xbd1761c03d4e13d7U, 0x3d56e8c6bcbae3ddU,
  0x3d2971c4bd7509caU, 0x3c8fc1203ca64f40U, 0xbda51003bc8564f4U, 0x3c9e23073d8cac6bU,
  0x3c1b8c28bbdc33d0U, 0xbd6654863d532350U, 0x3c7afc73bc35161bU, 0xbd845bf9bd4504f6U,
  0xbc3f55093d52556aU, 0x3caa6e4cbd342466U, 0x3d29b7eb3d017a38U, 0x3d886609bd9f878fU,
  0xbc96b3af3d8dd17bU, 0xbd9561133ce6836cU, 0xbd91f8a33d078aa5U, 0x3c2f4000bcec57bdU,
  0xbba81c063d6770b5U, 0xbd66618bbd4f7696U, 0xbda944663cbe0a14U, 0x3bb416ddbdb875c2U,
  0xbb036a1ebd72ef0bU, 0x3cf1178cba31c9f6U, 0x3d912a3bbc3594b2U, 0xbd4f8727bc95d675U,
  0x3c830011bd37241bU, 0x3d8a2f9f3c6cc500U, 0x3c9d094cbd901390U, 0x3c630b10bd577e9dU,
  0x3d4139b03c55b7a8U, 0x3d6018f6bd8ffcf3U, 0x3d80210bbd9714d9U, 0xbd9b9a36bcee118dU,
  0x3b85189cbd494a4eU, 0x3d85ceb33da9a8bbU, 0xbd01e8bb3caad8ccU, 0xbd96541dbd449fd4U,
  0xbd9eec83bd8c4bd6U, 0xbd853428bd2f8db4U, 0xbcdde85dbd744d0aU, 0xbd9a1abe3cc744f6U,
  0xbd9f90463bf6f3b0U, 0x3d8566ce3cfb9f2cU, 0x3d0c8345bd896d82U, 0x3cdeae25bdac326eU,
  0x3d70da9c3d6599daU, 0xbc2da0e83d21a376U, 0x3d10450a3c8009e3U, 0xbd54a4d03a757144U,
  0xbd852c5ebda1c426U, 0xbd9dd6883da737a5U, 0xbcead2403d9fab6dU, 0x3cea2c6d3ac3e321U,
  0x3d9969a7bcff6e8cU, 0x3d870df9bd4d4b1eU, 0xbd5864e43d6f8e7dU, 0x3d8262d3bd0bf4fcU,
  0x3d375bde3d3e8d3aU, 0x3c2a3afb3b35cb60U, 0xbd756dbc3d46d130U, 0xbcb76633bc02213dU,
  0xbd2f6a03bcdb7f40U, 0xbd8ef766bbca2550U, 0xbd0cd0903b43d3abU, 0xbcb3f500bd41175dU,
  0xbdb103abbcebcef9U, 0xbd977e30bda817aeU, 0x3d8d3253bd5ce126U, 0xbc352474bd4042a0U,
  0xbd83080cbce9864cU, 0xbd858ff83d9df8e7U, 0xbd7922dcbdb264ceU, 0x3d8f1f97bd94ec99U,
  0xbc1156823d0aa206U, 0x3cea06ec3d1db730U, 0xbbaf4b503c9b2ff2U, 0x3d3ab15d3d943195U,
  0x3d611da83c740d68U, 0x3d32026a3d709446U, 0xbda0a3e6bb4cd997U, 0xbd6524363ca83ab6U,
  0x3c9da2db3d0af3e2U, 0xbd5ff620bd1efc56U, 0xba9e24c0bcb5e8c0U, 0x3d82431dbca3f0c1U,
  0x3d54a5483c6cc3d8U, 0x3c74fad8bc837e55U, 0xbc936755bce7ae2eU, 0x3d1293b43d012c42U,
  0x3be39cd7bd5f8a40U, 0x3d85ff303c72cb58U, 0xbd5ef5a7bc3a0d35U, 0xbd7f2562bd9dc3eeU,
  0x3cd3b6e7bc99f1d4U, 0x3d97bc233d2b37d2U, 0xbd29800bbc4ae964U, 0x3ce8bbecbd1ed1dfU,
  0xbcfc36a6bdac83f9U, 0x3da118b5bc904d4cU, 0x3c99042cbd385310U, 0x3d88e2babdab8473U,
  0xbda4b6eabd06a12bU, 0xbca7e4a0bd29ff55U, 0xbc21e0a53d4a2e10U, 0x3ca5c84f3d08c56bU,
  0x3da07396bd9d7ee0U, 0x3da2e6433c1b6cd8U, 0xbd7843bbbd6329b2U, 0xbc9ae9483d85ab32U,
  0x3d74f6ef3d8ca7d5U, 0xbd1106703d9ba559U, 0x3d8febddbd9f90e5U, 0x3c3fa300bc36f834U,
  0x3cc03bf0bb16c5c0U, 0xbd6d61163d016920U, 0x3d7c0562bd2a92c0U, 0xbce53c453d99ae0eU,
  0xbd188888bd00e1f6U, 0xbcd562c03ce7c26fU, 0xbd98b7693d5e05f3U, 0xbc07b23f3d654c1dU,
  0xbd4ce6443d9c645dU, 0xbd50e20e3d1be2daU, 0x3d9ef01bbc603587U, 0x3d0a62c53c99b01aU,
  0xbd5f5dc5bcdc8b96U, 0x3d8faa2dbd01f526U, 0x3d9f3bd33d048361U, 0x3d8c1915bced3826U,
  0xbc20b6a2bc52db15U, 0xbd621e403d2368f6U, 0x3cd976d4bcc6d0e0U, 0xbd9ca3c83c581da5U,
  0xbda568a9bd86da4eU, 0x3c66ed583b871962U, 0xbd9913a4ba4fab04U, 0xbca82156bd9eff5aU,
  0xbd5f85253d545902U, 0xbda80fa8bd878abeU, 0xbd8c29b33cb17accU, 0x3d8d0b53bd9b2483U,
  0x3ca3b8bd3da083e5U, 0xbda3ea2e3d9e8febU, 0xbd88db1e3cba994bU, 0xbd870e7ebca8670aU,
  0x3d93592f3d688dd1U, 0xbd6dad16bd40dc50U, 0x3d4949a6bd72d436U, 0x3d17c07fbccb2351U,
  0xbd8a6245bcedbaf6U, 0x3d8ad8ad3c5cf76aU, 0x3d94ccf1bcea9460U, 0xbca037b1bd4a1acaU,
  0x3d9b027abd00d36bU, 0xbc3a15f43d7d9ac6U, 0x3c404db73cbda74fU, 0x3d3967333bd50fb3U,
  0x3d6499413d819c75U, 0x3d9823253c37de00U, 0xbd97a7f0bcdc6fb3U, 0xbd8ce4c3bd1e9638U,
  0xbd250b903d3d751fU, 0xbd3fc9b03da3f563U, 0xbda23748bd2c9d5bU, 0x3d96a6313d45eb00U,
  0xbd9d5bc23d649c8aU, 0x3c3d7768bcf686f8U, 0x3da6647bbcb101afU, 0xbcccba123c4fb825U,
  0x3d554cffbcc7a84cU, 0xbd8f89e8bd807870U, 0x3caf251ebc861c71U, 0xbd86e68e3cccefe6U,
  0x3d7e85733d874511U, 0xbca469403d1fbbc6U, 0x3d871583bd25a1bdU, 0x3d93c1f3bd75110eU,
  0x3c9656313d9a55b0U, 0xbc3b0500ba50d280U, 0x3d8b928b3d857ca5U, 0x3ce092e03ca7f2ebU,
  0x3cd38d633d145b4aU, 0x3da45bdbbd867421U, 0xbc8b360d3d46b478U, 0xbc837393bc244bcfU,
  0xbd203dac3d89bad5U, 0x3cfd0724bcb314ccU, 0xbdaec89a3d643351U, 0x3d7c7e963d01b113U,
  0xbd8464313d9cd1b3U, 0xbda778283d905a21U, 0x3d322f5a3d3d8379U, 0x3c5d09a83d2cef43U,
  0xbced1347bd92cf66U, 0xbd0c0510bc3dee98U, 0x3cff15943cc5a020U, 0x3d899b203d6821d6U,
  0x3d0b1084bd9d8993U, 0xbda8f0e8bd24f1adU, 0xbd6fed0fbd649bbcU, 0xbd111c673dcee06cU,
  0x3da1ca2cbd8479a6U, 0xbba9ab03bd93beb8U, 0x3c06f8be3d81665cU, 0x3cf3ce903d5a7180U,
  0x3bb9caa1bcb208d6U, 0xbcbda1d63d54432aU, 0x3d9b71adbd028f36U, 0xbbc414b03d94a859U,
  0x3d5422f9bdb6fff8U, 0xbd9ade0e3d0dc226U, 0x3d2ff7423d10299aU, 0xbd5a96d33d56ea60U,
  0x3ac070223d3dbde6U, 0xbc2d5f803d0f4089U, 0xbd2f71ca3ca78db5U, 0xbba55b743e21f107U,
  0x3d802038bcf4f056U, 0xbc591b0ebd0194a0U, 0x3d007c85bdb40bd9U, 0x3d93f519bd48ee88U,
  0xbd2616b83a5f8980U, 0x3c985574bd2065e6U, 0xbcaf2dd63c01578bU, 0x3da0d4a9bd355b39U,
  0x3c41b9ac3d90ceb5U, 0xba75e280bba5bc00U, 0x3b83dc30bc838d6cU, 0x3be5801ebce9aa66U,
  0x3c66f4f83d648e12U, 0xbd864f50bb931617U, 0xbcb73b113cb3e187U, 0xbd0f48163d0fb6d3U,
  0x3da2ae9a3a89ba00U, 0x3d1abc18bd8d2c1bU, 0x3d64d5fdbd50729cU, 0xbd31aa243d0ac662U,
  0xbb9c405a3cc5df74U, 0x3da7f61b3cd24d14U, 0xbd2c419bbbcd84e7U, 0xbd1a18603c9092f1U,
  0xbd8b6d22bda950edU, 0x3d2f6aa63d8f9c65U, 0xbd8b64163c045a00U, 0x3a4e25473ccaf870U,
  0xbcdb9f473d4599f6U, 0x3da406ed3d01f49bU, 0x3d8f18603d53d5b1U, 0xbc14d6c7bda514aaU,
  0x3d3ed8523cc133f4U, 0xbc04f3f23d17c886U, 0x3b9bcbbb3d88bbf0U, 0x3d10c95ebd5327ebU,
  0x3d3240b4bd53a366U, 0x3d61a392bd3b07d6U, 0xbd54d07bbc7a72f0U, 0xbc8220ac3d7e6228U,
  0xbc96a6823d810a19U, 0x3da46ca13d195516U, 0x3c5e3ba8bd4c4d56U, 0xbce49d8fbc897acbU,
  0xbd9357683b92c5b0U, 0x3d0e82103d8f0bfcU, 0xbd201dc8baed8f7bU, 0x3b251e3d3e069475U,
  0x3c9e4da53c843340U, 0xbcf7a2e73d835d41U, 0xbccc9af53d46aa8fU, 0xbcac20263d9ca653U,
  0x3d1383bb3daa9c2dU, 0xbc3f5da8bd892b96U, 0xbce5ee20bdb38080U, 0xbd5f34963c97c91cU,
  0xbda10ac33d80fd29U, 0xbc3923683da01643U, 0xbc8585d43ced19a0U, 0x3c6b2879391a15bfU,
  0xbc793c3e3da4ad3dU, 0x3d24cf50bd9c7631U, 0x3d5e141b3ccf261dU, 0xbb457fbf3ca1f471U,
  0xbc8b0c033d329d4aU, 0xbd8e9a9bbc2f3a80U, 0xbd99cb9fbd483ccdU, 0x3c07b8153c11ab5dU,
  0xbc5a5ea33d489b7aU, 0xbb4097a03d256baaU, 0x3d78a19a3cb66552U, 0xbd6828d6bd2def11U,
  0x3d0e93353d3cae4bU, 0x3d16882a3d34f906U, 0x3af7d2c03d535782U, 0x3d89ffe23d82c906U,
  0x3c9436b43ca8a08cU, 0xbd2cb4063ceb298dU, 0xbd9477d73d0e61ffU, 0xbb00fd643da06ec6U,
  0xbc494280bd8e343eU, 0x3ccf68343d7881e2U, 0x3d2139ffbcdb22fcU, 0xbd9863533d7dfb04U,
  0xbd18bc07bcf98096U, 0xbd9c47b33bfca900U, 0x3c40e9a83cf33e4cU, 0xbd2cb5963d60b388U,
  0x3d1ff4233d882026U, 0xbd4fbaebbcd39220U, 0x3d31a6823bf3c350U, 0xbd4b2ce03d18c3e1U,
  0xbc3e27463d070470U, 0x3ccdd8cc3cf98267U, 0xbc1ddcdc3d6f1046U, 0x3d5e44163dcb6528U,
  0x3d40223bbda0ec43U, 0x3d100567bd6d7c26U, 0x3d447e68bcef2a9bU, 0x3d6a2420bbbdf8f8U,
  0xbd6cab803ca1f474U, 0x3d8ed839bc52d328U, 0x3d9dd5b13d8d12aeU, 0xbd09f2cbbd8c2f89U,
  0xbd9fa289bcc7cbf7U, 0x3c80b7603d7e812aU, 0xbda2c6c8bd2809d6U, 0xbbe423273c613c59U,
  0xbd919294bd4e2396U, 0xbcf0c3203d942db3U, 0x3d25002dbc9f7952U, 0xbd979bda3ddcd2e0U,
  0x3e03eb1d3c2fc068U, 0x3c9f55eabd8d56e3U, 0x3db97eda3d6bd014U, 0xbdab2bc83d568c74U,
  0xbd88e77b3c87edccU, 0xbd953db83d32f426U, 0xbb76a200bc817896U, 0x3d2eacba3ba35ca7U,
  0x3d431e0abd4f0866U, 0x3d703d623d91a2dbU, 0x38862c003d8bdda9U, 0x3d59348abcac6de0U,
  0xbcb16f4cbb7586a0U, 0xbd7898c03ba17850U, 0xbd69e7463d4e8cb6U, 0x3d77bb123d9843ddU,
  0x3da5c61b3d1c0b96U, 0x3d52dfd63cdb576cU, 0xbd176da0bd8876e0U, 0x3d974b15bd556cf0U,
  0x3da809f53d18e7c0U, 0xbd0e240bbd0604fbU, 0xbceb2d36bd93f70bU, 0xbd028dc0bd4e9c40U,
  0xbcf457603cd73ba0U, 0x3d802d69bd45a4dbU, 0xbda0ef76bd9fffceU, 0xbb6616603d90b6abU,
  0xbd9f5160bda78130U, 0xbd20f0963b32e600U, 0x3c28da183cb501b4U, 0xbc3015403d4ebd26U,
  0xbd91de26bc8cc914U, 0xbd561270bd061616U, 0xbca949a03c1e2458U, 0xbda5b94bbd89044eU,
  0x3da79a013d4b6d62U, 0x3d812e1dbc4c8ba8U, 0xbd77e6a63d223266U, 0xbd7537ebbcc45b36U,
  0x3d008986bd8f3463U, 0xbd76521b3ce6cf14U, 0xbd23f2703d7cc516U, 0xbc084018bd851e68U,
  0x3d1417a6bd83f380U, 0x3d71ef523d18c3eaU, 0x3cf49714bd515e1bU, 0x3be71250bd2b165bU,
  0x3cfe904c3d9a6fabU, 0xbd8edb0bbcf8198cU, 0xbd4ddf7b3d8a9c89U, 0xbc4a37d83d7caf82U,
  0x3d85333bbd640e1bU, 0xbbf2cbb0bd56b7ebU, 0x3d02f1203ce5c514U, 0xbd922e48bd4af1d6U,
  0x3d542542bd8c43e3U, 0xbd14f65b3d49f216U, 0xbce427b63d9c8d2dU, 0x3c99ce6c3d4647a2U,
  0x3c213200bca46a4cU, 0x3d8e56893d19cddaU, 0x3d91bcd3b9188a00U, 0xbd817c5e3c95e9b4U,
  0x3d53ee32bc507c68U, 0xbda5e1503cd6054cU, 0x3cb126e03ab0f000U, 0xbd95d8f8bbc26c50U,
  0x3d79a3c2bd959340U, 0xbc3f1628bd62c576U, 0xbd593200bc5a2c18U, 0xbd97b940bba59d00U,
  0x3bb63c30bd551c70U, 0xbc7d4ca83da3f803U, 0x3da2d9433d589866U, 0xbd9b4d0e3d7d3eb6U,
  0xbda1cda8bd386296U, 0x3d6489723ce5d7ccU, 0x3cb4882cbd81f133U, 0xbd6846c6bd823f0eU,
  0x3ced2d80bcbfae76U, 0xbcf7de76bda7c8beU, 0x3cd82cd4bce4444cU, 0x3d0901263d0a329aU,
  0xbd1d4730bd8a92dbU, 0x3d92d1e3bbeaaf80U, 0xbc1885c03d5d7be2U, 0xbd2b8f8bbd10c5e6U,
  0xbd8b601bbd9a359eU, 0xbd0fc9dbbd74d456U, 0x3d3de9da3d8e9b85U, 0x3d1ed796bcb441a0U,
  0xbc4720c03d52e852U, 0x3d321966bd93f858U, 0x3da04b9d3d730766U, 0xbd52d910bd8a18deU,
  0x3cf437d4bd571d50U, 0xbd8341463d0baf3aU, 0xbb92ebb0bbcbca30U, 0x3d41c69abd4155bbU,
  0xbd6b78c0bc7df768U, 0x3cb7c360bd6e5fc6U, 0xbc7c8128bca5780cU, 0xbd5b42103d6cd2baU,
  0x3c148f80ba709280U, 0xbd299de6bd487030U, 0xbd0dc470bd71c6f6U, 0x3d0dc70a3d430fdaU,
  0xbb9568803d9bbbfbU, 0xbd414e46bd9a436eU, 0x3d837523bd6597dbU, 0xbd6e8746bc9652f4U,
  0xbcd4f5163d52b322U, 0x3da6680dbc4c0c18U, 0x3d71ca06bc92cc2cU, 0x3cd01fcc3c67c068U,
  0x3d9c53493c4499a8U, 0xbc6afb80ba06b400U, 0xbd3dfd1b3cb5110cU, 0x3d53f2c23c6e0718U,
  0x3aabc6003d96e61dU, 0xbc81b8403d7313d2U, 0xbc959854bd2c72abU, 0xbb039b603d96c4cbU,
  0xbd48000b3d8e9c85U, 0x3d5c429abd8bbd4eU, 0x3d1103aabd9adf83U, 0xbc8b5aec3a893c00U,
  0xbd97a146bcfc76d6U, 0xbab85340bd998a78U, 0x3c81fe6c3d143806U, 0x3d92178d3d1f80faU,
  0x3d5c3fda3d1c36caU, 0x3c2bb5a8b981a000U, 0xbd0bef06bd16b910U, 0xbd8e333e3c0766a8U,
  0xbda0b53bbd43b640U, 0xbbbc0cb0bd70648bU, 0xba6fb180bccf8940U, 0x3aa15f403da0b423U,
  0x3d880d7dbd7328c6U, 0x3ca4d38cbd6ebdfbU, 0xbd80b456bd471066U, 0x3c9cd0343d78c396U,
  0x3ccc3e203d58fa26U, 0x3da88a51bd40d540U, 0xbd351a80bd343530U, 0x3da29ca33c73ae80U,
  0xbd52a9303d9ea099U, 0x3da91de13cd8178cU, 0xbd1f709b3c8d6cecU, 0xbc2594683d9f33e5U,
  0x3da4ca31bd939fb3U, 0xbc866ad43c08b9a8U, 0xbd6801e0bd06d8e0U, 0xbbf785803bad6f50U,
  0x3d5fcc46bda4a288U, 0xbd021a763d0c64b6U, 0xbc897e4cbd93ec56U, 0xbda50cf3bcc8b180U,
  0xbd390b8bbd1795abU, 0xbcd6d6e03da9c261U, 0x3d7fb826bd8d11beU, 0x3cd34bccbd9a5946U,
  0x3d1327c63d81829bU, 0xbca803f4bcef938cU, 0x3d91a4633ab4bc00U, 0xbd79b9603da39381U,
  0xbd8a90863d6aa732U, 0x3b3fb5a0bd6c7a30U, 0xbd0f01363d43c5f6U, 0xbd10f5cbbd9760a3U,
  0xbd25d0863d9f8495U, 0x3d9ffb59bc8efb74U, 0x3cf1fb34bc028780U, 0xbc8360c0bd88e983U,
  0x3d174ce63d866381U, 0xbcb562ec3d8700adU, 0xbd560fbb3cecabb4U, 0xbd9bf726bca50eecU,
  0xbd998c6e3d9cb709U, 0x3c9d042c3d0bb270U, 0x3d628b8a3d844699U, 0xbd081580bc44f5d8U,
  0xbd1706bb3c5e6a00U, 0x3d71b0563d12345aU, 0xbda00c403cadc074U, 0x3d4e50563d3d6ed2U,
  0xbcf7340c3d53c4baU, 0x3d35c7763d98d6fdU, 0xbcbdbdb63d5a0e86U, 0x3d0ff90a3d1d7266U,
  0x3d0affcabd5071dbU, 0x3d86c643bd79b7abU, 0x3d8dd2f13d30d086U, 0xbcdd73cc3d897485U,
  0x3c934c6c3c687f68U, 0xbd09f0a63ce75c74U, 0x3d86a4ad3d7ff95aU, 0xbc91d954bb043fa0U,
  0xbd52535bbd6c7466U, 0xbd229c403cf07bf4U, 0x3be388d0bd7b55fbU, 0xbd4165d63c9faaacU,
  0x3d0a5040bda9e1dbU, 0x3d0f2b60bc2442e8U, 0x3cd53680bd345ff0U, 0xbd618c16bcd43416U,
  0x3d8afff5bccbbfd6U, 0xbc5e00803c1047d8U, 0x3d5749b23b10cfa0U, 0xbd5149363c3016d8U,
  0x3d4e15b23bf4b350U, 0xbbd66fd03b8705d0U, 0xbd6201e6bd83e170U, 0x3ca999e0bd0f93e6U,
  0xbd10603bbc0e8ac0U, 0x3d923d79bca53634U, 0xbd1dbdc0bd0a5126U, 0xbda3b56e3d9479e3U,
  0xbd7d8420bcb1f540U, 0xbd29d3a63b6464a0U, 0x3caf6b60bcabfdd6U, 0xbcfa9d76bd49d9f0U,
  0xbd821e0bbda67026U, 0x3b0f8c00bd7ecbf6U, 0xbd046fbbbc0d31c0U, 0xbd5f7ffbbca1970cU,
  0xbd7d92d0bd4f0d6bU, 0xbc82bb00bd487ff6U, 0x3ceb9ca0bd34c156U, 0xbced3bccbd90d84eU,
  0xbbb4ffd03c6ca998U, 0x3b2af260bd66be2bU, 0xbd122106bd3c6be0U, 0xbc7aa0403d8b4921U,
  0x3d7f212abd022f1bU, 0x3d3837563a8b66c0U, 0xbd7949703cadb0c0U, 0xbd14e2f63d055fcaU,
  0xbc80880cbda4a666U, 0xbd5b2bf63d534bf2U, 0xbca870603b790aa0U, 0xbca51b943c28e7c0U,
  0xbca6a214bcfcb72cU, 0xbcab0b00bba32cb0U, 0xbd6acc963d1698a6U, 0x3da1ed1bbd5064f0U,
  0x3b89beb0bd97945eU, 0xbd8b9926bcdfa14cU, 0xbd876e16bc78ebd8U, 0x3cc4990cbd3c3fb6U,
  0xbd9b8cd03d7396c2U, 0xbd81ac733d90d1a9U, 0x3d7754463c315240U, 0x38c23400bd8ce5ceU,
  0x3d9511933d8d20a1U, 0x3c853434bd8b5950U, 0xbaf666003d1fd65aU, 0xbd1b12d6bda11620U,
  0xbdaa1d03bc98e8c0U, 0x3d25451a3be47880U, 0xbd749bfb3d54680aU, 0x3c1976c03d6fbacaU,
  0x3a3eb680bd753d60U, 0xbd027dcb3d78ef72U, 0x3d2b0846bd917e4bU, 0x3d593502bd4d0eb0U,
  0x3da666613d3f56faU, 0x3cc3ed803d94df13U, 0x3d641bdabd867d9eU, 0xbd1c2ae0bd953928U,
  0xbd26e5d6bd9cf1aeU, 0x3d969f75bd73d92bU, 0x3d05555abd270b0bU, 0x3cad8460bd92d008U,
  0xbd12d6f0bd933758U, 0xbc1d3f003c4b6f40U, 0x3b7a7fa0bcd4cd00U, 0xbb5cc560bd6d1d8bU,
  0xbd478cd0bd56f296U, 0xbc17c728bc5c05a8U, 0x3d6b714a3d9cb3cbU, 0x3d0248103d216b8aU,
  0xbd0fcbab3d9a5013U, 0xbd220a66bd8dbb56U, 0xbd171bf63d973fedU, 0x3a4bde80bd84f4a3U,
  0x3da24533bbacf280U, 0x3d4ebf9abc6cdfe8U, 0x3bf5cc50bd9ad633U, 0x3d0172a63d3a60a6U,
  0x3da124293d909c5bU, 0x3c846c943cdfc834U, 0x3d74f116bcde0136U, 0xbcc586e0bd0d6590U,
  0xbd65182c3d156b71U, 0x3cccab00bc9a4dccU, 0x3d8ae0513daa72b9U, 0xbcbae4303d6886d8U,
  0xbd84a6be3d66812aU, 0xbd026c96bd8d2b9bU, 0xbc1a241d3c323729U, 0xbd9526ddbd0cbb14U,
  0xbc87f557bcce7dc0U, 0xbd324ee73bd3b100U, 0xbb9d3253bd9f451fU, 0xbd02bbbcbc837191U,
  0x3bb03f3e3ccb6540U, 0x3c275d803d50b752U, 0xbd9c49d63d883365U, 0xbd9739e0bdbaed44U,
  0xbd8811913d74ce06U, 0xbae360c0bd1140dbU, 0x3d7a374a3d51dbb2U, 0xbda40e603d17711bU,
  0xbd0625bcb90f4600U, 0x3d2221203d7a535bU, 0xbd8ebd083cb285ffU, 0x3d242e373c3d2437U,
  0x3d5458e1bd4870ebU, 0xbce3fcc23d7a6636U, 0xbd1124233d144b3bU, 0xbd9b60463d31276bU,
  0x3cf57a50bda43928U, 0xbcc6e2ec3bed5f30U, 0xbc017f40bd731c18U, 0xbd9757f8bd8c561aU,
  0xbc9ab0e23d3e5452U, 0x3d9fbfb53cf40d20U, 0xbd878626bc4e12e8U, 0x3d06e192bd0477f7U,
  0xbd8050073c6a42a8U, 0xbb6759a0bcfc8ba8U, 0x3be30af23c895a80U, 0x3c3cbaddbc361714U,
  0xbcef7686bb095a60U, 0xba9bddd4bd962298U, 0x3d535319bbafc911U, 0x3c4370d23cbfbf58U,
  0x3ccbd3fbbd2dee86U, 0xbd0e3c6b3ccfe880U, 0x3c907794bd7740fdU, 0xbc5b4e28bce7ce01U,
  0x3af1f2263c89d3b4U, 0x3d6a044abaa75ac0U, 0x3d6aa162bd7c8df0U, 0x3da3089fbbbdbf51U,
  0x3d210eab3ce0be74U, 0xbcea20403c1f02aaU, 0x3c872dba3d13cf1aU, 0x3c63bf883cd60fd0U,
  0xbc351e6abd0964f6U, 0xbd8f6ec43d02d346U, 0xbd0e9f803d0bf677U, 0xbd3024d1bce6ec0bU,
  0xbd8cf648bd80eb53U, 0xbcb050003cbbe714U, 0xbd987ab83d2de974U, 0x3b83f950bd75bec8U,
  0x3d5b8eea3d371658U, 0x3d067f0abd82bd96U, 0xbd362690bd448700U, 0x3b34bce2bc0806bdU,
  0xbc911ea6bd9ab836U, 0xbd37e736bc9d03adU, 0xbd1460273c45cc22U, 0xbd3923213c16c218U,
  0xbc8747df3d41a2e2U, 0xbd81e85c3d923a99U, 0x3d7983573c34a027U, 0xbd4003c23d8371d9U,
  0x3d8ac4acbc3ed1a8U, 0xbba2ad303cf01254U, 0xbaf21f40bd015a85U, 0x3d33a626bc99a0beU,
  0x3d0c55d73c3c6eb3U, 0x3d42b06a3d2abc5aU, 0x3d80922d3cc58e54U, 0x3d9d0de4bd8f201eU,
  0x3d5b1cf03d50952aU, 0xbd81a073bc700b18U, 0x3d70730bbb89550aU, 0xbc4fbf4abd81529eU,
  0xbd1a0c4ebc9235f4U, 0x3d8093eabd0f939bU, 0xbd8f26a63cf5f957U, 0x3cc39355bd67b0edU,
  0xbd2d5c1b3d19cb8aU, 0xbcc3ea363d0e8ce6U, 0x3d942e09bd54419cU, 0xbd811b26bc0fe4e8U,
  0xbcba2674bd24d94aU, 0xbc374dc0bca00a80U, 0x3d092b703c8b8994U, 0xbd130b94bd4f3447U,
  0x3d0021e9bd7a8770U, 0x3d95726d3d0e1842U, 0xbd2052f73cd8b291U, 0xbd2ef193bcb8c731U,
  0xbb105add3cee800cU, 0xbd5ec16f3cdb4ef4U, 0xbc18ffd83c7ad055U, 0x3d65cb553d1f32fbU,
  0xbd93f486bc9e5decU, 0xbc358d58bd686f76U, 0xbc38e6a83c86be2fU, 0xbd942fd3bdbcb944U,
  0xbdbe1f9c3d643c78U, 0xbcf660ac3da5cf33U, 0xbb204360bcc937e0U, 0x3d5848893c2e14b3U,
  0xbc8f16e83d36c932U, 0xbd78682b3ad16967U, 0x3d8eb3d5bd049e38U, 0x3c2aeca6bc75be3bU,
  0x3d0e77673cc7bf60U, 0x3d30ab853cab222cU, 0xbd699c8d3d8443acU, 0x3d1fbf973c944d32U,
  0xbd95b3603cf13900U, 0xbcdd09563b00ae00U, 0x3d8539db3d6d5b3aU, 0xbd0b021b3c5e275cU,
  0xbbc2c963bd00fcfcU, 0x3d5d6d06bd3689cbU, 0xbd0882603d0992a0U, 0xbd95d1b8bda2ca3aU,
  0x3bacf4ebbd0ed98bU, 0xbcc1d580bd4b159aU, 0xbd9619bebd0f3017U, 0xbcaa1ffa3a0aeb15U,
  0x3cc7c359bda4d288U, 0xbc8af89fbcd08636U, 0x3d0d1f5cbc1f4740U, 0x3c9c4d4d3d6c7bc4U,
  0x3c8de66abd6c19dbU, 0xbd92f93bbd3a348bU, 0xbd906f603d428c36U, 0x3d1c1ab03ced2a92U,
  0xbd8b3636bd3ed2abU, 0x3cc853543c214800U, 0xbd965ca33d106306U, 0xbce3a3403b3244a0U,
  0xbd9434b6bccd480cU, 0xbcf6db803d4350b6U, 0x3da4f1893da5fc7dU, 0x3d5114f23c2960a8U,
  0xbc2fc580bd3c8db0U, 0x3b376f00bd8d5cd3U, 0x3d551232bca7356cU, 0x3d294c76bced4a8cU,
  0xbca2684c3d9015dbU, 0x3d1c6c603da7d141U, 0xba82ee00bd8a1b70U, 0xbcef1f763ca42c40U,
  0x3c1a1968bc9a262cU, 0xbda4d9e6bb2b4da0U, 0x3c6dbd983d996169U, 0xbd8f6d9bbbdaa9d0U,
  0x3c8dc594bd225b20U, 0xbd95fbaebd00741bU, 0x3d4d0c663cc95620U, 0x3d8e74e33d92393bU,
  0x3d433a6a3d6812caU, 0xbd28018b3c5f0e98U, 0xbcb9398c3d5d77c6U, 0x3d86f2f9bc893fccU,
  0x3d00c2663d14ebc0U, 0x3bf144003a8c6800U, 0xbd42fd0bbd6e281bU, 0xbbea32503d7d770aU,
  0x3cff77a0bda71f0bU, 0x3d120b4abcb0b4e0U, 0xbda6c0483d8eab13U, 0x3ba7bc80bd5fdfdbU,
  0x3d3f209a3d0df81aU, 0x3da63a2dbcbc8ad6U, 0x3d1150fabd666ffbU, 0xbca92d603cde6620U,
  0xbd152a263c8a810cU, 0x3cca54c0bbef5f30U, 0xbc064028bd971b70U, 0xbda59d38bd14c430U,
  0xbc4b80583d40a7aaU, 0x3d90d71bbd321f60U, 0x3c8564ccbd014b30U, 0xbd5eb450bd87540eU,
  0xbd6e5dbb3d9386f3U, 0xbca431803d9f39e5U, 0x3d340e523b89dab0U, 0x3d614d42bd753880U,
  0xbc49b498bd871f1bU, 0xbd2b97c03d0c10d6U, 0xbb59fba0bd75d9dbU, 0xbda0d75b3d14ab1aU,
  0xbcb37120bd5b5260U, 0xbb70e5603d61fec2U, 0x3d6b5fb2bad55ec0U, 0x3d559ad2bd9cdfb3U,
  0x3d96e4a13d7004a6U, 0xbc643998bd761516U, 0x3da48e533ce1faccU, 0xbc846ae03cd80754U,
  0xbd95272e3cac8080U, 0x3d82f0093d0e1d36U, 0xbca680343cd0b394U, 0x3c8ad4803d9fa139U,
  0x3ccb5a34bd8af663U, 0x3bfee5d0bda2f4cbU, 0xba102a803d66f9d2U, 0xbd387a8b3da98969U,
  0x3d2dab723d1aeb4aU, 0xbd552826bd380d80U, 0x3cd8a40cbcc0156cU, 0xbd5691663d75c55aU,
  0x3d05ee6a3cafdee0U, 0xbd26b87b3d640566U, 0xbcfa7e6c3d941b39U, 0xbd9c8eb0bd0af206U,
  0x3c5f93583da94e3bU, 0x3d804efbbd1c6f5bU, 0xbce9c660bc6cc280U, 0xbd31ef663d67b812U,
  0xbc86b12cbcaa3decU, 0xbc826b60bca880a0U, 0x3d11344abd772160U, 0x3c842160bd283bc6U,
  0xbd5894a63d7638faU, 0x3d0b83d6bd3405bbU, 0x3d4d18723bf8e5d0U, 0x3d81e1933d76121aU,
  0x3d93e30d3d9df0b5U, 0xbd2d7e803d4b059aU, 0x3d39b50a3be3bad0U, 0xbd79bfd6b99d6300U,
  0xbda1c9483d20e176U, 0xbd1d564bbc9129d4U, 0xbd858240bd8e278eU, 0xbc503ce8bcf149b6U,
  0x3ceb6cd43d50fdb6U, 0xbd042df6bd5e344bU, 0xbca78bacbc0564c0U, 0xbc91cfd43b55a760U,
  0x3cde3d403cfd5e80U, 0x3d7e9c663c8302b4U, 0x3c860560bacddf40U, 0x3d866625bd2a8b00U,
  0xbd8e1c0bbca059e0U, 0xbd3ae3e03d56c5eaU, 0xbd34b6863d8973d3U, 0x3c99426c3d152300U,
  0xbd27fda03d3fb716U, 0x3d80bbb1bd9915d8U, 0xbd5f61ebbda4bd4bU, 0xbd116afbbd1cbc16U,
  0x3b04dc00bd7f93fbU, 0xbd2e5120bcc75f40U, 0xb9b55500bd38d750U, 0x3da06cdd3caa8334U,
  0x3d8331c9bd640f86U, 0xbd45e76b3da542ddU, 0xbd426bfbbd555ac6U, 0x3c827c2cbd6dff00U,
  0xbc5d5c403d782d7aU, 0x3cc0820cbc2df2e8U, 0xbd9e6b0ebd5e342bU, 0x3b12d3603d9ab0c5U,
