/**
  ******************************************************************************
  * @file    network_data.c
  * @author  AST Embedded Analytics Research Platform
  * @date    Mon Nov 15 23:32:39 2021
  * @brief   AI Tool Automatic Code Generator for Embedded NN computing
  ******************************************************************************
  * @attention
  *
  * Copyright (c) 2021 STMicroelectronics.
  * All rights reserved.
  *
  * This software component is licensed by ST under Ultimate Liberty license
  * SLA0044, the "License"; You may not use this file except in compliance with
  * the License. You may obtain a copy of the License at:
  *                             www.st.com/SLA0044
  *
  ******************************************************************************
  */
#include "network_data.h"
#include "ai_platform_interface.h"


AI_ALIGNED(32)
const ai_u64 s_network_weights_array_u64[ 150073 ] = {
  0xbc29d1c8117f426fU, 0x1db933e581045e88U, 0x360eab24c8811461U, 0xecb07f34da593ce1U,
  0xf281e219fd058a49U, 0x3b4c8c44fd2e2b47U, 0x6f31ab14737f5b9aU, 0xb832463a7f1ebb58U,
  0x332869081b58b681U, 0x81b1151fcf5b3025U, 0xf2341f5c7c7f3edbU, 0x9b356a8fda7fd041U,
  0xd1df53507f0155efU, 0x47219d31cbb9b7eeU, 0x2ddc1abb7e7f53d8U, 0xb2e4bc6f7fbe3021U,
  0xb988a081dbbffbc4U, 0x97ae352462375f7fU, 0x5720d4d3eb4ed81U, 0x4a9c517fce087f25U,
  0xa8fd7fdc5b763ea7U, 0x2e331b5c5b8533f2U, 0x565cf9b58197d8caU, 0x7f3c5fd5227e7fcbU,
  0xc574e2d208efe115U, 0xf1427f5cb9c9369bU, 0xed46fb982d3ed87fU, 0xdd5af7287f9dfbf7U,
  0x37270ac9819cedfdU, 0x19c24c8aaf3b5d42U, 0x457f549d1c542d7fU, 0xd7f2fb3e353eb43U,
  0x81d14ff0c0eb2d78U, 0x1b5e3276591f7c27U, 0x7f4aef172f7f53adU, 0xca0e0257586da3a4U,
  0x3b40000176aU, 0x11e40000186bU, 0xfffffcaf00000ae3U, 0xffeffffe606U,
  0xffffee3b00000709U, 0x11a700000c3cU, 0xfffffb6bfffff378U, 0x74700000000U,
  0xfffffb7d00001187U, 0x19cf00000416U, 0x64fffff6e7U, 0xfffffc54000004c4U,
  0x186300000c88U, 0xfffff139000008feU, 0xfffff77500000ba9U, 0x3c3ffffec38U,
  0xd802210903f800cfU, 0x2ee90f32d52731f9U, 0xc6ec0be8a4f7e330U, 0xe912da15ff0ece00U,
  0x291b2af603cac3fdU, 0xe5eae335d9ea29eeU, 0xc7d6fc109e08392cU, 0x3ad5f0132a32ecedU,
  0xd071f2dd608befeU, 0x1916e2ffadf341b4U, 0x2bca0728d1112603U, 0x3a1738f7e4eddccbU,
  0xba2df609e6eafde0U, 0x1432cde2c8c5e910U, 0x15df08ecc1ea10ffU, 0xffe3cd1cfce6c417U,
  0xae15ec1b39fee5f5U, 0x192acd32ac131a33U, 0xce0d4013b10f08ffU, 0xf8022eeb141981fbU,
  0xf62e07d632c105ddU, 0xd80ee8d4efd13fe2U, 0x203010e5bbf3e9f5U, 0xeec3413e3ccb1f0U,
  0xd0320c32eaa9e6a3U, 0x200625fbdfe8e1d3U, 0x232631f3a41f1fd6U, 0x5fe31f00db986c1U,
  0xf80701ee2a0706deU, 0xc1ca17fab405f612U, 0x31071cd71c1301U, 0xf40d16392a11c519U,
  0xe9410331ffed33d5U, 0xfbf4ff2cc7082ee4U, 0x2728e018a5d20120U, 0xd7f218fe3f06fff9U,
  0xb310ed064c022e3eU, 0x4012b6d94b121c64U, 0x34eb53005a441fa1U, 0xfa2dd72825d20df3U,
  0xc030e6d7eed72044U, 0xfdf710e260590d2aU, 0x2bf718fc182d34a9U, 0xf0eda30f6eadcccU,
  0xcae0bae0cefb4730U, 0xefe4f7e8177fddd1U, 0x461ff5ac2b4b09e0U, 0x44e2ed0509ece0f8U,
  0xd9dd0af61c0d1ff8U, 0xcf05a9cf44c6fd2aU, 0xfce233c70ce7cab2U, 0xefacdf14bffb1ab1U,
  0xcd6d8e1e1c817fcU, 0xd8dae2f51004e706U, 0xf6f106f14600e7dcU, 0xc7d7deb6a4c909a0U,
  0xecd5b006c6f111f7U, 0xca1de9b53100cac7U, 0xc610e6d3f90315feU, 0xe6c8c4bd9dfbcfedU,
  0xde51112cf133f04U, 0xd12229f3d2ddce07U, 0xfe26a5ede39bdb37U, 0xacea2abde0074b07U,
  0x39fc082fd2d420fcU, 0xd0a3224dcd1d2daU, 0x33fea723f1d10043U, 0xd5f1fad3d42a2216U,
  0xad0d5e7ddcd591aU, 0xc41b09d8d8fba5f5U, 0x1e30b8ebd9c9eb1dU, 0xd2c7e8b5cd1bd048U,
  0xdd152cf464dc0609U, 0x20e21820010d172aU, 0x1f0b29f700fe10e1U, 0xd7f0dd051712b4c6U,
  0xc3fbd806f0baf0e0U, 0xe8e7dde4bff202b4U, 0x8191a05b1dbedefU, 0xdb071b1fd7fae6e1U,
  0x21f4e708929313ddU, 0xf4f5fcdeba541fdcU, 0xe94adeefdbfe2e1eU, 0xf4ec27e7fb3a23e8U,
  0xfff6ea044ced2110U, 0xad91d05ff38152dU, 0x4f00e18c61f1303U, 0x1ede251216f7a5faU,
  0x22db27195ca212ffU, 0xe71b180ecc2b2679U, 0x12fc2115eafddedcU, 0x307ec1af21b0117U,
  0xf518e645f28135bbU, 0xc3010804c32ff729U, 0xd90ff601d2d824d7U, 0x2bef2dd9e30b3ae0U,
  0xf305e6232ed036ebU, 0xec1bdee4c701d72aU, 0x22e61116d3eee9d8U, 0x12ee1fd61b07e3e3U,
  0xd13e4ed58d80bd9U, 0xfaeb0ee4250c0759U, 0xcf2e18dad10ff90cU, 0xf60cf82911201df0U,
  0xf3fc2b0469d1d226U, 0x22e1f7f81beddd47U, 0x4d316ec19d90418U, 0x2428fdf221090ce2U,
  0x734f9d61cfe272fU, 0x2d0f0b06b61e16d2U, 0x11008ebd03912f7U, 0x3b2cf50dde07813dU,
  0xc2fd09e516f4d203U, 0xfbf401d7bae01ee7U, 0x36ccf0d9b82ef6ffU, 0xeb021629e0ba9b06U,
  0xe403e6bbe9bceef6U, 0xf6f821f1cb1b3698U, 0x45fcecfd0135fe23U, 0x2ef8dcdfd8f3abe9U,
  0xfbe208f176f45202U, 0xfbe7f61edb3d0b4aU, 0xfe0d251ebee624efU, 0xf2e521e5e7159f28U,
  0xdfdedfca61ff20adU, 0xf9d3c823df272205U, 0xefcf8eda3f8e4cbU, 0xc9dd0504010de617U,
  0xd111df4dd8ca119dU, 0x16f61c2d822822bbU, 0x290b13fcd20534f3U, 0xdb0032dcf0f0c51fU,
  0xd2ceec2445b952b6U, 0xe1df2806c74e2152U, 0x291ff92dc60e29e6U, 0xe422020cdd33e240U,
  0x1e2afde358edcef5U, 0x5ec08d3fff52222U, 0x7271ed1b6c0d91aU, 0xceed0619db1efdf7U,
  0x82b2a04149d4197U, 0x1dbdb18af1afd1cU, 0xe9f3d5e3b0d1250fU, 0x213e3007181a00feU,
  0x3feef8fb46e72a26U, 0xf4e5411febec0a06U, 0x253fdceb12f902f1U, 0xfa15f0f20638f7ccU,
  0x30e1bde5794dc29U, 0x3725080d19eb0152U, 0x1b2d3e311cfae911U, 0xdbc9c6f8f3310fe5U,
  0xc6372fca4aede71bU, 0x2527e5d045b9f534U, 0xd60df90cdcf0bdU, 0xb8e2c436c710cbefU,
  0x21e4d53013b83899U, 0xd2240024d037d308U, 0xff49ead8a8ef1a4bU, 0xf80218b9f1112e13U,
  0x56cdc91a41b9f2d7U, 0xc7163f31d12be829U, 0x3425d7f6c5e31234U, 0x1de028db1544e022U,
  0x100b40ef5b88f331U, 0xd00270101ddf335U, 0xd3270d14a8e4c13fU, 0xd0dddde90b39e525U,
  0xfe24050b5cb106a2U, 0xd410ddebd2fb0f34U, 0x4f8fee8a9f329cfU, 0x2190c080ee7d2fdU,
  0x1a1da815058c17aeU, 0xc9271ff0814808e4U, 0x2124050badf22ef8U, 0x220c3eeb2a11ee2eU,
  0x1903c7e504b6f7c8U, 0xcbfe24f3e51aeb12U, 0x1f0dd229ccd90b18U, 0xfdfc3bf80238ee4aU,
  0xc5150c9544efee16U, 0x3fea17d65edb1d2bU, 0x33b50b0b430cf500U, 0xacc7e844dcd8ebe7U,
  0xceff11adfebbf75bU, 0x717f5fe36e71e57U, 0xfb1615e22a3329b1U, 0xfa1dfffcefceccfcU,
  0x9f02ceccedb54a32U, 0xe9febbc03237011bU, 0x283a34bd261238afU, 0xb13f6c8eaf1f4c8U,
  0x322cfff9ae710d1U, 0xf6f800ea3304e604U, 0xecf2d4100deb1c05U, 0xe1e42a05d9ea3c0aU,
  0x2a0c0100ec0b3cc4U, 0xbdfee6e1e521dee5U, 0xda13eafac5d0db2bU, 0xd7ed38b60f010dccU,
  0x9ef2623bd0847b1U, 0xcce70afde6c6d9e0U, 0xe023ccdad3b3f206U, 0xe5fa2bc6fe394cf0U,
  0x731f33589efe7b4U, 0xcd1c201f89ecf781U, 0x125c7f1b7c8083dU, 0x151b38cf2141400dU,
  0x22f21d37f1e80d99U, 0xe123f207cbde18c9U, 0xfcfacf3cbad6e53bU, 0x2f2f030c0f0a110cU,
  0x1832171abb19e8deU, 0x2ff8f9fcc0bdeef4U, 0xf821cf34c5070e2aU, 0x362dfe2833151d09U,
  0xbd27fcc9e1d322f5U, 0xff05f6f9f54a13bcU, 0x32ec38ebd724d505U, 0x17032fe32d26c4c4U,
  0xdf3de917bd1b2bf1U, 0x1425e3d7e800dbc1U, 0x2bf02601071bfd24U, 0xdf30e0051e2bf2cfU,
  0xb92717c9ead4e0f4U, 0xd1d116ddc516d8eaU, 0x15e112e5c60630f3U, 0xe1d61a323211c1f4U,
  0x2f31bee05ea2f9cU, 0x5f7e7d7b6092ce0U, 0xffde2416a203d6d3U, 0x31f3e019d6bda50bU,
  0xfd232412d7d31c9fU, 0x16f11ffe9c163bc9U, 0x231e0ae3ca3209e5U, 0xfed43a1efc28ae2aU,
  0x3d7f0c8e8e7c5U, 0xcb272af9f31fec1cU, 0xcd43e833b70ff82bU, 0xf812e6232345d90dU,
  0xd230271d33c8efe3U, 0xcc2bc5ef30f52305U, 0x130fe917f408f1e7U, 0x2f3bb0911bdefcaU,
  0xeefd0625f8ff40f9U, 0x91cd6c8e8e72102U, 0xd50ed1f5fd0d14daU, 0xbcc1d28f8210aeaU,
  0xeb2cd73a0c812df8U, 0xdbf439ffb3f92ebcU, 0xfe25f202c6de05d1U, 0x3c34f8162cfd43f4U,
  0xd919eaee5ceebc3bU, 0x1bd7b8c44babed49U, 0x15ab1d082f22fca2U, 0xd0d9eb451fb7b081U,
  0xe708fba83bb0f54fU, 0x4b1ccff147d8416aU, 0xf7ed291723fbf9bbU, 0x17fb010c21ada5e7U,
  0xd901208a02d9eb5eU, 0x552809ea6c1c073eU, 0x39b84509505a3cb6U, 0x3dedc93a35cad8d7U,
  0x32d0ecf167e4d210U, 0xe2f6baeb38890b73U, 0xdbfafe01ded9b3daU, 0xa0abce02ccf52db7U,
  0x12d0c1d10ff7d120U, 0xf6f4cfc519d30861U, 0x12fc18b536d5d3c7U, 0xaac3f90ad4002592U,
  0x190cb9e0dfc3e925U, 0xdce8c10450c2e736U, 0x13f405f74a07d3c5U, 0xc5f4d7cace0de3cfU,
  0x58fae604be2605c9U, 0xd7ff0a26cba1b5fbU, 0xfc0bbbe1bca8f758U, 0xa1d50ec1f34731dbU,
  0xdfffc2bd1374ac5U, 0xb40a2f100ab1c6f9U, 0x814d108bbc5ef2fU, 0xc3161095e843400dU,
  0x2cd6ef2a921437cdU, 0xb914f122d40ca9a4U, 0x9279adce2a2ec21U, 0xc1e0793c00f1415U,
  0xf81010d6161421U, 0x111220f9dc0d13d8U, 0x20fc03f6042d2d2eU, 0x719180b0beedc11U,
  0x11d8f926f2ddf2fbU, 0xe8ea24edea38f9d2U, 0x1413f60401f7251bU, 0x280cf9e2f72ee72fU,
  0xe9f3d5f4c5f0edceU, 0xc812d4eccc21e4b5U, 0xe9e4d1d903edeed4U, 0xe7e100b5e21b02f4U,
  0xe5190015cee51c29U, 0x160920f9001e23beU, 0x2cfd0e0e2d181a18U, 0x17f6ecf90e10d830U,
  0xfcd3eaffdae91cfaU, 0xc1c0914fd2d01c5U, 0x18f402de192412feU, 0x1902f0d118f4d81cU,
  0xe2e8ecd6dee2fed8U, 0xdb01e2f8fbefd5cbU, 0xced90ac8e2d9ecc9U, 0xf4cbd8e5f8f9fbf6U,
  0xe4f509f681baf616U, 0xb0f1919131000c5U, 0xf2fb28f3300421e9U, 0x21fbf0090c15ea25U,
  0xd8dbd1dddac8f7fcU, 0xf105daf11727fbcaU, 0xf806e8df2ae910e5U, 0xa11ebdce2ff09efU,
  0xcbecafeff90a07e3U, 0xc1fcc3d2edd1c1f6U, 0xddf3f8e2e4dcf6d5U, 0xc7efeed6c2e001bfU,
  0xde18102a0af03a13U, 0xfce41625e333f386U, 0x1702ecebfc32f8f2U, 0x230620d8eb0ab407U,
  0xeebdaef04b90b0bU, 0xc7182200d61610b1U, 0xa3ed5e60c2d0adcU, 0x29fe1ec31133cafdU,
  0x11eacf0cd200e3fbU, 0xccf2e1ffad00bc9dU, 0xf316c614cbf2ffcfU, 0xdcc9d9d0e303bf25U,
  0xfd1b10fbeacb3300U, 0xfe0708f0dd211a81U, 0x27fd2232ef0d3408U, 0x262903f20310b702U,
  0xfbdcdbe2e6a81e18U, 0xf1f329fefe05fdc9U, 0xe019ebe301fd0df1U, 0x2be2e2fcf008b209U,
  0x3d2dfe9e8ba11d9U, 0xcf22f8fed2fbdde1U, 0xece113eed2f613dcU, 0xaeedac5f5d5bdfcU,
  0x21f9051aabdaf4f9U, 0xfcf43726fe382aafU, 0xb2c1525252533f4U, 0x11f4f9f22304c80dU,
  0xf9fbe6d5dce81110U, 0xe21c2af2defeefecU, 0x1303f5f11a2af2dcU, 0xfbed16bffb2ed629U,
  0x1408c9e926fe0d16U, 0xca1bd0cfd9f6d3eaU, 0xfbe20a05f20ad40cU, 0xd2d9f8ea0219f310U,
  0x14e1c53dfbfe5dd8U, 0xaa29d30ecf2ccea9U, 0xd34acdd598dc1002U, 0xf4e6389c16582b15U,
  0x31052959a4301f03U, 0xf32827e4f7f7cc89U, 0xea37d51face4be35U, 0x1de82bd6e85531f8U,
  0x53113647cc3825ccU, 0xd3e5da151399d5cfU, 0xfde9e82611afed42U, 0x2df516f10b077f26U,
  0x27db3a3bc5d0d9a8U, 0x2e061437f4bbf9e8U, 0xe0ebc0ec29d0d82fU, 0x3cfb1e2534241114U,
  0x47071325e0d9c5beU, 0xf714da180ee31d2bU, 0xe1c6f8073c08d845U, 0x39f1f34c13d6011fU,
  0x31d8ed0e2ecba7d8U, 0x4927ee1c03caf11bU, 0x11c0e51c1a061bf1U, 0xf32e0329f5f6001aU,
  0xd2f109abdec8c51cU, 0x41d6f4137ec1f240U, 0x30cc351e44f032f1U, 0xfbf8cd16eea285dfU,
  0xacf413abfd8ad031U, 0x1aff031143f40228U, 0xfbf4ffd71732e001U, 0xd007e304f8d28aecU,
  0xc5f110dafe98222eU, 0xe7dfbef06dfeea45U, 0x10627ca2af6dca3U, 0xc5d0c0f51faade97U,
  0x48383d26f33fd6e3U, 0x26f31f46b2e4c8daU, 0x3fabf32b907d3f7U, 0x291d182d24d10621U,
  0xea11f710f715ea04U, 0x4ff425cf92ddd09bU, 0x30013307ce103217U, 0x2d0f055135f1ab2cU,
  0xd4123718bac0eee3U, 0x4cf9160cf5b51902U, 0xe7c001402cfbcd21U, 0xfd0c1b5929b3c125U,
  0xc9cff8f7bbc1fd06U, 0x450616cfc6ce14ddU, 0xdfa119ded316350aU, 0xd017fe513cd0bf00U,
  0xd7d6d4e5f2f913d5U, 0xe5f1d4d2360321aaU, 0x28cf2925cd120de9U, 0xce2ef4241eecb3d7U,
  0xeb19eef422fb3e07U, 0xc6f21206f3f92b13U, 0xf1f2f9e5e4def923U, 0x11350d270005e1feU,
  0xecf1cbb6ce2742d9U, 0x607d417016303a6U, 0xe929fff7ec39dcc0U, 0xff713daf4048106U,
  0xbc0421e926ac5eabU, 0xb8dcf1eec63631ccU, 0xd604f8e4b2df10f0U, 0xd03d0af80fe5dbb7U,
  0xe42ffd4875e7fe9cU, 0xe4fec7198aed12bcU, 0xbc3f30f0a8f608f8U, 0xdf11540f44c5cfcU,
  0xe01e090323fd27fcU, 0xdfaec07ac26f4ecU, 0xfe618f0de0d09efU, 0xf01c010cfe02e1e5U,
  0xecf70cd61ebb2e02U, 0x2ed1605d2fffab1U, 0xb11150ae61f1ff1U, 0x2317f1ee1d12b80dU,
  0xfcf1def7d1d41f03U, 0xce50d0010f4fdf1U, 0x16010fecfdee2aeaU, 0xdf01ecefde24fb12U,
  0xb803f6ea2cf019bcU, 0x1411ebf9c40c1407U, 0x7f3e403c7fc14f0U, 0xe1cecf7f7e19edbU,
  0x519e31a17811cefU, 0xd6fbf2eaab2c15d3U, 0x13503e9c90b0611U, 0x141e10c7ec2bea09U,
  0x12e6ea1ce6d009dbU, 0xe0f8eb1dd6f306c8U, 0xe11eeefbcb1013f8U, 0xfbfb25b0fb2a0412U,
  0xc8132108650fecf9U, 0xf3ffdbe1f4ebe719U, 0xf7f70df1efe8fae2U, 0xe3090b21e8eec3d5U,
  0xfc14e60f42891cd7U, 0xf61202e1cc24fe28U, 0xf71709e4c2e9f00bU, 0x1d241101180d1afcU,
  0xaf2d81b43d112b9U, 0xd1110711e41ded25U, 0xdf1ee624dbe9141bU, 0x30f9fc0a22042e08U,
  0xde18212ebe17ece2U, 0xf32b1c0db6ff2981U, 0xf913dcd9cfd7d826U, 0x91104192902f007U,
  0x1e074308e033e608U, 0xea091dffde0f05bbU, 0xed1fd25c72bf6faU, 0x1ddddc4314e8c70bU,
  0xffde0ff908d6ab26U, 0x36dc090cd5cc1e1dU, 0xe2b2f3151a2de522U, 0xf7120340e9b69f0cU,
  0xf50e24f1c713d2fbU, 0xf2e02719d7c329dbU, 0x2dc024f3283708f2U, 0xd4eae507fcc6b720U,
  0xb50e08e2da230aecU, 0x2f0234fad5e82bc9U, 0x381d182b1833ffdfU, 0xdaf20439f8faafecU,
  0xc21fc7c202e60eeeU, 0xe32821ebe601efc7U, 0x36311ddf101c03d6U, 0xf1e512f4e3efcd1cU,
  0xfefdf70a1d1008f6U, 0xe6dcf50af417eabeU, 0xe82b250bce31e8feU, 0x15f9e91206cf8e00U,
  0x111dfa0d10f655d3U, 0xe11d1911c50108abU, 0x1e0cf908f5d60bfeU, 0xe32413d6fa0db22bU,
  0x411d021b9e53ab6U, 0xee2cde199904d8c6U, 0xea44c8e1da1e0ae9U, 0x3afb28d70a1014eeU,
  0x1f21efe993f30694U, 0x1edd908c5bf3081U, 0xfeed426a1be2a2aU, 0x2cdf11f0d3dbecf7U,
  0xd625e10cf120d3ceU, 0x7ed0118d3d1dcccU, 0xea10e61efb1213f8U, 0xf237e3023ae5d9e3U,
  0xec25ecbfbfe4c90cU, 0x3f0202e4f0b7f6d3U, 0xdeda2510030a01e5U, 0x2c2f0a2201eb0cd3U,
  0xe906f1ec95c509d2U, 0x312534e603b028daU, 0xf0feeef6b3e72627U, 0x221611dfd6f4c602U,
  0xc73af50baff30823U, 0x191937e1b9092c93U, 0x10f6dedce5ddfcd6U, 0x23009e833c5a0f7U,
  0x12f39c7c80ae2e0U, 0x1b212b02d7c72cbdU, 0x32d31f07f41b3700U, 0x409fb2beebe9e06U,
  0x1bd9f9d4c81b2dd9U, 0xd530fd2ff80adaa4U, 0xdf91825d715eef2U, 0x2e23f01bfbefe21aU,
  0xec232feed114db21U, 0xd9d3101bd0f3fbdcU, 0x182a0f0ebce61e00U, 0xd826f30227c8bf04U,
  0xd033e41ec9ba22e9U, 0x27df0f09c3edfe9bU, 0x243616fee12823deU, 0xdc16e3f51c12b814U,
  0x14020a09fa46f1c2U, 0x215e9eedceaf8c1U, 0xd008daf4bc01f9e5U, 0xc8f30cfbf9dd10c4U,
  0xde1911e6001ce300U, 0xfbe00001a7daf481U, 0xd7c1061df8080111U, 0xf7e2f30ffbd4e4faU,
  0xbdf50bdad311c52cU, 0x3b1029070dfd2408U, 0x5f026f930100b20U, 0xe311da09f2e9d5e8U,
  0x1a1b27dcf836c4daU, 0xe010e25c4bcf9a9U, 0xf7e3f823c613eb0cU, 0xf6ef0c1eece90714U,
  0xd61612c4c624f11cU, 0x19e022fdb6da1b9bU, 0x29c31b06ff1d06f6U, 0x801ea1cfed0c2faU,
  0xe70eded1c5d5f124U, 0x19061cd6230e1ceaU, 0x20d07f3070905f9U, 0xd4fee001faebdb12U,
  0xe7fb1fdef5160816U, 0x1b001121c2ed16b2U, 0x10120a0cf52a1220U, 0xce1132f08ceb601U,
  0xd5110803f02412f2U, 0xf1b12ecda2203bfU, 0x42506e40519280bU, 0xf0f0fffa09decc2aU,
  0xe40bda29d1b324dcU, 0xc5e1ee1615ffdfe0U, 0xe5230ad8f3f31ce2U, 0x19e107c6f7010f1fU,
  0x27fa0f0cd8d1ddfcU, 0xf71edff705042421U, 0x18de1cfb353139e7U, 0x321301122023280dU,
  0xfbece714cdc203fcU, 0xf103130742ea3625U, 0xf4def0040509f515U, 0x2101fa280e0d3518U,
  0xee0134ebcde3d010U, 0x4502fd2b33d10901U, 0xe9bf053324141728U, 0x109400bfe122aU,
  0xaf1ff0d704dae227U, 0x21fde9d65002222fU, 0xf1da1dd2141b1fa6U, 0x1f6c234e1c0fac9U,
  0xbae007e31ca8df37U, 0xf0b07f93d073423U, 0xe7b73cd0123611e8U, 0x1908f530e9c5e9dbU,
  0x2fac3d6e781ec48U, 0xf7ff02d008e43012U, 0x6dd19ca520c24eaU, 0xdcfee522ebb3e812U,
  0xb7e60dd730d9b1f3U, 0xdfe2beba09a00b35U, 0xf6a2e90515f4c0d0U, 0xd9aea8feeabff8c2U,
  0xbdd2c893028fc615U, 0xe1e0c5df37b2f330U, 0xe3c8f7be2e1402e3U, 0x9d02c3e8e4a3ddc1U,
  0xdad3e1add6db091eU, 0xedf6c2fb3de2d413U, 0xf8dbf8cc3704dfb0U, 0xc5f9d9dcd6f306e3U,
  0xdb0af810e28e09eeU, 0x25da110fe060f80aU, 0x3e100016161a03d6U, 0x6180c2df6e5d4e3U,
  0x221b9ad2edf12202U, 0xaa2bde36ee1b2804U, 0x2e35ecdac951020aU, 0x2fe207c3e2f2063eU,
  0x9070af4204afe01U, 0xc6f5d60f12f10ca8U, 0xdc0207f9a90904ccU, 0xdcfd0fd4f6e725f6U,
  0xc5221049d39a41baU, 0xc9e3d5cff82afa0fU, 0x27dded009c160c17U, 0xfb3721e1d6fa16f1U,
  0xf1dff01681022998U, 0xd123e3389a16d69aU, 0xcc33dedb9ff2d5c1U, 0x4f0c24bc1a0b1adeU,
  0x423331e5b8f4c1f7U, 0x23d3351794b12ed9U, 0xf31bd233e3dad00eU, 0xf5f72e3622fe111bU,
  0x1c1634042a00dcdfU, 0xd6d0240034d00e36U, 0xb600dc18c3dad30fU, 0xed24dd1c11ee06f8U,
  0x1037082c94ad18adU, 0x26faebded3c609d0U, 0x2dd5e3eac3021cdeU, 0x22282d46fdf1fbd4U,
  0xf50404d8af89d413U, 0xf120f6d3f9340e45U, 0x8e606ebfdf20ad6U, 0xcaf5ff2d17d0e518U,
  0xf8f4152501f100c3U, 0xe7eaf7e6f5dc1e0eU, 0xf5c9ff26e81e1df5U, 0xffb12e70910e6d7U,
  0x2125e50281cfdcd3U, 0xf6e016efe22827d6U, 0x6271aebc1dc14edU, 0xed25ff091b22df15U,
  0xe9160d06e5dfc6e8U, 0x2a22eb31bff424f6U, 0xee19f0f9aedc110aU, 0x10f0071105f2b7d3U,
  0xf72e1102e6deebecU, 0x3616230223e409e5U, 0xfdfa1a1bf212e309U, 0xc40ad82ae6f7d30eU,
  0xea0d143194c1240bU, 0xe4141b15fbd1edecU, 0x14e6330ec7f0fcd7U, 0x4310208e410ae18U,
  0xb2d2f09cac8edf9U, 0xe4192a250edb1704U, 0xf7051117c1cf1a18U, 0x27f2dff42ef7ffc2U,
  0xe92409fa09f9f3f0U, 0x51c0a0ef1171edcU, 0xaedf405df09db19U, 0xef25f7101ffdede8U,
  0xe00d0032ffa50417U, 0x8260113c0deeb01U, 0xfd9051ef503ded2U, 0xdc2527312813cdddU,
  0xc627f7eb10c8d3ceU, 0x1814f021de0309c9U, 0x5e8e5ffd50ed9f5U, 0xeef5e328fee0fd12U,
  0xe016dd2334f322f0U, 0xd6fc02decb1e12f2U, 0x2303f019ec0af1c4U, 0xf0280e0fea01aa0eU,
  0xd3e516cd48f73e19U, 0xf9f935ddb25510e0U, 0x62316e2e5f42215U, 0x1bebe2d7190fcc02U,
  0xe9e5fe17e5971b35U, 0xdffc05e4ba42f7c5U, 0xfa1eff12e23634f6U, 0x1a191bc6070ee029U,
  0xace6cc014207f9b1U, 0xd3eabaebd5f4fd1eU, 0xfdf7f01cd2f206d2U, 0x220ff01e4ccb9a8U,
  0xfffd023927ce72eaU, 0xe809fbdec74fdcdfU, 0xa09ed05a6eb0fdfU, 0xf82629f3d8ddcf29U,
  0x27cebb2026ba57f7U, 0xdc1e2df7c941fc81U, 0x1b50fff6b22318e6U, 0x221c07e01f0cf13cU,
  0xd1e0ed0f693dd8f7U, 0x7fdb8f70f04ec32U, 0xe4ecd812c9d8bdeaU, 0xbed4f9fe10d6cfa8U,
  0xdaf0010c21f42db7U, 0x10e7f4e9c617ef0cU, 0x3708f10af92114deU, 0xdcf2280102c9c3efU,
  0x1ce3070930a434c9U, 0xe8e31114d545ff06U, 0x1748f6f3da2915fbU, 0x321f31cf0c3df005U,
  0x9e511f141090ae3U, 0xec1f1223ca1d0bfaU, 0x1803e5f6f9fd1d1cU, 0xf81117ee0120c009U,
  0x2c17fee9cfbcf316U, 0xfff21ef4bc04e1f4U, 0x73107e6de282313U, 0xf30cfef6def3d02dU,
  0x2f2bd01f10214ddU, 0xd7eaf4f6d61fe4baU, 0xd317fc0fdde6efe8U, 0x1601e0c0df00f4f9U,
  0xd0f4eb1c2ed232e8U, 0xe807e30694f7eedbU, 0xfa17ded60bf2faU, 0x827130421dfb703U,
  0x3205c51e00950ecdU, 0xcdeb27fdb034f0baU, 0x1e231018ce0014f5U, 0xbf11ff9fc16c70cU,
  0x33f7d90ff4e8f0d6U, 0xebfd0b04ce04f6eeU, 0xcffdcf21a6d40a04U, 0xe71126d6f723f817U,
  0xc9201e1b7fd112caU, 0xef1ee1fcb1182531U, 0x18e7e306cdfd0c01U, 0xe71f0303e2fadbf2U,
  0xe9e9c7fa1f982bfaU, 0xe3f708edd32a02edU, 0x10b18f7ce211912U, 0xf500f9fefe2d142aU,
  0x1126041408cef9b3U, 0xf811f92faee8f9cdU, 0xf3141601d5f603f8U, 0x1bf30eedf4071f00U,
  0x17db3c09f2b2eb1dU, 0x2e1ff82c0e4f37ecU, 0x343f0bea07231e1bU, 0x1f1fece0f3060406U,
  0x2dcedd27c9fff809U, 0xed0a1207f001cdd4U, 0xf5300ce3fc231a3aU, 0x4a321bdc163d1d4aU,
  0x1ff0c910e1eeece4U, 0xd121011a1004c0ddU, 0xcad60be72a08ec04U, 0x3bcf22f7dd32ee17U,
  0xc42319c041bf0a20U, 0xf2ef9e83915095fU, 0xdfe5f4f15516ddffU, 0xe0fc9fb14be1318U,
  0xb8d6efe8170a1d04U, 0x25d0d2dc27f824f2U, 0x1a1cfdb91948e20aU, 0xf5210cca1af9e2daU,
  0xaae1b4ca0abddd15U, 0xc4fab4ea0203d604U, 0xda2fcbea3f1c26c8U, 0xae1ffdbc610b810U,
  0xa1dd01dde0f8bc2dU, 0xc2ebedb42a1df22aU, 0xe7e4e7df13edc8ebU, 0x8e1ca09d0c018e5U,
  0xb0a0deb8ecab07e5U, 0xdf21ddc347d7d510U, 0xe40503ab2a1e05d1U, 0x1eb0c7a2aae6cbf4U,
  0xfd8187eadff1f70fU, 0xcd05f4c620e2980dU, 0xcec70d8c48d3c5bbU, 0xd991f2dbe7e0e4b0U,
  0xf9dee2f0e203f4c0U, 0xeef8e8daafcdd798U, 0xf40bc6d4c0e6dce9U, 0xead7e6c9e4f124ceU,
  0xedf90414af18e8d4U, 0xf3e7d7ee93c9dd81U, 0xd902e909cceafdeaU, 0xcae406f512082bd8U,
  0x3eef61fdb2df5c4U, 0xb060a18bbcefc94U, 0xdffef003cbe9d31eU, 0x40bee0df90039ddU,
  0x1ef3ee0ee628f8e1U, 0xd7eb02fdf0ceecc8U, 0xf602fb14d8f5e4fcU, 0x116edfb00f7fddaU,
  0xf40318fbe122ed00U, 0x50e1211f7b9eaa3U, 0x8efe81aff0503fcU, 0xf6100e02111c12f4U,
  0xf8212ee4da16cb21U, 0x14eaf6fe04ab23ecU, 0xede32223100f0120U, 0x17ef1b0116f9f5efU,
  0x28f62215ef17ced2U, 0xece9ed0ee5ef05faU, 0xf9e503f3def0ed24U, 0xf0faf720220729dbU,
  0x160a1e02d5f9dd1eU, 0x2809260ce8c20de7U, 0xf7ef1efdeafe14f4U, 0xf1f2002bf115dc0fU,
  0xf4f517f8e8fbe53cU, 0xc1a1f1814072500U, 0xf8e4261d32021411U, 0x1312fb2a1dfaf7e7U,
  0xde19caf8bdf4e7baU, 0xc50fece50beed9b6U, 0xf4f7df02e9e7dcf1U, 0xd101ddbf122a0af2U,
  0x24f9e5f2ef0cbde2U, 0xc1ad40fcee4d6b5U, 0x9f0e723eaf5fee9U, 0xe5d9f4ee1b1b1fefU,
  0xe5eb19c31c4fa1efU, 0x3ef52826d2a329d1U, 0xd3e60a14f0deec16U, 0xdf070d012d0115e5U,
  0x1d17fe06bf171ebeU, 0xf4e3df16c3f8f581U, 0xeb0e0decc2cedfedU, 0xfbff05d9ea1419e5U,
  0xe2820f7d90fafd2U, 0x31f1d03aeb21cd4U, 0x5f6fa2cf2e4d022U, 0x20ec172cebdf13dbU,
  0xbfe7fdd3c3c9d33cU, 0xe2011fefdd71ef0U, 0x21cd220b462ce80eU, 0xe716012bdfcdc503U,
  0xe91edcfd0405f3U, 0xf1203814aedeed87U, 0x17e0f1fee6e91afcU, 0x1e07190af70e0df8U,
  0xfaf209cec1eacffbU, 0x21eb36f4eadc15cdU, 0x29e60e12fa2f24eaU, 0x3201e3614c4ef0bU,
  0xeb19cfd8b3f31dffU, 0xf3df0bfeed2905cdU, 0x140e27030a3529e1U, 0xdaf107e8e0e9d805U,
  0xdac8f4faf51ec3abU, 0xa9e3c1c3e8a0c9bbU, 0xfbbef4d0bdd2ead7U, 0xd9fee7e0e1fc08c4U,
  0xdaef1af52a58c8e4U, 0xf217d903daab09e2U, 0xe6ecf4e3cfdfddd2U, 0xafd6ef1622d6f7faU,
  0x3454cf02051a6deU, 0x21425f7b38f1b88U, 0x25c22a04a1d6e7e3U, 0xfb04214828bc079bU,
  0x14d4e21cde2ad1aeU, 0xfa05d0bde0d7f1acU, 0xfbb8b3d3def4efdeU, 0xa10702c7fa0a1bd3U,
  0xde00fb161d5c90a8U, 0xd4f4cd0fc9d5e5c8U, 0xbce2170fa70afd08U, 0xe2f3dd12f6091ec9U,
  0xcc2e2ab7174bb5dfU, 0x3ff206f7bcb83d8bU, 0x39a51730c915e4fcU, 0xc3e31b2e1be4aaeeU,
  0xf2171524e953e4b8U, 0xb601e3dd859ef581U, 0xf5bae4d5f0e4f6edU, 0xa719df1deef0219cU,
  0xea222600043cc8bcU, 0x31fa0734a7ed018bU, 0xf5d21beee509c522U, 0xdc26180a06d7e2d5U,
  0xf727400dd72b10e2U, 0x3b003531a3230b8cU, 0x430036fa2f260722U, 0xfe0f1b2a1ab7a12fU,
  0xcdcf4ddf2e9c3b7U, 0x816e3f6030fdac7U, 0xf5d2f207dbd1eaf6U, 0xced9c1f1d5e70eedU,
  0xc6e4ecf2bf20d7dbU, 0xdde6ecf9f4e60dcdU, 0xd50d14dff20102e3U, 0xc5d90201da1216d0U,
  0xe61e03f6000fe9d5U, 0x1ce01ef7f9eef4a8U, 0xe91fe500b90a0cefU, 0xd6130018efff36f2U,
  0x2902ff2ea82ef6c3U, 0xd5f5f427dae5e1caU, 0xc63de00013f20324U, 0xf8d7f2b3f62e1defU,
  0x1e16130b96ffe4ffU, 0x17022a35ffbdf381U, 0xf4fef40cce0cd034U, 0x1ce00ad103f41acdU,
  0xf1643e3f0e6c6f3U, 0x4cff1d1de3d81dabU, 0xdcfcec1dfcffea14U, 0x21e24293104e4f8U,
  0x1e1e0135b128f9feU, 0x28f2f73aedae05cbU, 0xc4e9cd151ac507f4U, 0x2bfa14fcff2d2de5U,
  0x1806fcf7a0f990f5U, 0x53fafb2dbbd5f0ccU, 0xdee5eb2f0627e92cU, 0x1dfceb17130deb35U,
  0xfa1e1fbae6e1bd1bU, 0x1b24e2134611f5ffU, 0x6c62afc6c1df7f6U, 0x422ce3a0de7b40cU,
  0xe1fb0642cfff3e2eU, 0x34f44406d6252dd2U, 0x39363417153d4816U, 0x490d4815f541f612U,
  0xd6d6c0ece6092716U, 0x820f130ea4cd4b1U, 0x1c1204db220b28faU, 0x182108a00a3ee145U,
  0xeba394e4e12126d1U, 0x96ded9bdf2fc9da1U, 0xcf11aae7dccddad9U, 0x6c2088bf4fbf8daU,
  0xcf100af0f2e3f52cU, 0x40f8162c1328f2e9U, 0x3efd12073f4642eeU, 0x362ef3e6f421cc32U,
  0xb2f4b4e3e4fa2c2dU, 0x1ebd315f91fd4f0U, 0xd2f5f5e13c1523cbU, 0x22ea1ce8ddfad7ffU,
  0xe6acae1fc91fccd3U, 0xa5fbb8c1dbefccb9U, 0xcdfbda95e9dff5ccU, 0xd5c8ade2c80d1ebbU,
  0xb1f0f0cda9fbf252U, 0xf9130cda513918caU, 0xe4150efe4a2f1cfcU, 0x38e7d3cf10f6bc12U,
  0xd2e2c912d6320b16U, 0xa60fe7b04008bad1U, 0xc6f5e5de1c0bf6b2U, 0xdcecfa9ae9c81ddcU,
  0x11ee990ae251ddd4U, 0x8120b2e2b2aecac4U, 0xc0fed3e1f8adafddU, 0xbd09cbb6dded51daU,
  0x805dff915d8fa07U, 0xeee0fbf8bc2af11dU, 0x921e41df4130d34U, 0xfd0ce8d30324eb26U,
  0xec0508c358cad53bU, 0xf18e8fcefeeff25U, 0xe5ee2c18d1c6dcdeU, 0xc7c8f7330a12fff0U,
  0xac1f40fe7fc3da21U, 0x3aeed313379aeb32U, 0xcdbffd1ee5c6e2daU, 0xd7f7ba3403dcdab0U,
  0x2104d50ef9ac0eb7U, 0xbbfb13efad32dbdcU, 0x1019f220d6093428U, 0x28083df3e71808feU,
  0x4210e8f5039c3111U, 0xbffd11f2e234de07U, 0x723f014d9fa0301U, 0xfa0513ce1c4c0f38U,
  0xf6d929f562bcfe4aU, 0x205fb1928ea173cU, 0xef1208f6c3d3bc1dU, 0xb2c5cc15fee4ac1bU,
  0x132ac91426b72dddU, 0xe00707f2a9260238U, 0x3b031d2398dffcfaU, 0x2537141a281ef61bU,
  0x8fed42ad1be22d9U, 0xc41d2e13882600c0U, 0x1708cb159cd31f27U, 0xa2417f0313d3028U,
  0x39d3e1d724db462dU, 0xde83b1dd741e0feU, 0x41c0ffff5ebf7feU, 0xf0fc2ffdea1df200U,
  0x51ecdade814918eeU, 0xd62a3f39c7a317d7U, 0xd704f11ccbe7f700U, 0xbb30000b1b196af9U,
  0xeb2cd2b12ac8f3U, 0xd6f7220313f623eaU, 0x7df0be219e60028U, 0xef270a151aff2dceU,
  0xbbfffdd0a3b8d4bdU, 0x4b2a1215a3ed2b2aU, 0x2aa80436250d102dU, 0x4ddd44326e8e1ceU,
  0x7d90f1fb91790ebU, 0x3ff445e5f2100189U, 0xda5d8280c24222aU, 0xec26ec41e0e801f0U,
  0xe8dc17c2d2b9bfebU, 0xfe2ff0f4f2c604b8U, 0xf7a50cfd05e4f931U, 0xc0daee3e32aac8faU,
  0xa718f4ebf5fcff1eU, 0x28c9f5fee40226f9U, 0x121234d3da0e13c5U, 0x1c062c31f68de8U,
  0xa7c9d0c9a7d1232cU, 0xe5d32d171f2219ffU, 0x58cc0af93348f416U, 0x2b2ce9190fd0a73eU,
  0xe904fbfabeac0e0dU, 0xf107c5f041042ad4U, 0x19fed8c4f601d617U, 0xe2f41815e127a9e5U,
  0x24c6d90135c939fdU, 0x90225fa011df8e2U, 0xd3071c07df312ec2U, 0xe917f0e8f03516feU,
  0xe6fccfddceb7fb07U, 0x70913ec1a11170eU, 0xeeee2f061b0833f4U, 0x191ae12603dcf118U,
  0xefeeead7d2dee9f1U, 0xe1eed0d60afd15fdU, 0xde52ce41fdeefc0U, 0xf09d3ea15e5dfbcU,
  0xed18fc05e2f409dfU, 0x8e5ee18e9011381U, 0x1824f7f5ff05f0f7U, 0xf6f1fd04e600fdc2U,
  0xde9b91ac5e11adfU, 0xb9070409f70cfaccU, 0x20a07ebd6efe7f7U, 0xda1003ccf83a40faU,
  0x3323ff2cd71f16baU, 0xeaf50624e4e7f9adU, 0xda21d904f0f8d124U, 0x80521d9f3302ff7U,
  0x1226151dd90010d0U, 0x1ce11bfd04d101e0U, 0xf20edb0008e1de27U, 0x15f32602eaf405f4U,
  0xffeb301bd1dbf3bbU, 0xee2082a0ad921e3U, 0xcd0bfdf709e2df1dU, 0x2a141a0a110d2e11U,
  0xfbfa050492b7d222U, 0x260712fcdfdaeee2U, 0x9da202c11ea1c0cU, 0x1b0edc2cfde6e90eU,
  0xe9fef9d9c4cb9c05U, 0x3ae1e9da1d002b25U, 0x26b402fe23f11b0aU, 0xea0e08361cdeda1dU,
  0xeeea0ec66ddffcffU, 0x17e6f0f033ec0426U, 0xeee4230ff4edfbc5U, 0xcbdebe0816a7d9baU,
  0xcf1231f83e0be7f7U, 0xbe9cce72de7ff47U, 0xf4c1fb15e3dcd4f3U, 0xa26ef3bf9b7d2bcU,
  0xe72b282a08df45deU, 0xa181904013f2242U, 0x273e0d26f1f42b07U, 0x2082c17f612060bU,
  0xb8fe15a642c8e70eU, 0xe5ecb5cefbdfd128U, 0xcacc11d7edcbeec1U, 0xc8d7b604d7a4a9c2U,
  0xc6ec1fe248cfaa06U, 0x2fece2cc1ccf1d5fU, 0xc6b20cfff9c2e8c2U, 0xe2d1d32fe9c1c9d3U,
  0xda0e294332d4190dU, 0x1e7c30d19161d31U, 0xfcfa210521faf009U, 0x3321d161205edc5U,
  0xdfefefa737dcdf04U, 0xef0ac8cbf9cae60dU, 0xd1c8c8d5efbec6dfU, 0xb5b8cc0ccad3e0bcU,
  0xddf9e8c74e00e518U, 0xf5e7c6ea0fcc0568U, 0xe5df0cfbd3bcc7a9U, 0xc6ded322dee5b3bbU,
  0xe2040b005ad8fa08U, 0xfbe2c4cc28b4137fU, 0xdfe307f6fec8f7c1U, 0xf2e0d31ce1cfbcccU,
  0x30fd3ffc5f01fdfU, 0xee1219e4a3fed3d3U, 0x73ac7ead3d8dff3U, 0x18fc10dfe3232911U,
  0x803bf3781c42fa4U, 0xe41125dc9405e2a8U, 0xe82ed2da99c1e62fU, 0xdd1402d50d072521U,
  0x31cff3eae3be19e8U, 0xcafeff20a2f7cad5U, 0xe319ddf7c2ccdd0bU, 0xc5dfecaeec0939edU,
  0x4404eb3bdee80ff2U, 0x16fedfdb3913054dU, 0x909f610f512273fU, 0x3c1b25f6e4f3052bU,
  0x4200f23bd4c32090U, 0xee02d1dfc723fd23U, 0xeee5d80ce0f91c26U, 0x2f07381dfc2a4a35U,
  0x1de8e05096fd0592U, 0xbf11e315bd200fc1U, 0xd16c5f2a6cbf23fU, 0x162c18df344b4f3fU,
  0xacfdffc6238ece31U, 0x14ecb8ca77e70266U, 0xe9c829f837f318b8U, 0xfdf0c21c18a0dafaU,
  0xed1ed8f36ab7d305U, 0x17fbf3ef27e10744U, 0x2bd22edf3db04ccU, 0x5150a26e2f5cfb7U,
  0xf214e64505b013beU, 0x1600fff222131b25U, 0x5fb2bebd0e815eaU, 0x40012311070003e3U,
  0xb926f4fbe401d807U, 0x2af6052ac2e8f7b0U, 0x3910300fca0d01e2U, 0x20f80a1a0df5c118U,
  0xedf705e1e9c6d8ddU, 0x1f2b2b02fe16ffa9U, 0xfec23fc1f30f9eeU, 0x17e1f3ee121b81f4U,
  0xac0af7ccdcaeeb13U, 0x23de01ee01c52aecU, 0x22101a2e1b28eeceU, 0x3fae90609da9ff1U,
  0xc2220307dee127faU, 0xf3fdead5b8f71bc1U, 0x101a09ccf62de8b4U, 0x150718e5e4cb8612U,
  0xea1fe917f0cc0f25U, 0xcae3321fcf0d3497U, 0x320e0afed62ffad7U, 0xfc221ce50edfcd09U,
  0xfc0afddcddb0f2f4U, 0xe21ada00eff51a0fU, 0xd82a1403de17e4f8U, 0x222afaffe823e1d3U,
  0xddeaea32011c0db5U, 0xe8eeefcced10e0efU, 0x5eb04cf8ef401e2U, 0xe7eaee0d16fca315U,
  0x1c0cf93fdf8729f2U, 0x10212e0492042cddU, 0x1934f7e8b4e81a0bU, 0xf22921ef07ecfb25U,
  0xf3fbe31be7c11817U, 0xdcfa1615ea2b2cf9U, 0x1c26d302ecf0ece4U, 0xe2f814fb153d3128U,
  0xaf4d418e53c01caU, 0xadf9e3e12803d39dU, 0xed24fedbefe4d9eaU, 0xf0fb0fcaef1a2db2U,
  0xf81e2c24e92b1ff4U, 0xdae71606cecfda9bU, 0xce26d815c0e2d5eeU, 0x506f6e7e22d47a9U,
  0x7f407f1cf36cbdeU, 0x2015f908caabeecfU, 0xd1d8e22020d5fe2aU, 0xeaf125fce91f2fdcU,
  0x22151903b32a11ccU, 0xf112122ca4c9fb86U, 0xba0cfbf7c1bdcb2fU, 0xfef30bd524374ce0U,
  0xd15350dbaf9bcf8U, 0x33010915ddb21ce6U, 0x1bc5e5280ae3d544U, 0x25f61f3717d70dffU,
  0x16e307f3fcdab028U, 0x3715011333b9f933U, 0xe7b122f0201ef41aU, 0xe2f005280df7d419U,
  0x14ef37d1c3f5a7feU, 0x3a0540ecd5b128d0U, 0x15c80b2efe0cfb25U, 0xf07212e1ad1ff1cU,
  0xf01210b6d2e1b71fU, 0x431afc0b44271719U, 0x34cbfa2055400f04U, 0x13f2e402f4eb8147U,
  0xded4e5b7d0d4f93eU, 0x8f6da015e1b03f4U, 0xfdfe34da4c2120efU, 0xd1ecd6ded8f6a9e2U,
  0xf526e7ce56efafa8U, 0xd301e1d2fdc1ff0fU, 0xc1ec111fd1e9d5f9U, 0xa4d7ba0123e2d7aaU,
  0xb31100dc02d918e4U, 0xea2723f9e4260eb6U, 0x13bb1524b70fd3ffU, 0xc111a1b09f1a3baU,
  0x42424cb2b1a1ce0U, 0x3d033529b1f026c1U, 0x46ee08fb0d44f011U, 0xedebf516e1058d06U,
  0xaf2519c60a2ff9c1U, 0xddf503eebbe9e510U, 0xe1a62111a1f1d6c0U, 0xdddfe32ad0e4e2daU,
  0xe93414d0501ecec8U, 0xf7dd09f6e407fae4U, 0x35dfe910a3d8eae7U, 0xe00e3f1edbbaf0dU,
  0xca202b1d4df733c9U, 0x25e0252ebe4d17adU, 0x230edae5b3df2314U, 0xda2f2f1bee1b910cU,
  0xe0fdcfff50f3baf7U, 0xdc2ad2d3f5090818U, 0x16c9f925dbe4f60fU, 0xa9c3e11bcebdafbaU,
  0x2e11fe41f5f6a0U, 0xa12fdf2f51ee6fdU, 0xe9dfd7d99b14d6ffU, 0xe7041502f5b3ddb3U,
  0xf634e8477f0d398bU, 0xe50de5e89933ebd2U, 0xde01ce30a2de1f05U, 0xc0e2deafb03e60cU,
  0xdc2ee1f2f7e6da1cU, 0x2521f32cc001fe9eU, 0x34e4e619e40629faU, 0x2006010722d6a601U,
  0xc0e023d7e700f636U, 0xf3f6191922ee24d0U, 0x12eaf2332cf6f222U, 0xe404e8ede91df2ceU,
  0xfa1fdee985f2ce3cU, 0x1c180311e8f107e2U, 0xfc0830f308082edeU, 0xdee5d81debf802dfU,
  0xed1d141707b222eeU, 0xfe8171aa90ee4b0U, 0x1e32fce3b50d1accU, 0xa1932d92602b3eeU,
  0x5090602ad81e4ddU, 0x8dd01edd8f8ece2U, 0x1ee4fdfcc7f72d16U, 0xc10fc11f921fa29U,
  0x190d1f0c8ce615caU, 0x1ff6e500c021ded8U, 0xfaf8efe209f20addU, 0xf9e00b0ee5262fe4U,
  0x12cfc050bcfe2c4U, 0xe6200414edfae70aU, 0x22fc1101d8d8ff0cU, 0xe106ebe92a16c8cfU,
  0x1e10e1fa20c2f6e2U, 0xcf0d030b02360509U, 0xfa2902f0fd071df9U, 0x3331201532faf118U,
  0xff3fff2fbf02bcbU, 0xe2dd1bebe71d2dfcU, 0x12af418f00f2105U, 0xe032040b2a103514U,
  0xd41a151a3dece1eaU, 0xfc1afac500f904U, 0x16d4e217c1f200ccU, 0x110de252dfe81f0U,
  0xe3e8f4d907d4fe1aU, 0x110f1715bae420cbU, 0x51c0c09ea1bf50aU, 0x323003ae81da52bU,
  0xd10ed8f7cebe1bdfU, 0xeee4dfde0326efbfU, 0x10f4f8251330350cU, 0x18fbdbf515e7c7deU,
  0xd4180715f8eb2edaU, 0x16e4fb04ae220514U, 0x1516d7f7ced9ecf2U, 0x15eaffe6290093faU,
  0xcf2601f4f2f822eeU, 0xe5191bdeb60f24f5U, 0xe91aec17b70226ddU, 0x33e605211021b211U,
  0xfc090e111fc41301U, 0x117ed02b5f731f7U, 0x28381b30b8050202U, 0x332b122a2141f414U,
  0xdbf9e7f617c035f4U, 0x2004fdfa04d6f351U, 0xe40a0debe7eaddd1U, 0x1900002dfef4dd06U,
  0xee28fa1c1eea30b9U, 0xf6e40e07c31f0639U, 0xd8e1f4efc8ffddfdU, 0x1c0b1ceef6270bdcU,
  0x1f2e0a0b2ab209eeU, 0x2af2e606dee10df0U, 0xf4e6dbedcc0c1c02U, 0x71a111decf31ddbU,
  0x260c201b19bef2f6U, 0xded54ee8ab382cd0U, 0xf62fdb2dc81b1201U, 0xf8063eee04ecca50U,
  0x431dc73590dad1fdU, 0x1d00ee03a3dcf1c2U, 0xc14d81ea9e1e222U, 0x6ea121f1f27e23cU,
  0xdaf71efe2545f5cfU, 0x18060720ffc2d6d6U, 0xdcecc510daf21e28U, 0xcae0dc07e4de1713U,
  0x73319dd289b4b10U, 0x25240805871119e4U, 0x18353b1dcf2decc9U, 0x424206d92804c621U,
  0x16d8c5eead92f218U, 0xf5d631f581e727d3U, 0x2924e80fb1ed3123U, 0x12ee11c22226b6f4U,
  0xe2f211016d1501afU, 0xed24f6f0d7e2ead1U, 0x1e02d124acd318f8U, 0xef043a0a1ae906e2U,
  0xce20c7ee53ba47ccU, 0xce1b1120c748fd14U, 0xa11dcd794eafefeU, 0xb3b1c1030fbc51fU,
  0xfee6dcdde28a14e2U, 0xccfee7e2baf4ff85U, 0xc50e6239e221a03U, 0x1a32e016e2200422U,
  0xfe26481f2ee526b2U, 0xfc2a3a0eb4e02fc4U, 0xe6ef054382fb1b26U, 0xf40637ea1e0104e1U,
  0x1529f319fa2fd1dcU, 0xb9f3f1e5dbe5c99bU, 0xd7e9072ce5e70dd7U, 0xcb1fe70af63451c3U,
  0xde2d24f1fb2ad2c2U, 0xed010c1ad0f4238cU, 0xcae4072ade01f820U, 0x19ed1b1102db01b9U,
  0xd60e44ccf0f4b94fU, 0x4fdd1e22cdb23102U, 0x18eee6e1132d100cU, 0xe007d1fd08dfb9fbU,
  0xf3e7ede8e11ea704U, 0xfa1539ef81c5f0b6U, 0xe3f2d82fb0ee1f05U, 0x2405d90d23f4e7f8U,
  0xc1e4ffa8f7ece82aU, 0x2a08130aa0c5dcd8U, 0x21a8e00d2ee104e6U, 0xf61cc53c119fc412U,
  0xb5f6efd4d337e224U, 0xe318e9cc05ee1edcU, 0x3ee2e8d9021f16f6U, 0xde0ed3dedfc4bcf9U,
  0xa81afaf9e51ddd06U, 0x60ff1f5ee05f2a9U, 0x3dd800191f1936d5U, 0xf1725e9ffeda5feU,
  0xb4031514083d311eU, 0xdc1814d4e9082dbbU, 0x143e20f4e43f30efU, 0xeb1ddbf1102ad726U,
  0x905fdfc0e002b0fU, 0xedfa23efcd51dcc7U, 0x13bd609cd2710f5U, 0x14d1f6ede517d611U,
  0xe2ffde548e9e5f3U, 0xed90000a036162aU, 0x122416e2b80c2bd3U, 0xd0c262dfe1adcd6U,
  0x1ddfbbf7d9a407e7U, 0xbfeee5fe9550e2d5U, 0x60d0ce5ad063c22U, 0xec2713ea1c28f52cU,
  0x23e111a8cd4da0U, 0x94eeed20d545e9e8U, 0xe557ccf7c6fe0dfdU, 0x2def27a6db473203U,
  0xc3e3181942900df8U, 0xe0ee08e8f9f1144fU, 0xe7f120e2dc16f3dfU, 0x221de32e0e0ec2ceU,
  0x831134b1da826d6U, 0xc0c14eff100ff39U, 0xd409e5f8a3df0be5U, 0x1322f4162a15e0f1U,
  0x25fff141ba972081U, 0xe71ff40dc50627f8U, 0x410dbf5add42210U, 0x203c1bda1b383210U,
  0xc60ce31a5ad916d6U, 0xf820fd030ee9d832U, 0xf702251fd904f0ddU, 0xdffbf10015d6c8c0U,
  0x1aedf10429abfaf9U, 0xf5dee3d819f42f74U, 0xc91b2719bffceef6U, 0x17fce5fdfe1e0dd1U,
  0x1afbec143ab1e3eaU, 0xf0e709e402b7191cU, 0xff62430ebff0fd8U, 0x25f9091715e426d7U,
  0x6e516f5f7dd1eebU, 0x6eafbe7f33bf1ebU, 0x7f11fed1d2225U, 0xe6f90cdde9f4e527U,
  0x6dc02d558e50331U, 0xf3142605f6d8e511U, 0xe2051d1cdc09f712U, 0xf8e911eefadfffU,
  0xea1100c8740abf4bU, 0x1e1cf3172da4075aU, 0xcfdb17060ce7ddd0U, 0xc3d8063a05e8bdb7U,
  0x1415ef22f3c13fc9U, 0xd607090bbf2722eaU, 0x1f2408e0b315fc09U, 0xfc1208de0d31fe04U,
  0x3e08c519fad935deU, 0xb3f7252bb72b09faU, 0xa21ef06d2ed07feU, 0xf6192ec9f9250bf8U,
  0xae416e029e0041dU, 0x150d3204dfc2e23bU, 0x11b0ffec9ccf9f4U, 0xd7e2ed05e9fecef4U,
  0xf40fdc0333a01d95U, 0xf508dfdfe2f0017fU, 0x1811ed09bdf0f9dfU, 0xfe1b1d1d01fef7edU,
  0x2327e21afedb20d8U, 0xf20f0300a43c02f1U, 0x1b02f513d6e21d2bU, 0x41021fe414f3281dU,
  0xe16dd15f6cb170aU, 0xfafc250fdc1f19efU, 0x3bfae6eefe1af109U, 0x61017dc162dfa13U,
  0xa7d9e1d2dbdcd3ccU, 0xeeefeb10a1193c0fU, 0x30cb37d702e0c8e4U, 0xc2a03fd30d08fbaU,
  0xbcff0411cb3d3a0bU, 0x1741fdd9a637cac4U, 0x17e04d3c18343c32U, 0xff014dee633b33eU,
  0x1a0915353831e73fU, 0xdec3090eede5d0a4U, 0xcebf2b0b0a2e1018U, 0x140d02234f10cdedU,
  0xfd9c700b9cb01a2U, 0x17c81d21950439b0U, 0x37e4b8c7b4ca1a19U, 0xd4d7edd7bbcaeae2U,
  0x11ccf41ff12747d9U, 0xe52420438133fae2U, 0x39dc1d3309f31b1aU, 0xc6d734adee2dce23U,
  0xf616340502bdaf04U, 0x39c23f39c89c38d7U, 0x51632fceec7f9a7U, 0x12a0c59d72afe17U,
  0xe506e4cd8ef5bff7U, 0x1eda2cf4a3c32ca8U, 0xfe1522301638c2eaU, 0x2be41132e8bbd6ebU,
  0xb01e3d31d6dc1aafU, 0x40f93d1e9df004ecU, 0xf51601e5ccd3f52cU, 0xc12cb2b032e26e9U,
  0xa40fd4e9e31ec208U, 0x301146deafe939a8U, 0x4b050030f90b0ed6U, 0x28e1db12fae8bad3U,
  0xf62302d539c2db49U, 0x201bfd130eedf35cU, 0xdae313fef4dacedbU, 0xfcc0d00810f0f4f9U,
  0xe22422e539a8a603U, 0x3a10f5e12f81e527U, 0xccaf25dfeee9cbefU, 0xcff4133bd6e88e04U,
  0xd3face3f00b02cc5U, 0x1efdbe6db2501ffU, 0xe7ea06dcd6d4ff18U, 0x4830422514eb0021U,
  0x500c1c064ace3f13U, 0x8fe0b0bd242efecU, 0xef38f72ecc05e305U, 0xfbec2a18174103fdU,
  0x311a2fde3587d837U, 0x21ebfe1117c7e72aU, 0xf0f1fb1af9e408faU, 0xdcfbd11f0606e10aU,
  0xdd2b342940a0b139U, 0xd23bfec36892860U, 0xe8c6fe100eb7cdf1U, 0xc5f6ee12d1d7eac6U,
  0x605b812f9c05ee2U, 0xb9f62527a9490dafU, 0x1c13c7d2eb220313U, 0x43333cc01a01372eU,
  0x46cce8ea0fc6fae1U, 0xc6084a0fbf39fbe0U, 0xef4f0ef9a7f7362fU, 0xff633ca1b5d0b24U,
  0x1406f7e73201c750U, 0xea10282c10a2f546U, 0xe912fe19bfadd8edU, 0xd9f6cee9defad50aU,
  0xacedb0dfa38dd2eU, 0xfeed550bc34d0be8U, 0xc14eff5ed064afcU, 0x40fbe2dd0f1ed062U,
  0xf5ef17c86134eec2U, 0xfdf9a9d4fafef1caU, 0xcfc2f3f9e7f0f6adU, 0xf2cee011e4f7cfdeU,
  0xde3f1a0c0d07eddaU, 0x4828111392fc2ba9U, 0x2ec5043bc932d800U, 0xd32b2121f4cfccacU,
  0xbc7b3fa0515e8f2U, 0xd3003a311557d0e9U, 0x62d34e7e44a42c8U, 0x1a2521e4f534c557U,
  0xdd1befe62d3aa8b3U, 0xe205a4d1c4f6f1b0U, 0xbe96ebf9edbe97e5U, 0xe10bb74705bb07b9U,
  0xc11f31fb1435fab4U, 0x420434108ffb3fb4U, 0x52b7f1efd6f8f10fU, 0xc501211a1bcde0deU,
  0xddf2efe63b193b2dU, 0x81f8f8273160c6c4U, 0xab4002fa1b030ce9U, 0x2edff0cb173402eaU,
  0x1020df65a26b69dU, 0xdfeee3d38ece0dcfU, 0xe1a1cef1bcc69f0bU, 0xd7fbe913f9a502acU,
  0xd115f736500d1fe8U, 0xfd1437ffa34f26bfU, 0x3ae9e23ac30ef701U, 0xf333060ff2fcf5daU,
  0xebddff1fc80f0edaU, 0xe9f91313e30a0ad8U, 0xff26e408fae01cfeU, 0xf0f4f6cf132118e0U,
  0x1ee51920bb1ce1f5U, 0xd603dbe8dac50681U, 0x3fef507defd12fdU, 0xecf317fef0fb1ae5U,
  0xff0203de1328c4e4U, 0x21ec1722dbdb19aaU, 0xe5ca0c00ebf4e5f1U, 0xe7e1101cf4f6fee1U,
  0x1906110bda24eccfU, 0xd70f02fae1d2e8ccU, 0xeffdf0f9d1e1171cU, 0x11040bee01290bebU,
  0xeb1814fee704c30bU, 0xf90af103e5c70ecbU, 0xefeafc11f2fe0a02U, 0x20001bf318e412e6U,
  0xdd1516dadaf3b42fU, 0x20020ffcd9e51df4U, 0x15bd1b2525f1eae6U, 0x10e5f91d1bc6c5fdU,
  0x1d1a1defc8ed02e7U, 0xf6eaffffc1d608beU, 0xf070b10010a0423U, 0x2611131d23ea03f2U,
  0x9150dffdbe3e603U, 0x21ff14f7d0d41ac0U, 0x19f5f2151eecf4f4U, 0x8f20a2703e7fcf7U,
  0x20a0efeb8b60bf0U, 0x1111f7f7160f18d0U, 0x131d0d1b231ffc19U, 0xde17ed140601ed02U,
  0xe0f524c907cc22d7U, 0xda162f2bca18fbffU, 0x2c07f507c2ef0400U, 0xc90d120afedf00e8U,
  0xd62e1923dafd06e0U, 0xc60cf01ee1e4f19fU, 0x210d08e1061bf618U, 0x1f2930c5182af40dU,
  0xe7271b16e23eefebU, 0x8070515e8e007d5U, 0xef1cf002b3c80401U, 0x1701f228de2d3d04U,
  0xe1e8e242b4ec029bU, 0x13f30e28f630310dU, 0xd52803e5e9d32202U, 0x14de15e51513192dU,
  0x3335f82581bd23bbU, 0x213fb2fb41c05ceU, 0xd0f2f837c8ce3012U, 0x20526e7ea2617f1U,
  0xedf715e7ffddc7e8U, 0xf4fbe62b00c41ddeU, 0xde10ff24f3cf2efdU, 0x192ef4223909eaf0U,
  0xa0cf727efdff11dU, 0xff1025e62bcd31f3U, 0xd7bcf0d711f2f5e7U, 0x240b002a1d0dd1e4U,
  0x23001fcff095ecfcU, 0x2af816fc12dcde09U, 0x5c102f722de26d7U, 0x29efe81705c4d7d5U,
  0xe2fdecd8f0b6d1faU, 0x1112ee05f8b627f7U, 0xe0162637e9e6fc0dU, 0xe424f512e90ccceeU,
  0x271f0aeebd2de8d9U, 0x1aed34e1d09fe0d8U, 0xe3e4dbffd6c6c51fU, 0xf0ffd9110f154828U,
  0x332a2ed1c0f8c107U, 0xbde1529e6ae1ae1U, 0x1ff5142f130e1902U, 0xf02bfe2f0ae0e80dU,
  0xe100f1f4dec29be3U, 0x1d14d512d2c8220eU, 0xe0c81010d914dc1cU, 0xeae4f22723f5b819U,
  0x1ad42707c729a31cU, 0x2d0c1221181412b5U, 0xfcb8deed3d0e2022U, 0x1e02d81810c6f9fdU,
  0xcaf0fac9a6c2acdfU, 0xebd811fb0b1ee9cdU, 0x5d325f1000adecdU, 0x18220d0703cce7f2U,
  0xaa041ff715b704fdU, 0x20e3e31715fefb1eU, 0xefec2efd2a1d07e4U, 0xe200ff22ebdeca18U,
  0xc0290ddad7b5222dU, 0x19e40cf9f707fe15U, 0x51934de2f0fe9f0U, 0x25e50d1fed059617U,
  0xbfe80f08f281f23cU, 0xf4e3152a1013f609U, 0xd7f02cf31734f604U, 0x18f6c9f301e8b5faU,
  0xc0bcad3fdb7132cU, 0xe4fffcf4bd12e9U, 0x1ff2f1d18d3fafbU, 0xe4fed2f6d0c4cbc8U,
  0xfae434f0ff33f0deU, 0xdd1b0514bcffd781U, 0xbd10061bdb0ae206U, 0xf01218f7f0f7ffdfU,
  0x20136f4d31ace11U, 0x3b141ce6b9b0e5caU, 0x16d6f4f4d3e9e833U, 0xd212e50328dde0d7U,
  0xb7fd22be99bdb224U, 0x6ef1b0011d325f4U, 0x1cb25223d180ce2U, 0xdf020831dfc1b504U,
  0xd9fa1a0401e7c102U, 0xbfb1c0bb61023c1U, 0x24d2faeff7dd070aU, 0xbe9de2c02f2c116U,
  0x52018f9a5e61418U, 0xf923f40501e300dcU, 0x34eb140914eeeef2U, 0xd91d17290015c8e6U,
  0xf7e8c203e8f51116U, 0xe311f1dc24f10f0bU, 0x112a2b15e30326fbU, 0x12e6e1eb12120305U,
  0x1d0d02f6efb9f3ccU, 0xfaf9f51a0a121603U, 0x82a15fefe26f8e6U, 0xf7190d13ed23fd12U,
  0xa200f0cc2c827e3U, 0x6e9eee3ae05ebbfU, 0x82b0ae8b318fc13U, 0xea0111e31237d8ecU,
  0x150e0c06cef706e0U, 0xb9f21929c420e6e3U, 0xe930eb01c0d5161eU, 0x9e815ef1c381ee7U,
  0xe02015db2e4de1c1U, 0xdef4e312c3b8e181U, 0xfdd7e20bebf4d909U, 0xf1eb002303f327f7U,
  0xcfee31e5ea25cd0dU, 0x330a09ffdaf20acbU, 0xfbdeec21f3051709U, 0xf107e80d18b3def3U,
  0xd0f4f0dfc3c4f029U, 0x417f3eb26ee15f8U, 0x13ed2ce4381804f1U, 0xebebdbfc03ef9a26U,
  0xea0220dc1c2ae601U, 0x28f6130db7e71cb5U, 0xfeeaf010dbf0f10aU, 0xe1f9132c20b2bc0eU,
  0xdaec0acca9d0f71aU, 0x805ffeee6280b95U, 0x1ffc08fa0615fcecU, 0xedf81c1bfccc8f0eU,
  0xc6e4ccf0dfd6fb1fU, 0xe2f8ef0dfe3c00c8U, 0xb2df304ff1823cdU, 0x2e60fbd0123ea25U,
  0xf51d29d413302b00U, 0x161afbe4db0314c7U, 0x120a0f09f50815feU, 0x10e0a1a09e18915U,
  0xcf6f2f8ddcc29fdU, 0xf01b19f9d83408cdU, 0xf60bf617e9260aebU, 0xf61b0bc3df34fb2cU,
  0xf3e2ee1cfcda10e5U, 0xad151c05ce19f8ccU, 0xcb32d603b9f70bfbU, 0x22e4f3ace7134aecU,
  0x12ddf5feede613d0U, 0xd71ff6f5a6e6b4b6U, 0xbd0da5098ea6d820U, 0xe1badc8fe7223003U,
  0x35c6defffbc705bfU, 0xe3feebd9d0dbc5ffU, 0xe3fcda008fa4b420U, 0xcbea0bcfc7f608d8U,
  0xff01ed03ebc124d2U, 0xe11002d3f3e8b3eeU, 0xe0f4dbe403c3d71aU, 0xd8eddad7c5dffaddU,
  0x44241c1fe0e4fcd3U, 0xcadd2d18d2ec01eeU, 0xf40bcf08b8effa4aU, 0xe1e233f525163efaU,
  0x43fe102092c4fbf9U, 0xec22072ade1ffbc3U, 0x212ccc25d9de0b4dU, 0xf824110c10173808U,
  0x37e5cf1b81cf57baU, 0xc1e71c08e726f4b9U, 0xf811afdbd8ef2229U, 0xdee60ae8cf172132U,
  0x25f91212f7d5eae7U, 0x31edc094002ee4eU, 0xefdeedfa441b2b31U, 0x402708160913fa2dU,
  0x27e8f1000aec0e08U, 0x24f2f620081afb48U, 0x119dbf123fe060eU, 0x61408f6f6feed0fU,
  0x28080525e6ba26c6U, 0xcefef102ef3cf0c4U, 0xb2fed0eebed1238U, 0x636032c35f93bU,
  0xd22fdd1ff412b6b9U, 0xaf1cdde1dceaf889U, 0xc0f008dcc2a7b100U, 0xf81f2919e6241b01U,
  0xf1edf0cd2028d5a3U, 0x29e638e99dd03ac1U, 0x3e7ee10d12be2e6U, 0x2cde1f5c22ede9d2U,
  0xf53de7f7cb059841U, 0x133308ddcc1f47f1U, 0x5c9eb3928de29d7U, 0xbb1628561bdc91c6U,
  0xc13b2fafcf3081b5U, 0x1dc42e3adaabc4d8U, 0xeee0ff36f308c6f3U, 0xcdded0191bae89e6U,
  0xad1e4215f2d711dbU, 0xf701400aacb416ceU, 0x361403fcfc201ee1U, 0xd0fdc53de810ac07U,
  0xb5cfe0e8e6fd0cdaU, 0xcaebfd31ca032da8U, 0xebe5f02d140d1d04U, 0x22f219b3c7d6a72cU,
  0xc60efdb7e13244c1U, 0x36d9dee30326d6d9U, 0x51b1421090000d5U, 0xe0e5f8f20014bffdU,
  0xd3d42ee8efbe5af7U, 0xd72a17e2d5e726adU, 0x524dc3fc50305c2U, 0xf72b1edaf9c8c60dU,
  0x1125c943b8bf42cdU, 0x25ca1e18cc2833ecU, 0x1e5322248bc73424U, 0x27352adc39e617fcU,
  0x1b12ec40fc9b05d0U, 0x15eac9040c33ec05U, 0xf4dafff5ec2a04e9U, 0x2a2a0f1df4dc0634U,
  0x33e1d7feefb904e8U, 0xf1f20b2df0f30923U, 0xd23116e2de0d0030U, 0xfe3a392c07fdf31fU,
  0x142e2908ecd3ca0eU, 0x11292411e3cbf5f7U, 0xdb13de23170506fdU, 0x2af8e52b222d170aU,
  0xf921ccdf10bcb83eU, 0x4d5c8c01af5274bU, 0xb9e35f8fc1e15c6U, 0xf81ee309f8c8d3ceU,
  0xc52ad8d0fd8af42dU, 0x2afcd71144b90f42U, 0x15b004d71de40eecU, 0xf0160c27edf104ceU,
  0xdaf4f1fd3fb5c61eU, 0x25270af046dcee32U, 0x16de25e40b1efccaU, 0x518111dd403d8U,
  0xdddcd2cc15a1f3feU, 0xf403afddfce7dd27U, 0xd4d119dd29ebc1b3U, 0xc6e4ab0df2b2b481U,
  0xc2c907be0fc5a7fcU, 0x5e5f6f039c8f342U, 0xd08f1be73cd001b6U, 0xd3d6c511cdc5f290U,
  0xd0d2b0c4f39dc821U, 0x1d0aeb073ad71436U, 0xf49e160208cafe96U, 0xe8cab2fdceefdeb8U,
  0x2209f90aacf022e4U, 0xd8160bdbda3102a7U, 0xf4290d16b00dfee4U, 0xc14e3d406263cffU,
  0xf4e411fb9de02aa5U, 0xbe0c0616bb01f181U, 0xe610fa19bccaf427U, 0xea051fafe5435b07U,
  0x1aefe8f8d95610e7U, 0xd216081cb2b7ebc6U, 0xe2eedefbccc60734U, 0xfe113efe323550dU,
  0x2ff50339d2b8f3e9U, 0xd7ed0ee7eaeceeceU, 0x6ffe3dddadbfc1eU, 0x1e071bfb03192348U,
  0x251f25f8e9ddc1ceU, 0x2f2024270007f700U, 0xd0ef0213edcd0f10U, 0x30f027ff23030e29U,
  0xfa1f07ee45d0b5d7U, 0x12f7050f0cd12850U, 0xcec31016eb04de1fU, 0x5050a25f1da0511U,
  0xe51e10c0d5d2ac36U, 0xf2dee7e30b0cf13bU, 0xefdaf7f04505280bU, 0xfb210d0beec4dffcU,
  0xe5dcf8ce22bbcd07U, 0x1310d5ef52fbe520U, 0xedb632d33beffabfU, 0xf017cd19f3df8107U,
  0xb600d8d30c9efd2bU, 0xe11fd9ce42e31c09U, 0xc0f0c19311414f1U, 0xe3dcc32bddd79eecU,
  0xd25fb1d81d3ebb9U, 0x6d3eedce8ea2a0bU, 0xed0619320ada0d3aU, 0x3c0f0ce520daeb20U,
  0x1128f920c3fde6d6U, 0x280ef9ded6baff0fU, 0xf505202b14d9f027U, 0x7ed2001e3dde618U,
  0x1408fd12ef08e7daU, 0x130af9e9f2ced92fU, 0x6eae5df221ef312U, 0x1a2c2dea1be6e8ddU,
  0x91e0a29ceb1ef2aU, 0xeebf4f910d8e0e6U, 0x11d8301e2d102ee6U, 0xe3041be3110fe1daU,
  0xfff81dd3cdbef0ffU, 0xde22db200204f6cfU, 0xf710fbeb18dcfe1aU, 0x7f8fdf6da2112c5U,
  0xf2d17e1c4e5f018U, 0x391529de230b0c1eU, 0xe0ce3433fee5030fU, 0xfb2dfaf322e807f8U,
  0xdc23ded8c7c93df0U, 0xf62c3b32faf908bfU, 0x1511f5e918efe804U, 0xaf1feef0bcf00ecU,
  0xbe0c22ddb1aafe14U, 0x27023505d9ff0affU, 0x1afafdf3d514ec02U, 0x2029da32f8feeefcU,
  0x9ea0709d0930308U, 0xe1162f2424d332efU, 0x6ea200f1612f4f5U, 0xe9f5fdf8ee11ebd9U,
  0x2feae02725f13ac7U, 0x129eceaf11ed509U, 0xe2f12d2d1216d622U, 0xecf10b05e52ffc42U,
  0x3720185e0cda5ab1U, 0x7ddeef4ed1b2a31U, 0x3d0cd15ebed01feU, 0xb352819f8f63140U,
  0x9e3130ec7f067e1U, 0xe2dfdd10b41cf316U, 0x753c9fd08ea3755U, 0x203842e6e71c335dU,
  0xe621199835bae040U, 0x2dfc0c1916f8db63U, 0xe9932c02fcee1cbeU, 0xfac6ba18ddaeaf25U,
  0x8f2226fd29b82c23U, 0x3cd5c3ec4ecfe656U, 0xcaa60c1136d414aeU, 0x1515af44edd4cdd8U,
  0xec1c006553896cf3U, 0x1d6efed27410f39U, 0x1036f1e1ea35f0beU, 0x44f5fb2ddddf64fbU,
  0xced19fd6e7daf615U, 0xcdffbbd60009b908U, 0xdbcde2f61f15c099U, 0xa3cdd2bfd6f5f4c3U,
  0xa3fae09b5db6fe1bU, 0xa1596b42f06e96aU, 0x96d7e8c91fa4e890U, 0xaa9e8d29cfd1b4a6U,
  0xa8e9de0443d8141dU, 0xde0f81c235d4f522U, 0xe7e6f9e3eccbc2acU, 0xe8f1f2f1f0b335b6U,
  0xfde7dde202eacdaeU, 0x8f05bcbda89993fcU, 0xcfdabfd5c396b00aU, 0x819fc6c7c80c0cccU,
  0xffaf9d4f4f2ecfcU, 0xc9f6d1d3e5deb703U, 0xfccfd1dfe9c9bf15U, 0x89f3d9c4c9f9e4eaU,
  0xd8f3d0d2ffd7f11aU, 0xdc2007f305e0c62eU, 0xe6dcdccadcbfe60dU, 0xdcc8e4e0cc07c9ccU,
  0x291cfa06db0ef6c2U, 0xf8f81c1bfce5f3e7U, 0xd4ea9702d3ddde11U, 0xc8e207c30f023e27U,
  0x16faf62eeeea09d3U, 0xbd04f7f6011fc50bU, 0xe916b02308e1f41bU, 0xee1c03d4f719fc08U,
  0x3f08d929f1f63007U, 0xca0030f10dfe0413U, 0x1117d80b05d6d812U, 0x105edddfdff0520U,
  0x36251e1b1a1eececU, 0xbea262af503160cU, 0x30f90a07041b1912U, 0x4f726282113322eU,
  0x2eede346db1135deU, 0xddfc2df1e000071aU, 0x3147ea3102fcf809U, 0x21f6fee829003338U,
  0x50f31342cc2d33b2U, 0xd90c122dba44f0f1U, 0xe62cff5cce4f30eU, 0x391f47d6242f3527U,
  0xede5feebe1eefdfcU, 0xd8020cfefccc260bU, 0xd4050bfaabcfd215U, 0xd212261c222601f7U,
  0xf2319c327ebfc26U, 0x290605dee4f42ddcU, 0xe2193dddb9ff0cedU, 0xc0f829dcdbe2d6d7U,
  0xd30fbc6faa7a6c8U, 0x1122e1faf9112f26U, 0x1fe40f22a8d20fcaU, 0x1e1927f13122abfeU,
  0xad3e3e6f4c341a9U, 0x608db1afc060a96U, 0x33eacf2ffef6eddeU, 0xe62beb0ef3cdb30fU,
  0xe825e621c8e846eeU, 0xe807d8f59afff0d7U, 0xe83bef02aa30f6c6U, 0x20303129f5c6f8e5U,
  0x26373a1b36ede20eU, 0x2acaccf7abc32bc3U, 0xd92fec0ee62031fdU, 0x1a2a1ddc40dab8e1U,
  0xd5f110cee9cc4cb9U, 0xffcbeb05e92c29c8U, 0xf8090914091d11f2U, 0x1dd0d2508158107U,
  0xcbd9ef010f0126ffU, 0x11f0ece3f909f4f5U, 0x16e6efeefc093313U, 0xf27152cd8cda52bU,
  0x1b0036042bfd1febU, 0xed011fdf04d0e1cbU, 0xf1b30fcae0c16faU, 0xeb270b38302600d7U,
  0xebff33e3292effd7U, 0xd182122a6ed20a0U, 0x1f71a0e05f9f50dU, 0xf7090df528c597dbU,
  0xf9e817fabfa01e23U, 0xf8f600f30a301ceaU, 0x91d06f80b1c03f6U, 0xfc1c0819fa23a72eU,
  0xc1f6eefbdfd40934U, 0xeeefd50f181a0522U, 0xdf21f8d2f800e5e7U, 0xd812f4dfe8eeb8f5U,
  0xdcf722d7370aefe4U, 0xf30223f1a5222987U, 0x612060fda22f512U, 0x90d0ce518e8811bU,
  0xeaf5f621c6be301eU, 0xa0afd22e80dfea9U, 0x111300f00c0331d5U, 0x2dedf3eaf8f8d928U,
  0xe4d6bbf5facd14e0U, 0xedfc14e4d519f3b7U, 0xd620f5faff10e4daU, 0xf8daf2b7e212ff09U,
  0xc62410204cf92fbfU, 0xafb17f09d13f7d5U, 0xf3071c13e0230e16U, 0xe80c1ef41bf5cbf5U,
  0xdf2c6fad7c51cf6U, 0xd81a0505b936e4b5U, 0x1426fb1dda060ef9U, 0x2f0af0bfef2bd926U,
  0xfce8bfefc5e8f5f9U, 0xc1eb0cfbd801dfc0U, 0xe90ed2f9f0cc15ecU, 0xebf9eeea0c1d020eU,
  0x4ef11000d1bc3d7U, 0xbcf2f9cfa7cdd4d4U, 0xfbe5e9daaaccd510U, 0xf007d1e3d80a23ddU,
  0xed0c2de1e332f6e4U, 0xe4211612b1c516daU, 0xfbd2d915ede8e410U, 0xc62117f8fbdd0f03U,
  0xf01a27daf221f0e9U, 0x35f60e25d9c9dfc0U, 0xfdc21e1ade1f18f2U, 0xdf170c39ecc6ed00U,
  0x1f04ee04c24fedbaU, 0x3080cfdf8b619a2U, 0xecc20e09d3ffe1f0U, 0x800e913f4de32ccU,
  0xe02e05d5033fc8d1U, 0xefa23feced226a4U, 0xf2bdf827d613dbeeU, 0xbe9e00401fdcaf6U,
  0xd804f4d5e811fee5U, 0x12ec1708d9fa0681U, 0x1fee272032ff1ad8U, 0xd6dcd91defe89ef2U,
  0xd91026c80726aae2U, 0xffa2402c7cee8b2U, 0xffd9d2fcf9d3eaf4U, 0xe3d7f91325ca011cU,
  0xe7fcdf0d122704edU, 0xd15082ad71aeca8U, 0x3cf0f3f8dcfbf6e6U, 0xd92b082a211ae010U,
  0xeef90a0dbf034bddU, 0x20201a2b9d312a8dU, 0xf71e1a03061bf204U, 0xf71c2efbf61b83f9U,
  0xe3c6cdea3124d3c2U, 0xc406bcd581f2acb5U, 0xc2f6c0f3dbcb90f9U, 0x9cdcbfdcd0031ab5U,
  0x9ef39ec054c9ae1U, 0xf025f2e3c4d1dbc0U, 0xfc2042ad1b0e730U, 0xb3dd144002031bd7U,
  0xdb3226f0f624f71dU, 0x1bec38fdaad438c5U, 0x37042d34fa1c1022U, 0xb2c1717fd102318U,
  0xef0cc5dd4144bfd3U, 0xcd08adf1b3e3f608U, 0xe5c2f8d8c9c3b2d7U, 0xe5d8b60111b507e7U,
  0xec0018092311deddU, 0x172005f3c6d5180fU, 0x1f0ae6fad3fdef11U, 0xcfed0740f8dee5b7U,
  0x11a0c034b433007U, 0x6180001c21304b9U, 0xe08f2261210232fU, 0x17f0343926101a11U,
  0xb611f9c54930bcd8U, 0xf30a9807eda6d1e1U, 0xd6add8f2cfeb9fafU, 0xc3dab2f5d7d308b8U,
  0xbf312f103634f308U, 0xeb05d0f5e1ecfbe5U, 0x28c0efeeecd8c7d1U, 0xf8f6013708dd1be5U,
  0x2b003e0f493828d9U, 0x2dfa3437d62b37e5U, 0x3730f6f4e21913fbU, 0xfc2f3620fff7ef12U,
  0x98f50c1a1d15fcefU, 0x110ca0080229fb17U, 0x26e927fdc6dad7d8U, 0xe70de204fbecd9a8U,
  0xfee4defce7bf74c6U, 0xebfa2cee9a550cafU, 0x330be9e7eb3825f6U, 0x1a0b21f501f4f30cU,
  0x14e4ad21b9a437f2U, 0xe7e20f19ba57e79fU, 0x144fd515ee0e3c1dU, 0x20632a7192ef229U,
  0xa0120cc56d17c7d3U, 0xde0bd7f20c97d945U, 0xcfc118fbc6dbae98U, 0xa8d9dc16edb6ae93U,
  0xaffb2b07480353b5U, 0xf3f0fbfdd12fed01U, 0x4620d9cb021def0aU, 0xe9251de4dcd917e9U,
  0x16e2e62deb9251d4U, 0xc21a1d0dcb45e38aU, 0xee4e08dfe73732f2U, 0x46300fc40541e821U,
  0xa61a01eb6d35e0c4U, 0x800c0e6f481d20dU, 0xf2adeffec69dc1b5U, 0x8ebcf32e0ecfeda0U,
  0xbde81308341329dfU, 0x22e7e608d6211ef7U, 0x14cfdff4d111f012U, 0xc90df100fdd1e7ffU,
  0x2f1ee10527b23ad9U, 0xde1e340be45bf6e8U, 0x1d41e017e01f24feU, 0x150af800042e091fU,
  0xe6cafed981df4be3U, 0xad3a043cd43220d2U, 0x12020b19bbffefd3U, 0x35fd3e0b17354ae2U,
  0x4a2c30e2e0b6cce9U, 0x5f3f121cba2f39bU, 0xeeeb1f0cccb32c24U, 0xcef22f1bf511f4beU,
  0xb03231c5e8ccd7c3U, 0x1716ff329ccc070eU, 0x29f2a3423c1ffe3U, 0x3dad84b3eefcedcU,
  0xee0217c6eaa7d2eeU, 0x3012cce8f2ccfbe5U, 0xae0cfd0f529c72eU, 0xee39c12025c3b021U,
  0xd6f9dee29db8f82bU, 0x1d1ae826fbec330bU, 0xf3c13819edf03b30U, 0xfd32dbe7eec4bad5U,
  0xfc30bb1ef5cb20d2U, 0xd60527d1f205340fU, 0x3cf03def1d1cfffbU, 0xf1fdf3d52cf714f7U,
  0xe4202f1622fce5d5U, 0x2515cef0f4d4dfecU, 0x70f3a23d925efb6U, 0x1eddea240dd1c9fdU,
  0xbe15b9e713b25007U, 0xf300c218191006f3U, 0xeb072c02d5352f0bU, 0x4016de293226f5ddU,
  0x3ed9d44cc28524fcU, 0xed220c3602d7c9f6U, 0x3528daf0d2dcfb3aU, 0x2d30240d3d36d8U,
  0x3b061d1ca605d217U, 0x3def7ff35d10904U, 0xe0e11aeb13ddf046U, 0x1efe250429005005U,
  0x4b122c20b5cad3e2U, 0x24fae627f4e21512U, 0xebf30401e6fe0e1eU, 0xfa07f13129fc270bU,
  0x18ed1427cbb0d6ddU, 0x12e3ee0d1defef09U, 0x1ac9ea19f8da092dU, 0xf2200d18281ae90fU,
  0xdd0beaddb7b9c31eU, 0x1301f7104ac2242cU, 0x21c01b14091fef18U, 0xfc24d92329ccc1dbU,
  0xd4e9ddffd681b40fU, 0x2118fcfe11c11629U, 0xe9bf0a043e14f8eaU, 0xe11ed0170fd008dbU,
  0xe32ae9fcfdbae905U, 0x7f8ebee2ef00b3cU, 0x1be02822100ef0c8U, 0xf2eddefee9cc0000U,
  0xf8edd0bdd0c9e833U, 0x181ff0dd23f11303U, 0xffef01d818fa16d5U, 0xcee604d5f6f608f8U,
  0xc319e012e8df131eU, 0xd2ecdbe11aeee4e4U, 0xfd808fa1605febdU, 0xd5e9e7e7f6e210a4U,
  0xca17e3ee2329ff0fU, 0xd922091beccd0fe9U, 0xebca23e4dceced09U, 0xf2dd00251bc719d4U,
  0xe3132ae1b0b0ee07U, 0xe4dd0cead5f3ec21U, 0x343d2bead03519e8U, 0x260d34072300f00fU,
  0x1cfd2c1781e006c6U, 0xd41522f399e0fff0U, 0xfd3e0fecb6f30521U, 0xe22034df2638f0d0U,
  0x2a3206348cf6c9d9U, 0xf7f9eae6cbf0e9f0U, 0x2a00240c94fb1803U, 0x1b2c070702eef6f0U,
  0x242a1f13ab98090aU, 0x30e7fc2b121d2ff7U, 0x1ef4eb0bffe4f30aU, 0xfdec2614051fe6eaU,
  0x1813f0ded986f0d5U, 0x2424df21c3e03326U, 0xe4ec01e0f9f034d0U, 0xed21f20418f2f712U,
  0xe0200630d3abcfefU, 0x13dc2508e70f3020U, 0xe0140f23bd180ae0U, 0x20e0ef3c2302e4deU,
  0xf70908edeaaf0ff6U, 0xfaf2c8e4dd10ee26U, 0xddcfed0bddfdd4c9U, 0xd9f4d516f8d4e6c4U,
  0xce370bebe6a82ddeU, 0xd4e31ef922131113U, 0xd8e2e91e05201b05U, 0x9eb16dc19fa06c2U,
  0xe937f5464c8f130cU, 0x1df91306d5d82f1eU, 0xf90c0716e503d8f4U, 0xeceaf7ec20f5fc09U,
  0x94ffffff025U, 0xfffff606ffffee7dU, 0xfffff7eafffffdb9U, 0xfffffed8ffffedddU,
  0xfffffd89fffffa89U, 0xfffff914fffffc53U, 0xfffff5f7fffff6fdU, 0xfffff7a8fffff39cU,
  0xfffff6e0fffffb8fU, 0xfffffb6cfffff4f6U, 0xfffffdcffffff9d8U, 0xfffff89ffffffb55U,
  0xfffff46500000185U, 0xfffff8ae00000d7eU, 0xfffff349ffffed81U, 0x4c300000995U,
  0xfffffc63ffffecc7U, 0xffffec46fffff719U, 0xffffec73fffff584U, 0xffffeaeefffff310U,
  0xffffebb600000000U, 0xcd4fffff349U, 0xfffff482fffff856U, 0xfffff607ffffef6fU,
  0x5f8fffffb2fU, 0xfffff264fffff45eU, 0xfffff094fffff982U, 0x92effffff63U,
  0xffffec5dffffebd6U, 0xa9efffff6dcU, 0xffffecb200000513U, 0xfffff31ffffffabcU,
  0xfb020bf904110e00U, 0xfaf00806090cfd0fU, 0xfbdeedfe07f9f511U, 0xe7ff0b02f9fbe9f1U,
  0xfeee07f00aed16f3U, 0xfff3f40de11a03fbU, 0xff23f41c04f6ffffU, 0xfdfd0c010bfe00f6U,
  0x1cf804d4f3f00b04U, 0xf7dfdeeafc061021U, 0xe8e710ddc8e7ed1dU, 0xedd1e2f1deece4ddU,
  0xe01b0bfce5d7d9f1U, 0xe6faf7e5e61fcb17U, 0x40b07f905faf3ffU, 0xf6fd07d5c9ece8e4U,
  0xfbeef8dcdfe3f7d8U, 0xdce2d7e4dad2d9c8U, 0xd5df0bccd3fae220U, 0xefbbfaf6d2d6d2d1U,
  0xe5d2e4e0e1dac5d8U, 0xeaf5e4e4e0eedfd5U, 0xf3e0f1e104eedfe2U, 0xf6f6d1f6c7d0dd04U,
  0xeff7e4ece6e5dad8U, 0xe5cdd3dbe4fae1b7U, 0xe1d011cdb4eb1201U, 0xf5d7f5d1cbd8feecU,
  0xfcbf00e4f0d7e1dcU, 0xe1c9f4e7c8e0f7ccU, 0xe0dae1f1e3efc8eaU, 0xd1d6e8bacad9e9ddU,
  0x4ece8edf4ddc9f3U, 0xe8e9b9dbe2f5e0ccU, 0xe7e10beabaf4e5edU, 0xdb2ff3d3ddd8fcceU,
  0xbc4dc03d40addd8U, 0xae41bfdc5d3f8daU, 0xe22cea11cceae4c9U, 0xe4c0d3d6d6cfda01U,
  0xea0cfdd1faeed610U, 0xcff4f81705f2d7b7U, 0xd6ee01fdfeff1217U, 0xfa27f9e1f2b8ddf2U,
  0xdd3e9f2fd0af1f8U, 0xdec5f8d7e2e1e7c3U, 0xc140802f3f9e4dcU, 0xf2e0f00014dedc03U,
  0xe610f6fcf4fdfdefU, 0x16000423f41be7ebU, 0xfe0df9fa4e02010cU, 0x8e711e60fe2e424U,
  0xe806fa0601e30fU, 0xdaedf6e70213f2U, 0xd8cbf5f1f40c13f2U, 0xfcf4100412fdf4U,
  0xe106d9230c12fff2U, 0xec090f1a01f9f6ffU, 0xf9fef4ffee020016U, 0xf1f0eafff50bdbe3U,
  0x9e6120016e4f400U, 0xfff41a0300fef302U, 0xf41d09e3f80105fcU, 0xf16faead0eb0b12U,
  0x8f500000704e5feU, 0xfcf7f1f2061601f9U, 0x2f0fbd8e5e5ed0aU, 0xf51603e6faf41ee8U,
  0xf7ef0bfdecf20f05U, 0xfcf704d3fa17f8eeU, 0xe91c060d17faee06U, 0x31402ede9ebfdecU,
  0x12f9f2f4f8f4edf2U, 0x705f10afd08f42bU, 0x5e211e10de7f924U, 0x2061702def709ecU,
  0xebe8f4f6f7121404U, 0xde18e4f6dddd0f07U, 0xd418061200fbfdf0U, 0xf2f6fd2109ddc201U,
  0xc1616fe22f3f800U, 0xf3e60ce8f9f6f503U, 0x7ecfdfafe010e1bU, 0xf00bed10db1feeebU,
  0xeb2c0109fe0cfef6U, 0xf07f5ce20e71001U, 0xe418f7ed05f0faebU, 0xf309ea2028f8f7ecU,
  0x9000501110e0d0aU, 0x314f8fafdfff4f2U, 0x6eeff0018f5f713U, 0xdff0200400eb0c07U,
  0x11f8e3f2ebfdf9f3U, 0xe9e6f0f8eef8f903U, 0x1813f9eafaf410e4U, 0xfdeceff802fee7f3U,
  0x408200feadc07deU, 0x4dc000ee9ebfbf7U, 0xfaec07f6f1f4e324U, 0x17f6f4f808fcf702U,
  0x110faf6fbfcd4edU, 0xfef4f7e8f4fad704U, 0x16edbf0df20511U, 0x100bfcee13c817ceU,
  0x2c0b1b11e3ed070dU, 0xeeffe019ddb9eb09U, 0xed17fe1706082225U, 0x28dedcf52c16ebe6U,
  0xeecef0e61ee3d9e7U, 0x4f703e00129f321U, 0x24d7ecb2d8e813ceU, 0xe1f6eb2400e4f0e1U,
  0x350d13e8d30115f9U, 0xeff8e9e2df05cba9U, 0x40ff403e9f0ffd6U, 0xf1d228f510c6f7f9U,
  0xe7eef700edb6e5f6U, 0x7cfeafec62fe7f8U, 0x36c6f1f0cde511ceU, 0xead8fecbe8d3e200U,
  0x17dbf1efe5e031dfU, 0xd7fee7def4f5f3c4U, 0x18e1fe09cd0106e7U, 0xfa8d0902f3c6ffdaU,
  0xee00e4def8c814d7U, 0x11e1d415cc16010fU, 0x3e20401cfe2dddbU, 0xe0f700af9bdbf4ffU,
  0xecefd3e207cefcf5U, 0xc7f7d4c9f4f4b4b2U, 0xd7e9efce8cf1c50fU, 0xe816d604addfc9ccU,
  0xd1f8e0e2cac9d8bfU, 0xd934d7e0d0dadeb8U, 0xd102010912cfdfcaU, 0xff22e196d0cad4f4U,
  0xe606cdf8f7d60e01U, 0xc1fcdefdf8dab5bbU, 0xf7eceedb0cfbe7fcU, 0xf6e512e5d0cf00f7U,
  0xe9e4d006e40de6ffU, 0xc9d8eb0405c1f8d5U, 0xcef20dee15f3cecbU, 0xbe4eb1a070ab1edU,
  0xf015cbf00202dcf8U, 0x2a06ff10f217effeU, 0x14d6e2040c1be6c7U, 0xbf02e4dafdfecb0bU,
  0xea0cfdffeafcf107U, 0xd6edf901fc05fcf3U, 0xe5c6fffccb06f01dU, 0xf1d00731ff1d0219U,
  0xf9f4d5e7fc0c02fbU, 0xe308e309fce2d2efU, 0xebc2fae908fc0af9U, 0xc8ebda03e02ecdd3U,
  0xe5f2f2f6f9e9ffU, 0xe6fae8ec3dfee2f8U, 0xcce41af000e6e605U, 0xdf60402e7d7ede7U,
  0xd4efe1f71800f8efU, 0xfbf908e7f200060cU, 0xfff010e904d6d314U, 0xe7fcf531f1dbeb1dU,
  0xffe6f0e2fcfd010bU, 0xe90e0aecfbf2fafaU, 0xdf000a0101edfcdcU, 0xd817101424e804e6U,
  0xd0f1cbdcf2e7f8f3U, 0xeee3ffda0d13e31aU, 0xdaf32ad9e9d8d419U, 0xdd16e419d028f319U,
  0x4e8e80bdbecf2d5U, 0xe218f0fa06e7daceU, 0xe23f0de70d03f7d3U, 0xea39f4085308ddf6U,
  0xf616fb0503fbec19U, 0xfcfa0af912ffe3e3U, 0x16281ee325e3220eU, 0x11919dd1aed1f02U,
  0xfcf9de21f8fcec17U, 0x7d202eb10e20ef5U, 0x2150cf606e4e4feU, 0xff12f7eb18f2e1f2U,
  0x5ec24fa0d0322faU, 0xee1418f70c21130dU, 0xf80804fc25f50510U, 0x1e00f1200f03e720U,
  0xf108fff900fd1cf8U, 0xf406e606292ffdebU, 0x110bfff0f7fbecdbU, 0x12fb080cf708f3e4U,
  0x11f41334e4fbfc03U, 0xf9f20915f913fffeU, 0xe2c002422f410e9U, 0x1cfc3009270f2f0cU,
  0x18df10f920f9faffU, 0x36ef191708351921U, 0x1c130253f80a1b05U, 0xeaf8110f06ec10fbU,
  0xff0556faeb02e31dU, 0xfc20f0e408ffebfbU, 0x21fae8facd1804b3U, 0xaebfa04f032fa03U,
  0x1b1210f7f70f0dfbU, 0xe7ef011c4c0af6ddU, 0x2cf203f3adf7e6e1U, 0x11ecf21e1a11031bU,
  0xe217faf40e01040eU, 0x91521fc120eecbfU, 0x1d06fe0e040a29c7U, 0xfb7252df7b426fcU,
  0x1841161b22171310U, 0x49da2920ecdc21f8U, 0x7ce1a19ad042c25U, 0xf3f10f3fe41f0608U,
  0xf20417181611152aU, 0xdee50a210fee07bfU, 0xdafad42a1711f8b1U, 0x3affb1116dff3d1U,
  0x22f1180919c30f26U, 0x2fedfcf19708ef16U, 0x1bd60bd3cb0527d8U, 0x8ccf4f5cdcd1afdU,
  0x20defd02d2d64ab1U, 0xc8dac3c9cfd3e6feU, 0xcbe3f1cbbdd0eb0bU, 0xef8ae61004e0f1f3U,
  0xcdaf13ebd6c2d2d5U, 0xe2fe08ebe833e718U, 0xfafc1ee605c90fa9U, 0xe7f1e488cdd7cecbU,
  0x15f1d6efe6cd33e2U, 0xe9efcee5d7dea0a6U, 0xeef6d1cfd7f4daffU, 0xeff7d3eec18be629U,
  0xe200bdf2d10f09e4U, 0xf8eac5ecd016e3efU, 0xeefce2db1aecdfe5U, 0xe6e1cdf401f7cc00U,
  0xf04f3eee3fafce4U, 0xe300170af1f9f0U, 0xcde80c08faf00aebU, 0xe3f6c6e5e3f0eac9U,
  0xff06160a1bd8e9ebU, 0x60008dec5f6d1e9U, 0xe9d2f604d6000a09U, 0xebe0fbe4e706fbf9U,
  0xf4ebf7f2fb0007ebU, 0xe2dde0e8d0f6f0f8U, 0xfb03efe2ccd028f7U, 0xf5f7c8e300e9fc34U,
  0xefdbfdea04ba0501U, 0x14f4d5ed100ee706U, 0x1cddef04f6e70cc3U, 0xf001e0cb34f1d6e8U,
  0x11f41812f4dc3addU, 0xaede408fcf2e7e2U, 0xff0fe9f8cdd407e9U, 0xeff6f9f1e6d418f4U,
  0xe0ea10f3f1f504e4U, 0x1913dbeed417db05U, 0xfbebea00faf9fdf0U, 0xde06e5e4fc0b0bfbU,
  0x31f21cebfee21100U, 0xee16c9dcf0dce4edU, 0xfe2fddefe9f6f0edU, 0xef1efcfbd4fe1fe3U,
  0xe8eef60ef2eff2f5U, 0xfbe7fa36fdf40df9U, 0x1017e9e005f9f6d7U, 0xd5ebe5da14efcdfcU,
  0x4019220811f03510U, 0x9200a160ffdeaf0U, 0x80af9e32b211025U, 0xf90515f0dabe1312U,
  0xe20f035f9fe2406U, 0x1b09f71bb7e0fcfeU, 0x80c060e0f10f80dU, 0xd0aec17e009e316U,
  0x150446240f483907U, 0xfb05e0d2f60a081aU, 0x1428161af418e919U, 0x15154c1a171a3818U,
  0x16fd2e0a1c08ff03U, 0x1b2e02f321fd1429U, 0xf737261627f32af5U, 0xf719151f1c08f703U,
  0x20f4462211021affU, 0x6f7143ef5281cffU, 0x230a1606111415U, 0xa1002fc46290bedU,
  0x220627120e132307U, 0x14141a10fc09eb35U, 0x2b2d1a0c01101fe8U, 0x22180a1529f617f5U,
  0xf0fb090e2123041eU, 0x423f7f61705f50bU, 0x1f0e131510191f08U, 0x2206210e19f60829U,
  0xfe1228210c34f809U, 0x1a26fb172e0f000cU, 0x19fafbeffc1535e2U, 0x1403fe302a24eb18U,
  0xe115032c4c3ee745U, 0x360f1918260e02c9U, 0xe03ed413c421bedU, 0x1903f60547e4efe9U,
  0x3013304332290c05U, 0x2df6191901f91141U, 0x19e2f913fd2c31fdU, 0x1dea0d3ffe2cec10U,
  0xf5291c3a3f31e90cU, 0xedecee320018dab8U, 0xc9e0ef450b1108d5U, 0x22c00ed560ffdcecU,
  0x46d82d3430d0db00U, 0x21ee10e8b62f1245U, 0x4ce61102ec081dd5U, 0xffbe2fff9e6e90eU,
  0x2c0d1c5e08d82cf1U, 0xe0fcddf7caf800ccU, 0xfbd9da17e800df00U, 0xf7bddbea73caede8U,
  0x14ec47050fe1eadaU, 0xfd4feedc848f64dU, 0x6aff19fb06c143bbU, 0x12e7eed7f5f9b5d3U,
  0x31e40f3cc1ee10c1U, 0xebddd7edf3f3f1b7U, 0xffde13f0ecd5f11fU, 0x51edce651dfe8c7U,
  0xf5e927dd12ccfec6U, 0x27f7e1cbc47cdb20U, 0x7a27f0ce24e42fd6U, 0x1f6d0c2eaeb1404U,
  0x2c041ff8fc1f32d3U, 0xd2dca9f3f103f4d9U, 0xe319ecfe0ad71f13U, 0xf1cf5ea1bf2f1f0U,
  0xcd000f0f2e1d0daU, 0xdfedf503d626dbffU, 0x413eddf514dc2db9U, 0x16f2d802e4cbcedbU,
  0x20091c1fe2fa1fe9U, 0xd3f2e4f3f903ceafU, 0xc05f704fee9200fU, 0xff130fda0fa702f1U,
  0xffe606dd02d511c5U, 0xf0f3eeffc3100909U, 0x3b23dcf136ec34a1U, 0x2303fbe9d1f8e8ecU,
  0x2bfd3c26102825d5U, 0xdcdae80604fafcf2U, 0xde04e007f80afafbU, 0x1d4b24db3bcc14d1U,
  0xf1c01ff103bbdbf0U, 0x13dbefd9ce24d62eU, 0x4c24efec22fe32d7U, 0xf709d0e2dbe5fbfcU,
  0x72f3c162b0ff316U, 0xcbfffe09fde4f3fbU, 0xe1dc315ebf316f7U, 0xa1c27da1eda2c19U,
  0x8dafd1e0df012f1U, 0x3df128260529010eU, 0x3c0cdefe09f338c6U, 0xffd408eff817daf8U,
  0x42f75503241a0b16U, 0x810f111031afbbeU, 0x1b22e50be90331f4U, 0x42844f603cb3afdU,
  0x2fe05fe1c27260eU, 0x17011610dd050607U, 0x262424f62a17340cU, 0x12fde02409fe1106U,
  0xfc196e402d1ef303U, 0x16332b1524312709U, 0x261c171bfa31351fU, 0x221448df370340efU,
  0x513f5092604511bU, 0xf811334adb27193cU, 0x8f6054b1ffa3727U, 0x1b332c070c100f33U,
  0x1a1b34483bf7210bU, 0xfe06ee54e213082dU, 0x2047f84711232d03U, 0x341f20fe432d2a30U,
  0x27f32def310f0ef4U, 0x9fb112f0e152441U, 0x110309112d0335f0U, 0x1210fc28f8160e03U,
  0xf51708401b34df30U, 0x240d27192c11e4eaU, 0x160dff10471eede9U, 0x1d27ec000dede407U,
  0x251a380a2c1c0418U, 0x34f0030a363dfcf9U, 0x141903fcfa371bf0U, 0x2bf0084d1326f922U,
  0xdf19fd6c383fdc24U, 0x2e07362837fa04cdU, 0xe918c73d284c2822U, 0x310eedfc44e1e8faU,
  0x4f20425159f8cf27U, 0x520813f710591668U, 0x142022f30e2d562eU, 0x39f1082aff26f027U,
  0x310318430820fb0cU, 0xf21005ead53aecd8U, 0xf506f80afd1b25e1U, 0x46fd06f23fbfedd2U,
  0x3fec470a1fc93400U, 0x4f11a0de44b144aU, 0x6619082801f75d0bU, 0x39fceedef6e9f116U,
  0xd091d42fa10f1cfU, 0x809de2ae80af60dU, 0xb2ef133081a28edU, 0x2beefcec1f04130cU,
  0x2b132df91bd200ddU, 0xd4f90600b81de92aU, 0x75110d32f80a7f10U, 0x2ef4eee1e0fb0c11U,
  0x4fd202ee512f2c4U, 0xbbc5d3f4bf314e44U, 0xe2ef0825d7f02118U, 0x57180dbe3b1cf6dbU,
  0x44de30e6fdcff6c6U, 0xdcf919eeea2edf3fU, 0x6a010a3a17d277e6U, 0xb0de7f2f3c60d03U,
  0xf70e022df31801d3U, 0xf1f9c5cdd322d5ebU, 0xef1ceb03ece11501U, 0x233d13f030e615caU,
  0x32f605f3e4db11ddU, 0xfbeb160fd53ae401U, 0x6011ce3d24e629baU, 0xf0ece8ffcad29bf9U,
  0x1ff3d9fdecf1f6f4U, 0xae01d5d9f730ddc8U, 0xd73fd2e1fe271f39U, 0x192313130dae10b3U,
  0x18d70f0bf200fcd8U, 0xd72f0d25cf1a0afdU, 0x372f002007c825abU, 0xe2c072802b6c905U,
  0x1d09f420eae21ed9U, 0xc902f5eff900f9f8U, 0xdad30e27d3192133U, 0x232bf4e5fbf905edU,
  0x12c11713fff0e7f3U, 0xc6f727f7f307ff23U, 0x3b081716f8e15cb3U, 0x2813190fe9ebd115U,
  0x2910f11a0d17d82fU, 0xf824faf112370d03U, 0xfd1107f5ee41fd06U, 0x2e46e6f90e03e824U,
  0x21f2160bf2220100U, 0x1af51318471802eaU, 0xe331b0f060c39ddU, 0x29ff20fd2a16f32dU,
  0x2407f7191014e129U, 0x253f3c1b1a513c28U, 0x2bee0b200e5a0c09U, 0x1f063b0e1a1e0335U,
  0x252d0d1826143101U, 0xe407fb11190cfdffU, 0xddf5252d1a141e21U, 0x16204321481a1e1fU,
  0xf527f8f331270021U, 0x2c293e0b32370f11U, 0x1af7181d35303338U, 0x1d13144e1813ee13U,
  0x1524ff1561111332U, 0x430f9f8f91128fcU, 0xe42e3b2f4f221121U, 0x1d251f050711354fU,
  0x1d29ef20e8fc2815U, 0x37221c0029302818U, 0x23242c2b2328043bU, 0x1511f7200f2f280bU,
  0xa1b0b1c100f1607U, 0x31f15353a180e19U, 0xf7180b1b322f1207U, 0x21480b0d2c241103U,
  0x171b08052634ed2bU, 0x81aeaf00b0f0713U, 0xb14eaf61a2b1522U, 0x2011e8f200220334U,
  0x3f0bea210920e20fU, 0xfc0b230e2d190ffaU, 0x22009ec0a00fd13U, 0x1909012e4730082dU,
  0x515fae92e45e50cU, 0x21281819020d06dfU, 0xf2151312085f470eU, 0xe6112903edf027fcU,
  0x16020313190b0211U, 0xe6183ffc091a30c3U, 0x2826221f27040812U, 0x5414fc1702210726U,
  0x15250b0b25f0ea0cU, 0x2c23ffe01a1e1009U, 0xc2a0efdf01d0a1eU, 0x2626331eebf947f8U,
  0xfd1602040cf45213U, 0xe51923360e1e06fdU, 0x160c0e3515030525U, 0x2209f803ee071901U,
  0x20dfe1200f309f3U, 0x23e700eeee14553bU, 0xebf625fbe4eff411U, 0x262d1b1f0c2710f7U,
  0xff1606e608d81713U, 0xf12e07f9102ff509U, 0xf41b0afb290f3a2fU, 0xfa2c1ad7e6192407U,
  0x37e8ce16eae614eaU, 0xf1c8d8c9e1203d44U, 0xedf058ebc7fdd309U, 0x122fc06314bf596U,
  0xf6e710dfc7dc01e8U, 0xf6fde7e2de37d8ffU, 0xd21c04061ae216deU, 0x17330de0b1bf0a05U,
  0x1ff8f9fbcadb28f0U, 0xc4dbe3e80d0bdcfdU, 0xdad0f3e20b07e44cU, 0xe83dec07de0ff4ceU,
  0xdc6f1e3dbd7fcefU, 0xe1f8dbede629d5dfU, 0xf03aff2247e2f303U, 0x240f00f3b0b1e0f8U,
  0x29e410f21af707f6U, 0xf90913f71736dcf0U, 0xc1dfd3f80605ff10U, 0xf72b0d1e06f1e400U,
  0x80400eb0cf1e2f5U, 0xde1efcea1af3eef3U, 0xce33f9eb28eff1ebU, 0xa372bf422e30eebU,
  0x11f5140318f7eceeU, 0xf6fe11fc1bdde3f3U, 0xe2ec0cf60a2b091bU, 0x222bf400efeae0eeU,
  0x7dadf1fe715e6f8U, 0xa07f8dc0901f4f1U, 0x193ffd031230f5f6U, 0x1a2bf5350b03f60aU,
  0x7f116f708fce815U, 0xf5371d090306f6edU, 0xe90b2401de171715U, 0xfe1d360812ff1420U,
  0x1915eefc0906081eU, 0xf701f017f6eeff1fU, 0x1115fb25170e07e8U, 0xafeffe3f6170406U,
  0xf81837fd08211505U, 0x1d0b1e1320fd1128U, 0x394023100c151704U, 0xe447500fcd2b5124U,
  0xf932ee060f141c3dU, 0xef08fe1d20191f0cU, 0xf91220fdf915fc31U, 0xeedd13087b01240eU,
  0x1d05090a2c1c4bU, 0x3c01223c32192710U, 0x3a11290a0d231330U, 0xef4a1dfe2a0727e8U,
  0x1d30fb26161b2d23U, 0x1b1df21717112113U, 0x17ebe4e624ea29U, 0x1b260e33d905002aU,
  0x43204c10fdfb54f9U, 0x43e738120608e702U, 0x1d0723f4fd1e142dU, 0x10f0221d173e1919U,
  0xd53c0c1cf7fc2cf7U, 0x8240b35ff0a2017U, 0x240f072125f7f410U, 0x73704281a15262aU,
  0x8e734ea31e62313U, 0x3f2a1fe027051d29U, 0x45273cc8010f241dU, 0xca27361118472116U,
  0xf91bfc13da372803U, 0xb6180c33372025ffU, 0x13fd0c06f3210cf5U, 0xf2020fe12f1f201dU,
  0xfff1fee81efbf109U, 0x4928392f1f16e505U, 0x282320ed1a291328U, 0xc2f33c22e1132a1eU,
  0xfb22f01306275823U, 0x1f3c0a0b12002ee3U, 0xf70c051d0038c551U, 0x1d002d2b292e120cU,
  0x19f6111e06050704U, 0x1df81a10fc012318U, 0x1f2126fb14f6d221U, 0xce050245e4250cf3U,
  0xde0e07ffebd42615U, 0xf616011fea1e0df3U, 0xba2703042609b21cU, 0xf2020319e7fd3d1dU,
  0x40fd0700d8df2bf0U, 0x7f31b1909012c48U, 0xd7c849f3e70fde21U, 0xe2fbc826df17d9cbU,
  0xe7f8d4e8e7bceef3U, 0x12ae6e0f51cece3U, 0xb1200fca19dca308U, 0xe63f2008ccdc15e3U,
  0xcd70013dfca52cbU, 0xcccbddc00de6093dU, 0xd8b611d2dac7c400U, 0xb3efdeedf118c5cdU,
  0xd9c3e9d1c7d5c8deU, 0xcde1d2dcf3f2b7faU, 0xcb02d8bdf5dcbac4U, 0xe01cefc1daa1eee3U,
  0x38e62112c7cb10bdU, 0xcddbe7fee3f6dec0U, 0xecf1fef602d303ecU, 0x8cfbe4e206c2f9d6U,
  0xa8d9e1b3f5e2b003U, 0xd5f0d6d5e22dd20eU, 0xe0efd8b712daf7f5U, 0xd6e2e8c1f0f3dce8U,
  0x33de0ef0cb173bd4U, 0xd9e1e7cfc40ee31aU, 0x2e191cc6e9e1ec0eU, 0xda0e070200011f2fU,
  0xf4eaadc7c0e910bfU, 0xc421e3ffee31f3e7U, 0x41ef00a2adec3d6U, 0xd517e4def51eeafaU,
  0x1df50005fde404dbU, 0xf5feecf7fc2fd6ceU, 0x2f1601fd2f1b4225U, 0x1f2a1e26f8dcf018U,
  0xf521f4e8d41b23c5U, 0xe318241afafc17e7U, 0xd847ec102f18daf6U, 0x344fb321c28d804U,
  0x2805d5e21afb3c19U, 0x20062af90d31dcdcU, 0xe60d2912f72a1f2eU, 0x72ff63200fff6edU,
  0xf0fedf08f31306e7U, 0x16020f0c0228f4f1U, 0xee261f162018ec0cU, 0x23361ff5fc25f3fdU,
  0xe417e20d1007f918U, 0x2f81d362a010a17U, 0xfaed1f2829313314U, 0x70ae1160e18f433U,
  0x1afdf62d0ef82426U, 0x10130dff14ea0ef2U, 0xe23a13153002fd07U, 0x5190a272cfd0319U,
  0x411d7131c0bf801U, 0x18d830372af42dfbU, 0xd7d8ea292a010614U, 0xefe911181d07c0daU,
  0xe9030eff33f0e733U, 0x1d1319d004281d0cU, 0xfc3524f62108fd0eU, 0x81e1b1bcbdf2610U,
  0x1e1c0708f40b28eeU, 0xf0ea01f9f82809f2U, 0xf1b0c021426eb2cU, 0xf70b1b231cff03f0U,
  0x6330104f9f33700U, 0x101502f50a181817U, 0xf00a053e3cfad010U, 0xeb0318093ff2fff0U,
  0xfff8e70900ea2803U, 0x371702211228fd34U, 0x24201011e4020e35U, 0xc009054305380e22U,
  0xc94f0be9fa372f0eU, 0xf031124f460907f3U, 0xc505fddb29f3da2dU, 0xd3401af4201bf21fU,
  0x80ab9d012fe2bfcU, 0x4401222520f1f030U, 0x191e51ff451bf12bU, 0xd70bc625d55cfd04U,
  0xe917e808251d281bU, 0x4628d216ffe40cbbU, 0xa70bfab81e2fb65eU, 0xe4f50c2014f915f7U,
  0x10c816fbefdb3b04U, 0x6ebf5030810212cU, 0xeadb4cdd08d0ed17U, 0xefc8d60be94cbbcfU,
  0xef1000e07eac01bU, 0x1214fae1de080cefU, 0xe7e601df12feb91bU, 0x611f8d4daef17f9U,
  0xe5e5f6f8eddd1ddfU, 0xecd4fbdce7dbf23fU, 0xdbeb29f0e3e40d12U, 0xdcb5fde5e868f9deU,
  0xd3ece2c9e0caf6e3U, 0xd8e6e702e4cce1dfU, 0x18fee5e008e00303U, 0xe4ded201e2caebe2U,
  0xd6f0efe1f6ede0d7U, 0xd3dbc3e1e6e8ed00U, 0xf1acefcd8c80ec4U, 0x5ec13e2f7021d06U,
  0xf9e90ac6e6cef9d9U, 0xdbeefd07dbe1d8f5U, 0x2adede1ed0c510d8U, 0xd2eecbc3e1ebddd9U,
  0xe9f219e5dff9efcaU, 0xebf0ecf4e232f7d8U, 0x160ec7011df10adcU, 0xebc00ce7fbe3110fU,
  0xe5fad5d2e7ea0ae5U, 0xced2fc07d1d6f80cU, 0x3d1fc14f4f70f0fU, 0xf3e5ea13e6ece6f5U,
  0x2dede30dc4c226b1U, 0xd605dea5dd13eb00U, 0xf81dd1cbe5d2fd13U, 0xe1fde72210142e04U,
  0xa8e2c4b0dcc507d9U, 0x11f7130031dafaU, 0x1ceb0015f6cd01e3U, 0xd5f8eed9d9fecc09U,
  0xefd1601fbf829e0U, 0xeeeffacbf4f9f0f9U, 0xf50e13d0d4e5b232U, 0xcb29b523f904e901U,
  0xaf17c9dad1fddaf0U, 0x250bd2c7f90fe4daU, 0x1af300e124f7d7ecU, 0xcd140ae206edf308U,
  0x22190002080b171dU, 0x40716fa0deef012U, 0xe9ec1dec1219e2f2U, 0x321d5d4e2fdfb2cU,
  0xf9d9e014ed20cdf5U, 0xe005e008281af4fcU, 0x220e00dd0507e9ffU, 0xdf08e40d03f302f1U,
  0xed15e4f8371ae514U, 0xfd440a17f1f102e1U, 0xd03ef092330ecf1U, 0xef22f904f3100247U,
  0xf2d8091627fa1b13U, 0xc5f9111a0e0128dfU, 0xefeced00fe09d808U, 0xe5e8e618222aee12U,
  0xbc1eb8131703e717U, 0x1f13154f3d41619U, 0xbae0e22b2640ffb7U, 0x7bebdfbfc11cad3U,
  0xe3f2191c22edba30U, 0x1f90ec60dd9480bU, 0xcbd0f1f2d4ffdf27U, 0x19e01019e1d11328U,
  0xd0ffc3bddd60d16U, 0xe9f4ee1bf5180114U, 0xf11e0134f70aff10U, 0xde14f70116e7160cU,
  0x3fcfcbd2a07261dU, 0xe91028fd2f270138U, 0xe725fe0127d8fc0bU, 0x62d18f2d41a0d01U,
  0x3122f31a03ef1c0aU, 0x1819ffea07d80703U, 0xef07fd0e1604ea0eU, 0xe500c5030025ed18U,
  0xf01edefb2222021eU, 0x833f8290b08051eU, 0xd02700c71f14ea32U, 0xf00719f909240317U,
  0x9fd18fd26052606U, 0x2bfd0816ffd4113dU, 0xf9d13c0a2bfce0f5U, 0xe200dcfaf342cce7U,
  0xeb07f0131ee9da21U, 0xa14ecf90aebf9f6U, 0xe7220ec1e8fae03bU, 0xfc04f703f32904edU,
  0xfcf2180e09df45d0U, 0xe5dfe31cdeef0d26U, 0xd4fffd1cedc6030aU, 0xefe6c0d80b48f7eeU,
  0xeec602f506c1d324U, 0x9fdd3f9fcdfef11U, 0x16cee0d8f2e6f90aU, 0xf3e0ddf1c9f90de3U,
  0xffcf16d7ead91cd8U, 0xfedae4e1d9f3f5f1U, 0x10133bb7dec30becU, 0xf5d7f4f2fe221bebU,
  0xd3e6e8f6d7de19b5U, 0xdf4f2fc021b0cd0U, 0x2eeee81cf9ebfaf1U, 0xcef5e6dbf414cadaU,
  0xe9f8dcf3c3d2fdc9U, 0x12f7fbf2e405f909U, 0x2fecc9dbdae6ef06U, 0xe7e40105e6de2a27U,
  0xde04ead8d8f138ceU, 0xbc03defc10cbedf0U, 0x716203cefd4fe01U, 0xe313ebe6d9fce1f8U,
  0xf706f8eddbe9fbceU, 0xf1d9f700e70af502U, 0xe6f90cf5f7c8d50dU, 0xdaf9c800ed16fd18U,
  0xd0f1f7d9e8f6fee7U, 0xfd1ada20e2e9daf7U, 0xec2304dd1cf3df15U, 0xe32cf212dceeefedU,
  0x1e5f4c9dfd117d8U, 0xff0912f0fdf700f8U, 0x21cfcf2e2f5d3ffU, 0x16f2ebd9df080e23U,
  0xdbecddc1fbf718f0U, 0xdef6dbf822eaf3e4U, 0xf0bdee60de706e4U, 0xc6f7daf807f502e1U,
  0x100d03e0bdb80adeU, 0xd1d6d0f7d5feee05U, 0xfaf9eeccf10df8dfU, 0x1f0d18da0701eb2cU,
  0xdde0f4d3eed412f6U, 0xd3daf00206f0eafcU, 0x1205e017f8000cd4U, 0xd6f5b7e316fff0feU,
  0xf31405e10403fed2U, 0xd504faf3e71edf09U, 0x390dd3e3f512ecfeU, 0xd0d0509ddf3f70dU,
  0xd9e8f6f0cc0917f2U, 0x9f1a1406220701daU, 0xfe180918f7d7ee07U, 0xf415f4fe1e2dd9f1U,
  0xe4ead2e6f9da0d08U, 0x12119c21df3e203U, 0x2c2228eecd11b511U, 0xd8d2db10ec333020U,
  0xc228f4e3f4161705U, 0xe519f13534eef5f2U, 0xd00410f72107b120U, 0xf6171cf4173bff04U,
  0xd5fad2d21301f112U, 0x411112050ad31206U, 0xe6d317e635341f07U, 0xd2c0e0d7e809eb0cU,
  0x2f0ce13fb00d90eU, 0xea0becda2ac22bc6U, 0xe81702d800fab922U, 0x31ae41817fad912U,
  0x14170ff7c8f20904U, 0xf110f9f71ad0020eU, 0xecd222f10310d702U, 0xfafddf0d1210f311U,
  0x1af3dae4f7d9e5f2U, 0x2311f2ec043ace06U, 0xf2faf8e726f5f709U, 0xa1a1bf6f3fbffeaU,
  0xc0d17ed2d4136f0U, 0xfd0df91df5ec060cU, 0x21ef07e0f71d0c1bU, 0xfe14fd1f1400000fU,
  0x1efbe3f0082805eeU, 0xf3f6edfeff0cfed4U, 0xd1b0fe03d140323U, 0xe819fa160efdfa17U,
  0xe50800f0250e0c0fU, 0xea070000001c1f04U, 0xed1c25f0e9ea20eaU, 0xf1f736e7c5190df6U,
  0x16ebf0e3f7080ff7U, 0xc6e21ce8da0508ccU, 0xfd111c36e703fefbU, 0xf6f4f6f5f3ec18f1U,
  0xebfdecddfe0ff0d6U, 0x11fdebe8dd363d18U, 0x132f08edeae60fd0U, 0x1cef1704ec142526U,
  0x211be6e8dcd00cefU, 0xdbf0073cf4c6f902U, 0xe8eefb19d50804eeU, 0xe2e6e11f010fdee2U,
  0xc3f9e70ed5cb0de7U, 0x8f6fe12ea083affU, 0x170018e7fedb2c07U, 0x7041019f40ef8e5U,
  0xee2bfbeff8f92ce3U, 0xfa02140c0fd2fcfcU, 0xeaf5e40bddf314ffU, 0xcf1606ee090efc02U,
  0x2cf0f509efd418e2U, 0xfae30df5f407f11dU, 0xead4f9eee8dfd9ddU, 0xefe8e6f0ed18030cU,
  0xf405f7ddd5fbe0f3U, 0x26fecae1f9e4f8e5U, 0xadbf2e3f6dc1e09U, 0xf8f1eff70cf71ddbU,
  0x1c0a06d8e2e610d1U, 0xfcf1dbdfda00200fU, 0x30ededed7fc06f9U, 0xefe107e60b1b1c25U,
  0xd6d20acce403e7ecU, 0xfdc5f81029f201f4U, 0x20eedf0cbff10e08U, 0xd2d6d201260a14ecU,
  0xfcf4f8e6faebf4ddU, 0xfddffcf9f7fdfee4U, 0xeffedeeafbfe0ff0U, 0x80503eb0608fe15U,
  0xe3e809f2fe0afaefU, 0xe4edf30714ffed03U, 0xf4fbd7eae1ecebe0U, 0xe7e9f0fc12120ce8U,
  0xfc02d809d4c5dce7U, 0xe7e5fafdfff4e4f5U, 0xdf6e5fce404d612U, 0xe1e2fce41bed0b04U,
  0xe1ecfbd6f8101dfeU, 0xf6f32522fe211302U, 0x4013fefe0310f106U, 0xe711dde819f81cf7U,
  0xff004efbedd806e3U, 0xfdef0c1511fdf4f8U, 0xfa1cddff2feaf515U, 0xc5ff181c0ffa2322U,
  0xddfe01ff0a24f803U, 0x1608cc012a04dc01U, 0x300a15dd14fa2b41U, 0xd406020645fb0204U,
  0x2f92be7f0e607fbU, 0x191a08f2ea17f908U, 0x302500f2e407f7e9U, 0xd7cf22ffe7051f01U,
  0xdf080300012a1b1fU, 0xecf4f348080c18beU, 0xc0f06e30801f711U, 0xee09d8fa1716faffU,
  0xe160feff604fa0fU, 0x21092b0e0dc5fcedU, 0x13e5fdf420181207U, 0xdae41debfeecf805U,
  0xeaf902edfdfcf9ffU, 0xd2f10a080dda3d00U, 0xd8f0e7d1db24d908U, 0x13f8f11f2107f217U,
  0x709f3def807fcefU, 0x1fff607fcdf0cfcU, 0xfe03e71502e611feU, 0x418f1ff1ff215f5U,
  0x20e400fefee6fd0bU, 0xfaf8f3020800fe09U, 0xe1eff40e10000901U, 0xf5dcef09f703fadeU,
  0xfffdf433fd12eb0fU, 0xe00f8ec131aecf4U, 0x200af1f8e01d21f6U, 0x310148ff32fa280cU,
  0x1f711ef00f320ebU, 0xf9081a31fdf31408U, 0xee04f543070be6ecU, 0xa10e6f3fd03d8ffU,
  0x10af505eae82aeaU, 0xc1ef8eafa100d21U, 0xfdf923efe2f0db20U, 0xf2f5d923ec25f8f1U,
  0xfe0ce5f2dfc221fcU, 0xe21b08d606efe6daU, 0xcbea1f2a01e8d329U, 0x1f072afde7f9140fU,
  0xfaebd6d0ff0c07f0U, 0xcf804c91320fa05U, 0xfee12acedd0dda1fU, 0xe915b825ee3ee2ecU,
  0xf517cf15c6f31afeU, 0xf10c07f8e0fce6d3U, 0xea1af0f80f13c519U, 0x1426fefaeefade05U,
  0xe80b06dffc0300efU, 0x2ecf70303e50743U, 0xf5eff6111903f3f1U, 0xf8feb9fcea4bd8e4U,
  0x1e00909f2f2f5ecU, 0xedf4dfcef6e3c8dfU, 0x10e9fef818f3daebU, 0xe402f636efdae9e2U,
  0xf3fa08e0f2ff051cU, 0xe9f3eb2e00f51940U, 0x4fd2a0c0bdaef10U, 0xf8fe03eecd23ff34U,
  0xf9e902e0fdece90eU, 0xbdcf20026e607f0U, 0x12eaed01f4efeffeU, 0xd401cb2700fb04efU,
  0x1f09dfe70afef002U, 0x13fd0a1ffd10e5e7U, 0x1330f90bddf00ef1U, 0x10f0fef8e1f91832U,
  0xf26f504f11e0a13U, 0x2ae4eaf60debf3feU, 0x4e1e4000b14ff21U, 0xf5f1eae01821ee16U,
  0xfafa1b0811fcf3ebU, 0x13e3fccaff04f4fcU, 0x2ffe309e61cfddeU, 0x18fc230aeddd0612U,
  0x14f300e5f8f02fefU, 0x27e20a0d06f705e8U, 0xf8f6eb1902011501U, 0xe2e0d6edff1cfe0bU,
  0xfbe91dc9f2de0beeU, 0x6e403dcff17050eU, 0x302a1500f018f501U, 0x2df02ef3de0b3a1dU,
  0x113fe40df9df1f11U, 0xfb131205f7b925e0U, 0x360f0517fe141dfdU, 0x81514faf40efdfcU,
  0x9df0b090501fb0dU, 0x2d082a1f101bf809U, 0x38f2f0f4e8f5f103U, 0xfbed2022eef304d9U,
  0xf318fcf902fa2aebU, 0x430fff19f7ff12fdU, 0xfaea0710e304ff33U, 0xec20f8f7dcfa0dfbU,
  0xebd8f2de0ae603efU, 0xfef0faeb0d100a10U, 0x6dd0cdde9f3ba13U, 0xe0170dfce80eedd4U,
  0xddffedefeceb23e7U, 0xca0acf1120dfdbfeU, 0xdd2ae3f311f6d910U, 0xe9f607f7f5fe02fcU,
  0xee11dcd08ed14faU, 0xf50204f815e1fe03U, 0x2e5eee6d613e32bU, 0xf3faf3fbcf0cf4feU,
  0xe5e0fcecf2f8ea09U, 0xfbe5efe9fce00abcU, 0xe30e27d32bfbe2dcU, 0x52ef2000dfc0015U,
  0xe0fc70606150403U, 0x614ea13eef6fbfbU, 0x1be216ff0c050608U, 0x1d0ef911f8f805eaU,
  0x10f004fd01f30c07U, 0x3ee0107f11e1439U, 0xdfea1ad9fefb0907U, 0x9ff05090a06060dU,
  0x2df6f512e8f02e00U, 0x250536ed08c610fbU, 0xdedc0b19e604e110U, 0xcdfdd228d810c2e1U,
  0xdb0e08070aead510U, 0xf127fee6c8e9f50cU, 0xfa1b09b909f3f4faU, 0xa25fadac1f7fdfdU,
  0x45e82ad607031506U, 0xef02eaf8f3f40bfaU, 0xe9e30ae2d6fcfce6U, 0x505d9e1f612e6e9U,
  0xf018e703ebe0e516U, 0xc4f319e0fdebf6f8U, 0xf5fff1d30de4e004U, 0xe9ffe6d4efe32be4U,
  0xf4f905dcf7e827e9U, 0xeeefdbedefeef8d8U, 0xe70617f6dc0afbf3U, 0xd9eee5dd03220ff9U,
  0xe7d9f7e8e2d9e611U, 0xf4e4e5dafae5f7e7U, 0x9f1dbdfe907e0deU, 0xf701c4ece21ee1edU,
  0x4dc00dff2f91ae6U, 0xfee5e4e6e4e435ffU, 0x91f1de101d7fbfdU, 0xf5f1ebdf18263013U,
  0xe90be7e5f8fc17fdU, 0x16e3cf050e0ff502U, 0x14f502edeaf3f610U, 0xc8f6c41af6f21bedU,
  0xeaf4f6ef19f0c7f7U, 0xeaf6f1330b24270aU, 0x3846c91717e021f1U, 0x2d0d05f5e9e55629U,
  0x18fcfb00f72910fbU, 0x3cf0172a50e611f4U, 0x18110921060d0000U, 0x14fafe2d324b0ffaU,
  0xdf16dcda033cd506U, 0x4d3f0f2e1617f6e6U, 0x614b0127234442f1U, 0x43054d14ecfd4335U,
  0xef2511150a065ef0U, 0x1f1423411dda30b7U, 0x2a012d1416351432U, 0x102af9123146ea16U,
  0xc04dcddf9d5f51dU, 0x5f292c0e1f351608U, 0x42281503f527e3eeU, 0x3142722d22a1217U,
  0xe23adff315064ee9U, 0x2d2a0d520207f9cdU, 0x1182b24fa3bf251U, 0x110716ca0d2434fdU,
  0xf4f509e71beb0126U, 0xff100ae113061809U, 0x1e2e15d4f6131efcU, 0xefd71532bbfb3408U,
  0xf304bcfc0a3c0824U, 0x1335eaf556ee09c2U, 0xf82026050929dd47U, 0xf2321301f4241cfbU,
  0xd41def0329010214U, 0x2c051a4821f202edU, 0xa0af83a48ef0cf5U, 0xe1c62b0f0e092f25U,
  0xf427f32c22471c49U, 0x22df0109f9d44008U, 0x405fded1e29ef24U, 0xf6e806272638291cU,
  0xfd0bf53b480ae922U, 0x1c00fff6dfef210aU, 0x610e2fffcede0e0U, 0x13ee14ed24fa1713U,
  0xfffe44061310f60fU, 0xf5f30e0c44133817U, 0xf4dad3dddfe3f0f8U, 0xeefcc9dff90b1b10U,
  0xfce7fd1df9d107f6U, 0xfae7e7dfefedf9c5U, 0xff0c07f5fefcd4dbU, 0xef0108e7ffd80b11U,
  0xf3f0fff41a07ffeeU, 0xf3ef0b0ddf001017U, 0x2d9e6f8d7faec01U, 0xee0dfaed0c0d06f7U,
  0xf0d02f4f3071812U, 0xa0c0afbfde8f710U, 0x10fcf809e4efedfeU, 0xf3ebfbedf80801fcU,
  0xdf4030cf4fbfc06U, 0xf6fcf8f5f7f7f804U, 0xfedefbe7f8f7e90bU, 0x6ecf2eafef9fc04U,
  0x50208281efb1506U, 0x9120d0ff2c8f4edU, 0x140ff7131c0602faU, 0xf8bf0ae729ff2809U,
  0x71a01081d07fb08U, 0x1dfd000eedf3022aU, 0xf7ee09e60a041f16U, 0x3e90b18fd141205U,
  0x321a1d0f03131908U, 0xec01daeae2e613faU, 0x181602faf81d21f5U, 0x27ee28f01aff0235U,
  0xf30704ff01f2060aU, 0xedf8161914231b15U, 0x16c504e9e70e0e02U, 0xfcdb0ef90f2a1202U,
  0x21f81931fe1f2500U, 0x22e1271025261b02U, 0xf5ef0c2228f6e6faU, 0xf223f21428e40ffbU,
  0xdc220ef90c0a2627U, 0x360df8f5e636fb40U, 0x11f3f214fa142529U, 0xf6fff61b181b1617U,
  0xfa1d07120613211cU, 0xf301eb00f4e21826U, 0xfbfb01f510e80bf2U, 0xe6f1f8f81b06ff11U,
  0xe5d519f003130bf8U, 0xedfee0e62325f501U, 0x33ee07f1e9ec12eaU, 0xe8bb0419ed0710f1U,
  0xe80e07f413f9fcf0U, 0x19371f18fdfdfce8U, 0x918e7053a0901c3U, 0xcfbd20defbf61702U,
  0xf50d04120508f902U, 0xf6cbf41410130204U, 0xdcacf5eccf26f30eU, 0xdccdee0a1b55020dU,
  0x12feedfc04eb0ef0U, 0x42393ff5fdda1723U, 0x1f01eef41d1cdebeU, 0xf6ad1b1fdc340115U,
  0xf20df1f7f0070104U, 0xf13cfc3613e81ed2U, 0xfcb603ffb302d53dU, 0xf8d802f31a20161fU,
  0x11fcf4dfe7bff1f8U, 0x131816fde5fafc31U, 0x23e73005ed04e3c7U, 0xdfc9e918f5510741U,
  0xe31dcdb4ebfd2200U, 0xf41ce8f832cbfbfbU, 0x8b3ebd6c319ec38U, 0x9d90a0e253403fdU,
  0xfee0efbeadd1812U, 0x23ff0ff7f2dcfa33U, 0x14240bd2121f0917U, 0xd80c1024f63a0336U,
  0xda12dabe06011bd6U, 0xfe05dd254af9f201U, 0xfce4dec31410e928U, 0xf41f0ef83c3d0001U,
  0xaeb0f0efcd7220fU, 0x151b1e1204f20d17U, 0x13fd08093603d309U, 0xe622010611f91309U,
  0x61912f3fd1602f4U, 0xafffd102b010411U, 0x381501000f0cfd30U, 0xd821292c212222ebU,
  0x19efef13eef10ffdU, 0xdde5f8f92cd720f5U, 0xe1d81600eae8edf7U, 0xda07e807fb11dafbU,
  0x6e5dff00ef2f413U, 0xcc05e8e605ffe50bU, 0xe10f80409def5f0U, 0xf90fe61ef5e517ffU,
  0xe5d701ffe7f00fffU, 0xd0f6dbe4e8cbe3c5U, 0xf803e4db0407d6f1U, 0xe80b01ebd0e6ef19U,
  0xfde7eeffe605f401U, 0xebdff1eedc04dde5U, 0xd20e0100f7ece6d7U, 0xd8f2b6fff0ffe0f9U,
  0xfe1114e1fff8f803U, 0x4fc0beb2dfbf900U, 0xb1a02eaf2110be5U, 0xfc1d0e000a0a010dU,
  0x2f008f602fcec06U, 0x13fd1d1002f513e8U, 0x13e8f7edeaf9fef6U, 0xf8e1040c1e0d0110U,
  0xb222c2c1112fbf1U, 0x1629263112f90af3U, 0x1e1108134512f5e8U, 0x390cfff610f90800U,
  0x31170415201e0d25U, 0x14e60c1b01051c3eU, 0x3fed1f05de231a1fU, 0x4d4114a3315f911U,
  0xfd0c271c1333091eU, 0x3817332e0df92903U, 0xf20f6261c2824dbU, 0x316290d291c3c21U,
  0x253a31261d251c2cU, 0x16d803f91f110d17U, 0x19ee0f1be8303930U, 0x5eb193b0e4227feU,
  0xfa161731152900e8U, 0x25080c4efa2d3f35U, 0x201b173b50f416fdU, 0x1d1f13e8fe122007U,
  0x2def1e021a1a2816U, 0x8f61a10eff0052cU, 0x181fee30f5f74939U, 0xe701fe301c17220bU,
  0x7fa141908012f00U, 0xe1f9df0813fa3854U, 0xbef071c0de10200U, 0x3624190c2923f500U,
  0xd307030c271ff6U, 0xe10b1df1032edc2fU, 0xb1f071d060648dfU, 0x280112120e1127ffU,
  0x28e020e3d6ed07d1U, 0xdce80b11f0090f3dU, 0xe02226e42ac9190aU, 0x11c41013030f02f0U,
  0xf5f002ecf0f22610U, 0xf71c16eaf11104e4U, 0x12ede60a1ef3f926U, 0xff12f82903fe2714U,
  0xdbffffd5e3d302eaU, 0xf8f8030d061af614U, 0x90f07edf3fae503U, 0x3e40b1ad72dfe0eU,
  0xf70002fd01f8f6f0U, 0xc730222102062dceU, 0xe7ec000d12faed08U, 0xeb01f4ded2fef90fU,
  0xcdf1e3d3eef601f7U, 0xf013fef4ff1ae401U, 0xf4fadfedec07ffe8U, 0x13f9f213c91cee05U,
  0xd918d3e1ecf0f310U, 0xd3ec1b291bdd08d5U, 0x4fae20ae80ddc19U, 0xeeddeb030d420704U,
  0xe3e1e4f2e3f1ccfaU, 0x1e0a27e0eef30b2fU, 0x3b141cf60500c0cfU, 0x9bef706cb14ff51U,
  0xf917e0dee82d1bfeU, 0xd8e2f5306db40fc6U, 0xd7b5e7e7df2ce510U, 0xecd418f53c1efa30U,
  0xf7e7e408ec030f04U, 0x23240a00eff4f722U, 0x3f50f29c8f905b7U, 0x1fe31108fc14fb1aU,
  0xf12ae1dc08f312e9U, 0xd508f3f70fe8ebfdU, 0xf3eddcfedefefb18U, 0xeceffffe2b271afdU,
  0xbe7d5fff3e9fedfU, 0xddee2bdcbc23a3aU, 0xebec10e4dff7d9e8U, 0xfb07e227f920f510U,
  0xfeeff4e5dfeee7e8U, 0xc705f30b0d1bf3eeU, 0xebded20300e01ef3U, 0xccedfb19f503e7edU,
  0xe7f7dcdcefeceafaU, 0xf4e7ebd4f3f9cd08U, 0x9f5e2f9f8fcfbc2U, 0xe5f0daeff206caf5U,
  0xfff5ea07e60ce2d9U, 0xe4fb05f5fbd8efdaU, 0xd4f0f114cc0cf4feU, 0xe0d3f1ffeb1ad2dbU,
  0x1bfb21eaeff60608U, 0xf82cfc151be2e60cU, 0x1028f0f014f3fffaU, 0x170e26fe02fc1639U,
  0x2fcec011703f0f7U, 0x2ec110c15011723U, 0xd18f3f3f40516feU, 0xe3fa132d061307edU,
  0xf819ef281f48fd32U, 0x252307130ff11cf7U, 0x19110426341125b9U, 0x3111b0606ea2251U,
  0x1d102e3126281d0fU, 0x18c620212aec1f0aU, 0xfae30404c633e709U, 0x14be04201d340d0eU,
  0xfaf9f1feec20f11dU, 0x3c1b5721351e1401U, 0x1c12dae8140d0ac3U, 0xfed51af60303f306U,
  0x1536fe150af51a08U, 0x2018040e06f4210dU, 0xdad30723cc1be85cU, 0x11d20ade072a1b21U,
  0xefafacdf2fc00f2U, 0x1afb2c10151f1e3bU, 0xb010e001a0b0435U, 0x70e081de3362204U,
  0xed11e403f5121513U, 0xf81c0aef130205e1U, 0xe51f150d38efdf3fU, 0xfd24f640edf114fdU,
  0xc0f0ee4e31217daU, 0xc3eb001b0a100850U, 0xdbfb1c2522d5f537U, 0x6040f07e24a2103U,
  0xfaeaf00603fde90cU, 0xe011e5000cf0ebdcU, 0xf0200cf03deb100bU, 0xf9130b3013df0707U,
  0x29f1080de7fd3addU, 0xd0dced0fe90a1d15U, 0xf809151806fc48faU, 0x5011e042128ef12U,
  0xeef003e6ecf713f8U, 0xb2f519efdc010af4U, 0x8fb050211cff7f7U, 0xde0b07f3eefffff7U,
  0xcf7e308e41115f7U, 0xea1504dcf3f1f4f4U, 0xfff10ff6e6ebf5e8U, 0xc90ddf20e925f1c9U,
  0xc704dde2de0a01d6U, 0xdb17e5fa03dff1f3U, 0xfdddfff9fae8fbeeU, 0xcc170beaebf2e907U,
  0xfa1ecce4d9d2071bU, 0x6fbd4f6f3d6d1c8U, 0xbf307f3ddf5feebU, 0xff05f10ae5ef0627U,
  0xc8ffdde0f612d5e0U, 0xf5f3da192eedf4eaU, 0xedfaf6dddffffbf3U, 0xe3f805fa1523fa02U,
  0xecedc0c9e2e50918U, 0x184611ed04e7f307U, 0xfc1f38d3f801d5eaU, 0xc2dff403c9121c34U,
  0xdb39d3edea03d9e1U, 0xdf6c0221803fcd4U, 0xcebcdbb8ec26ee25U, 0xcde6020a0f4df6ffU,
  0xceeafbfe06c0ee0cU, 0x2304291908e4f70fU, 0x15121501f402efe5U, 0xe2c015e8e2221145U,
  0xd6f8e811edd5fff8U, 0xfb06e2ebded4f7fdU, 0xefbd07c3ee2a0641U, 0xf6daf72a26fd1aecU,
  0xdbd006181af3ffcfU, 0xeee7e7c4e5fb1308U, 0x14070e00baf5c6d3U, 0xcd07f9001d2ff10dU,
  0xbb0425c5fbf609c4U, 0x902f00a2be1c714U, 0x18c6d1f1f4f11a08U, 0xadc3cef9261010d5U,
  0xdef91001d7dbe0e7U, 0xf60ff3f6e1e6eaedU, 0xdafef2f407d8eadeU, 0xdaefeec9f5efed03U,
  0xdddedde902f4e1f6U, 0xf1f3eaf2fbebd9edU, 0xbbcdcd0bcfd05faU, 0xcfd8c4faebedf40bU,
  0xee12fcde1403fe1aU, 0xf818e5e810fb0aebU, 0x1bfaeb00010112eaU, 0x4281208e503142eU,
  0x171e00140b3624eeU, 0x60a19240a23ddU, 0xeffafa1a022dfbe2U, 0xffa1017153f000cU,
  0xe60bf5df3728e016U, 0xa0a322918f704f7U, 0x1cd9ee12261223c6U, 0x311f126d5ec2d1bU,
  0x1335fb51fa24fc1dU, 0x301818fc0f010ff3U, 0xed0f15e8e031e223U, 0xe19171aec1d0626U,
  0x1f2209150100e0f4U, 0x2b091a38060e1f31U, 0x14fcea0625d1f4feU, 0xc8eb04f2f102ff0fU,
  0xeefcff151e140725U, 0x330b041feacdfe01U, 0xf8edf510e70de22cU, 0xfffdfcf6f5095301U,
  0xefe110907e305feU, 0x7ec07f6f1f42937U, 0xe1f1ffdaebd3da16U, 0xcaf3f9f6fd4d0707U,
  0xd4f6e4ecf9e3d30fU, 0x10ae8d4e3f6f0e6U, 0xe9cafb0ffaf7d52aU, 0xfa19f7effbfc4ad0U,
  0xfddb14e803f51fe4U, 0xe409cce7f2e20d20U, 0x21519d3e6e71407U, 0xde1b1c07d815fa30U,
  0xbfe8d3f4f1fcf8e1U, 0xfa0ae20803e207b5U, 0xc11cf7ea02e5d3ddU, 0xfb12f211fce4e3f1U,
  0xe901ead4ecd22302U, 0x26fc0a1003f30517U, 0x11f332ea0213fce4U, 0xdbede80ec80705ecU,
  0xf310eb01f8f30ff1U, 0xe5e8e30bd3c7ffc9U, 0xd6e814061202cf07U, 0xe6fb10ecf818f7e9U,
  0xe4ccc9d4dae626e1U, 0x17f6e0c4e8dfe316U, 0x3ed1ad7d0e3dffeU, 0xf7f5c814d5ef0ffeU,
  0xdff5e1e4c5f20c04U, 0xb413deeffaf4fdceU, 0xe1e6f5e6ece0e8e5U, 0xd417f1edf9e3e5f9U,
  0xcd17efe5030a10f2U, 0xf5fcf9f2f5f3df1dU, 0x9f70edb0af6f8d5U, 0xf8e70e0e06ebf712U,
  0xea08fdd5cf0ff7edU, 0xdacedf2340cbfde1U, 0x5e50cf3e0ffeb08U, 0xc6dfe4063d30e2eaU,
  0xc9eff4e3cfc1cd0aU, 0x822fdd20cda10fbU, 0x91d11f0df1010dfU, 0xdeb217e400200637U,
  0xd30efaecf8e016ebU, 0x1602fb2020fc03f4U, 0x10dbe8ebcaf40612U, 0xe5bb10db2245fe11U,
  0xf9e4fff5f7d80fe8U, 0x1c0ff9fdfcf4e8fcU, 0xfa1409d6e306e5d8U, 0xf6b8f608c3f31122U,
  0xe302d5e2e3d22ddcU, 0x5240023ddf2faf9U, 0xffcd0f0bcf0df911U, 0x2ed08ed0003031aU,
  0xdafde7eefc1b0ddfU, 0x121fecf2e11105f0U, 0xb2013d5e411def8U, 0x1b02f7e0eb04ffefU,
  0xeae2fcd005f408eeU, 0xf206f1002fe6f1f1U, 0xb07032409fa1412U, 0x5f1f3d404e4f6efU,
  0xc2f2cff9c705af0bU, 0xebebd6edf708f909U, 0xe6f6f605effff3c3U, 0x21c2f3f502fb1305U,
  0xfdc5ee05f4f7e9f8U, 0xf7df05f72c0902dfU, 0xeeb1e41ad1d00aefU, 0xe7dbed0fdeea0006U,
  0xdb0d04d6192bff23U, 0x2b2129f922dd08f4U, 0x2017f4b0f101f3e5U, 0xe2130c21eafc110cU,
  0xf10fe82bfc3ffb03U, 0xe9f4080818e71febU, 0xfcf714dcef1dd707U, 0x16fa1b06381bf72dU,
  0xf919f00f3e16b629U, 0x301822302bd43710U, 0x1202cc2b4a1218dfU, 0x10418fce2f60306U,
  0xde060d250620f515U, 0x11ee041eeb0814e4U, 0xf4e303faf431e507U, 0xfa02180e0a013316U,
  0xe11201060d20db00U, 0x908ef51f9f43c17U, 0xfb250649380501e3U, 0xd5e50a00f517f1efU,
  0x18f31d01110fe20cU, 0x2daf314d6f20114U, 0xf2fdf7d9e105fb19U, 0xdc04f71af9fe471cU,
  0xf6f1fcf13004ede9U, 0xe903e9f1df113643U, 0xb0d221502fd15e3U, 0xd3d12403055cf71aU,
  0x5fa32f70e121208U, 0x10d00e0430ca05f7U, 0xafeeecd7f5e8e9U, 0xdee6fafefd013de5U,
  0xdad7f2cfe1ed04f5U, 0x9e0fdb5f1fdf4f5U, 0x2711ece8efe81e01U, 0xbacc14fccd081b0cU,
  0xcafadae7f3ea10e7U, 0xef4e02cddb409cdU, 0xd9d2e3d8dee8ab0dU, 0xcf1003aefb05d2efU,
  0xd0dadabae8ede2e5U, 0x28e90de80fdbf4f7U, 0xf8e405d7fef1dceaU, 0xdecf192a970cfbc3U,
  0xd60acfc9e4ea15eeU, 0x151bfedbee9ee0acU, 0xded1e3f5eb16cc19U, 0xdb081f02bac3e6fdU,
  0xd2c8e6e7d0dd1400U, 0xf1e4d6dce803f906U, 0x3190ae3ddf8faf8U, 0xf9d80803e1102611U,
  0xdbebe3decce8f0f4U, 0xc506d6121eacebe3U, 0xbef903d3c1f1caf6U, 0xdee3dcee0ff0dcccU,
  0xd7f9e902cedbf8f8U, 0x1afdff05e6eafdf7U, 0x1e21e1e6e7f9e3e2U, 0xf42c08e1efdef814U,
  0xb302dcd7e5021608U, 0xeff9f91c0edae1e3U, 0xc01f0f1ff11c90eU, 0xeef5ee082a15f901U,
  0xf10503dcedf32cfcU, 0xe1fe8001c04f920U, 0xa08dcf5080b2df9U, 0x3faee13fce71007U,
  0xf802f61bfb1317fdU, 0x1a22f802e0f7e1c8U, 0x1618f3d6fc1d0bf4U, 0xf9011aef3107d700U,
  0xf0f0f0e6e1e20af4U, 0xf9f905ecfcd7e10cU, 0xfd27d1ef011507d0U, 0xfcbaf2e115d70bcfU,
  0xed05ef06f3f9f004U, 0x24f0eb01c7f60222U, 0x27bd10d2ccf812f2U, 0x3ee103eaf1f502ecU,
  0x2e4260bf1ec0bfdU, 0xf616e3e6f0da1c05U, 0xf611ea14e80d0cebU, 0xfdecd8ed1cf80a05U,
  0xd7ed05f801bcf0e3U, 0x23e9ee0000fc0504U, 0x19c5e00deb011cebU, 0xe0ebf7dbccdaffecU,
  0xc9dd16f1ea00e9eeU, 0xe8fefce011f5f806U, 0xe8eef1f4ec01d706U, 0xf2ec12caff0de7d6U,
  0xfc081af8f500fafbU, 0xeadf0fe1f7e7e20dU, 0x1c02fce40f0b1afcU, 0x11f1f7e0e0f309fdU,
  0xde10d3eb0b19ea16U, 0xc230e24061c1100U, 0xc0fe10bf8fa0af0U, 0xd5f30913f6e00e2aU,
  0xd01919e901120d0eU, 0x13ee060308ef34cdU, 0xd31000fbfc16d11aU, 0xf600f90d2404f220U,
  0xd00ee5e63414af0eU, 0x2700111c151b1d24U, 0x2ff1ed36162408e7U, 0xe515fcfceb12fe09U,
  0x3209eb3818f2091eU, 0x600262607e703d4U, 0xb81e0c011420af0cU, 0x21dc1c27f10c1412U,
  0xc91cdc181a27e014U, 0xfc0f033e151d2a1cU, 0x1318d1430a213cdbU, 0x24f60512f21302fbU,
  0x1f191d1b0d0e190cU, 0x18faff3100c62713U, 0xd3f20309f516f008U, 0xae20ae1eb1f3f1cU,
  0xddede6fb1321e200U, 0x31eefd19f414040dU, 0x3d2ffb0c0b2b0cdfU, 0xec960620eaf4252bU,
  0xa051503faf80407U, 0x3f04083920c80fdfU, 0xedca21fcc2f00710U, 0xebd816e8fd091202U,
  0xcfc9f7b5edd6eecbU, 0x28f81bcef0eff903U, 0x15f702dab2e403f6U, 0xbda6ff0ce50509ffU,
  0xcc4aefa9f2c034e8U, 0xf110d51afeb9d7d2U, 0xcaa5f6e2bef3c035U, 0xca2602a6ceea1ed1U,
  0xc7b9db8dd8caf9daU, 0x1bffcaef5df0e1aU, 0x140516b6e0e7bae0U, 0xa3c7d913b33a13e8U,
  0xc6e3cec9c7f2ded2U, 0xec0acfef1590e6bdU, 0x12bdf5d7c4d9d612U, 0xe6f6c8e8e7e6f4c2U,
  0xe1fcda81d8ccd0d9U, 0xfe07fbf30deedd05U, 0x1d10faacd8e6fdf8U, 0xc1d62807b624120bU,
  0xe226d3e4d0130ddbU, 0xebedf4081da9ebc9U, 0xe8fde9c2d91ee2f2U, 0xc9fce2f15812d8efU,
  0xf7d80ed1d8eaeffbU, 0xf0f1edfbf9f00533U, 0xb1ad1dd101af8e5U, 0x19cdf5ffe404382eU,
  0xe5fbd701ef0b0df9U, 0xdd04f5101ce627d5U, 0x11eef107e2e1ddeaU, 0xeed8d0102bfdfae2U,
  0xfbe1f4cb0fe2f406U, 0xf92b05d507070f2eU, 0xf52706f7ed3a02e3U, 0xd4fd13eb08291623U,
  0xccf200fff11733f0U, 0xd80d16f402eb32efU, 0x8bdef23ce0f11c8U, 0x8d2f1f7151dd601U,
  0xf011e2eeee00e71fU, 0xfd25f3ffea1bfd07U, 0xfdfbf9f30b25ead8U, 0xebbb1ef6f2e0fab0U,
  0xfcfaec12190105faU, 0x15dd1305e8d92ad7U, 0x16ea2744f219eef6U, 0x24011ff4f51a1c0aU,
  0xe403ef0d07ead80bU, 0xe717f119052f0e0aU, 0xded4fb0bfb0df8d0U, 0x15eec9e91415bff1U,
  0x8ef08021debfb12U, 0x17e409f009190415U, 0x10b0315eed808d9U, 0xcdbf4e1d8de1b01U,
  0x32fdeef001faf1fbU, 0xe207ebebeedb0816U, 0xe6f700f500efffdaU, 0x232e72f09f8db0cU,
  0x1e10ee9f5ffcaf3U, 0xf3f8e1342ce0f8U, 0xf6e8fdf2e6ec11ffU, 0xdaf61827ffeaf3U,
  0x80eb10b0b1aed1cU, 0xfffe034312e50c00U, 0x1fedf3fdf619d7faU, 0xd41df3022707021bU,
  0x10050504110b1dU, 0x241b002c1c05f1U, 0xc20b0de3ff13ac08U, 0x13f71f070bf80105U,
  0xdffbf7081d1ab807U, 0xc041b3705ef00feU, 0x12e4c6130f25fb02U, 0x181af7f4eedffa05U,
  0xfef4ef1f27fdc02aU, 0x25f6ebf6181d0b00U, 0xdc1a02ec17f5b53eU, 0x20181a12fb0bf81fU,
  0xd31101fa0e2ee1f3U, 0x261e0a2900f50a10U, 0x2e02e612061c1edfU, 0xfcfd20ffd9e1f61aU,
  0x1436140723ecdf19U, 0x27f219252a130600U, 0xed29fb2cf817ea1bU, 0x1ea110b12311615U,
  0xba10f8ff070bd7feU, 0x53242d3e230d193cU, 0xae8ecee15002e05U, 0xffdf0221ff30ebc3U,
  0x211c192a0c0b1b37U, 0x2af1fe070adaf5f6U, 0xc1efe00cf425ef44U, 0x16e83c00c90224fbU,
  0xbcf815ee132324daU, 0xf0cd0ee1f5f81b25U, 0x2be009f6d41bbfU, 0xe99729ff0c100701U,
  0xf80118e30ced1b1bU, 0x4f6eb1200c6db3aU, 0xe5f20d00eff20d23U, 0xe505f2dbd5ee34e4U,
  0xdacc28f100d1f7bbU, 0x24e1e6bbe6fce60bU, 0x2c2d19d7eced0be8U, 0xeecf470809183e0eU,
  0xe22af1c1e3fb23f6U, 0xfb08e80e1bb5ede4U, 0x48c3ca2fc6e21d15U, 0xc8e4f9dcfdf5fbecU,
  0xe40c24cef8edfbe0U, 0xecf8dc1d2004e822U, 0x1a2dfbd225ebfa0aU, 0xede92c2ecb0e4e25U,
  0xc20bd304e2343ae2U, 0xeaf62125010bcfU, 0x2202ed1de515fcf2U, 0xde13ed443427e8f7U,
  0xd409f2ebf7e3e40dU, 0x4120e38ee07fd15U, 0x8131ee51c06fcf1U, 0xf01a0511ce220e1aU,
  0xeaf9d826db2f4c06U, 0xbd1e0cfb3dafffeeU, 0xd8dbf21e1919c91dU, 0xe500f935301bea04U,
  0xee3e4c507eee210U, 0x2424fee9f7f70be8U, 0x11e8d8f5f521d833U, 0xbd01042cdf0d03deU,
  0xd0110eeeeb0811e2U, 0xef13f6241ad0ffd1U, 0xb9f10feb05f6e7fcU, 0xff15fcfd26000200U,
  0xfe0a07c9ddcaf1f2U, 0xef2604f021fe0103U, 0xdafa0edc060ef1f2U, 0xf6f2f8f3da21fdd8U,
  0xf2fbdf1104eb030fU, 0xeeecfeead6d010ceU, 0xe8071306fb0a07e9U, 0x905fdfcd5e80c19U,
  0xff7090fe204f9f2U, 0xbf600faf7f82616U, 0xe7e00203f9f9d0e3U, 0x1012fefb1028e601U,
  0x14ef200a0fe5e708U, 0xf8e7fbe2f227fb0fU, 0x40e1df05fde6f9efU, 0x2ec02fcebfafe06U,
  0xee0121f126f8f9e7U, 0xfeebeaf6e9040b29U, 0x1f3f0209180206f1U, 0x22f127f80a023a0bU,
  0x29db19f1e61b12e7U, 0xddfdfe174925f5fbU, 0x26f1e10506effde0U, 0xebdf01171af00801U,
  0xfdf4e4e71104d90cU, 0xf7f305fc0300f9f3U, 0xf10f30d03e2efU, 0xd200eb103d380f27U,
  0xf8f50802f2f30514U, 0x2ff04fd141af118U, 0xfcfe030406fae3fcU, 0x1916fefd1fef07e1U,
  0xafdc6fc0305f3e3U, 0x24090ddc1c1406f5U, 0x1633ffe50d09162cU, 0xcff5260007c31508U,
  0x27f5f101030603f5U, 0xf603fe1227211feeU, 0xd00a02041410e5f2U, 0xe220419110c051dU,
  0xe12bf0294210dafcU, 0x2b1b001af20210f7U, 0x13e5f513090effeaU, 0xeb11f6033d02fb1aU,
  0x2305051b04001021U, 0x4901081e181208fcU, 0xe610fd1926130d25U, 0xf01e1b0de50c25ffU,
  0xd804f91c423ee71bU, 0xdceeed3cf30a18ebU, 0xe3d5f72a4315032eU, 0x1d160b0d14e6f2edU,
  0x33e6220420050f1dU, 0x5f520ede3302329U, 0xe41c011735150115U, 0x1b00f11ee8d9230eU,
  0x11082002121bf2dcU, 0x3fee0e20fc0d02c4U, 0x2003073a28dd321dU, 0x1ee7371ce6c60fb2U,
  0x727062d20034aebU, 0x11200125d601e800U, 0x536fc23fe17190bU, 0xf5210d1cbbfd1fecU,
  0xf0e207d904e10dc2U, 0x3e31af32819f902U, 0x6022ccfe3c7ec0dU, 0x1fd8132eec1109f7U,
  0xdd0800ecf1f61912U, 0x1ef7fcf9f2d1fcfeU, 0xfa06ed3535ef0925U, 0xf82708c9f1f22501U,
  0x7f20e0218e4551eU, 0xf8d5f8083f35ededU, 0xd90214fc10d90424U, 0xfa04211eed19e910U,
  0xb809da07cb193803U, 0xe31f01034101efefU, 0xf7fcf71b020700dfU, 0x141c022f2901e1feU,
  0xfbf611f30fea272eU, 0xea1a0813fcfaffe7U, 0xf21cdaf01ffdeef4U, 0xbff6271ffe1a15e7U,
  0xf0ec071ceb110312U, 0xcb16090327f11bf2U, 0xe5cafde8dffef416U, 0xecec074d0311df08U,
  0x4fc0bc216dc003aU, 0x20e04ec2ddb2717U, 0xfc22fddceafff1eeU, 0xa8e2eb09eb1305efU,
  0xd8fde5f8f8112823U, 0x80017051af804b1U, 0xd1e506e2ff0cca0fU, 0xe704e6fc2106e00aU,
  0xae6d1f02a13f90fU, 0x92f16e92c0712fcU, 0xf0e9e8e1d413bdfeU, 0xac01e9d9061309f4U,
  0xf61507101905141bU, 0x1bfae92203f7fdc9U, 0xf32a2300f5f8c929U, 0xfcfae612eff70ef7U,
  0xf3e0e41a0307fbf5U, 0x11e707ff142509fdU, 0xdcfc21ef06e30200U, 0x1eff9160d19f1d9U,
  0x7efee2f0c12e91bU, 0x5eb0e00e8fdf90fU, 0xf63d1c2ef3dae30dU, 0x301f411dfdd0100U,
  0xf2f70c161e12e9e9U, 0xffe2e200ea10191cU, 0x2517120513f3f221U, 0xc34f52011381816U,
  0x50efaee152b16edU, 0xfff607fe52fedd08U, 0xfe30fa450bf81fe9U, 0x150b04050b0b00fcU,
  0xff1105e5ebd716fbU, 0xfafb00cc1125f1ebU, 0xfe34f11ae1f5fc0dU, 0xfaff1c0903d4310bU,
  0xfa0c03e5050b24fdU, 0x815012209e31602U, 0x2f70321f005f5f2U, 0xf6ed10e7fa151000U,
  0x2111008fbd32d38U, 0xf21efaea16f706fdU, 0x1a2ffcf8ec310dffU, 0xf51eec11eaee063eU,
  0x4220011f8240deaU, 0x2f05ff2b3d000819U, 0xe0ff01020e1e010aU, 0xf0a0cf01b19dd2bU,
  0x121205f70b060412U, 0xfd160c22100f13f4U, 0xe6cc1512113f0a18U, 0xc04080b0ec7fbf7U,
  0x3c131c1c2d02191bU, 0x230221f0f70519fdU, 0x20072011022dfaf7U, 0x11305160df81d03U,
  0x41051a2a0b3fffc8U, 0xe6f9f204ee1bf3d2U, 0xf0121133e6162027U, 0x3bf1250815d111d4U,
  0x3ece22fd39ddebf8U, 0xed12faf5cd39f421U, 0x3c2709040bdf24efU, 0x260defd4b9cf18eeU,
  0x2d124934f1242fbeU, 0xcacfec00e046dbddU, 0xcdf9220b1a0c171aU, 0x43f7100325bbdba3U,
  0xffe021e7fae508e9U, 0xc021cd6a215d715U, 0x412de92931dc13fdU, 0xec1afafbb9dbfde0U,
  0x17e615eac0d550deU, 0xbf0dcae5ff07f4faU, 0xe51125d1d7ea1402U, 0x150917f5ee2f200dU,
  0xf4d0d9f3cff1e6beU, 0xce040815261ed609U, 0x5fde10effcc1ab9U, 0xf006dbf5ecf3dcdeU,
  0x11ee1eed05ddf404U, 0xfbede3df04f1b7ddU, 0xfbe3eaeb0603071cU, 0x11f80bf7d1d81b0cU,
  0xd5ffdc01ed4f1a10U, 0xfef6120e35cbf8e9U, 0xc8d6f005fd16fbdaU, 0xf1e0f43c3201b5f9U,
  0xe9060ae50ffcef28U, 0xb09fa0ffa23db05U, 0xf0dfd20dfe02ffe8U, 0x16c90a19e204daf2U,
  0xe12ae2fa03341d10U, 0xf7e626f01df5ddefU, 0xb7e4f81cea19fb06U, 0x1907fc0928e5fb12U,
  0xc9fff4d714e90c30U, 0xc320d0c07081f09U, 0xea07d10310f618d7U, 0x9dd1effd6f312e9U,
  0xf9f6ee39202d072aU, 0x14fc00fd09ac20efU, 0xeb00f41ee41ae7ebU, 0x22f5f3f80bebf30cU,
  0xfc110e25200bbd14U, 0x181df7050f03fee2U, 0xf719f1ff14160fc9U, 0x23070f0e000a12faU,
  0xf81a07112f0a1c2bU, 0x2cf20e1c19fe1b25U, 0xf6e9011bd8221cf2U, 0xf0e4f1f601021affU,
  0xe5f41a243540fff7U, 0xf9e6ec1a1a1b2319U, 0x2b31dc290cde1bd2U, 0x170d20ec2f032711U,
  0xfe628172a122d13U, 0xf5ef0fff343e292fU, 0x11f7fd0dd50b24f8U, 0xdfeded0a330023f2U,
  0x1b420c2cf808ff10U, 0x2b130b18e4351202U, 0x328e21c03ec0ffaU, 0x2e38f8f735080237U,
  0xe321390503113301U, 0xbf0fe0c2d080811U, 0x250ce81fe40f280cU, 0x8e1ff182c2c0607U,
  0xff7f5061a09f9f3U, 0xe3eee70713020a01U, 0xefd9f9f50cf0e913U, 0xfe10f8e611f8eae8U,
  0x1ef6ed16fc1313ffU, 0xe3ffe8060c1fdb08U, 0xf33d04fe0bf70109U, 0xee0c06ea130610e5U,
  0xfdf0080fea0efd27U, 0xd8f4e3fb1629ea13U, 0xe10509e6a6e6ea19U, 0xf1150c0ef91301f1U,
  0x20ed0e03fcdb06eaU, 0xf20a08cc1016e5ffU, 0x2811e60923020feaU, 0x83710f103ecd524U,
  0x51702dbdfea1401U, 0xd701d3f5e236aeceU, 0xf40d1ae3040b0b1cU, 0x110fff1cc4e516c3U,
  0x2af8c51adcd833cbU, 0xb52f26f5c3fc04d5U, 0xebfe011629ebe7e8U, 0x28091e1d02ef9d01U,
  0x19f60c29d0e019e5U, 0xe8f0e402e52003f3U, 0xfa091522d8ec0618U, 0x26f00113071ffbaeU,
  0x22bb17d510b311f1U, 0xe51b02f1bf02e52bU, 0x2011fd2c09e01303U, 0x1017fad4cac9e9f1U,
  0x1ee3100adce2fbcbU, 0xbcf6d9bfdb1d00edU, 0xebf2f4f9b9e600ffU, 0x14e703e7120408e8U,
  0xf2d510c6dcef19d1U, 0xfceae8fffb1cc5f1U, 0x3003f83b04da13bdU, 0xa02dfc8e3d4e6eeU,
  0xeee4f6c6edc70fd4U, 0xdbfbdcb5eb21cbedU, 0x23f60eb2d4e6f010U, 0x13071505eae81200U,
  0xd6f8cbdfd3eaffd1U, 0xabea2007080c19dbU, 0x11020715f60535d8U, 0xf9f50dd0ce04dd02U,
  0xd5edd2a6ecbce414U, 0xf421eacf1a1cbacaU, 0x1f6feb2e405d9f6U, 0xe5dd1706bad203ecU,
  0xc8fcb907e3f0fe07U, 0xe119050c20aee3a0U, 0xce02f3fe14fecc04U, 0xfa0a1402ff0dcf0bU,
  0xcee2e2c6f3ccd509U, 0x30916f3edff1b29U, 0xddd116dff9fcdee4U, 0xc5f9f8e3c316ee15U,
  0xc4f3b5f0060cfcffU, 0xd7fa1ae12ced0c9cU, 0xfaf5e8ec2de9d012U, 0xfcdffcf21cf31023U,
  0xf4fbbcb90eefd118U, 0xdd0903e204150d1fU, 0xdfdee9e20f07e2e9U, 0xe633d314b514d9e8U,
  0xdfac2afa1ff007U, 0xfcebd505dc08caU, 0xe5fb011c1117d0e7U, 0x16fc141022051afdU,
  0xdf11f6ff4a15d91fU, 0xde00051f112a0eeaU, 0xf901e404202e090eU, 0x2630effcf4f2f8dbU,
  0xf7fcf5381a230128U, 0xf61724defb001322U, 0xe14301360b0debcfU, 0x391ffc321ef7f306U,
  0xe524e9203d301c21U, 0xe6050c29112b2121U, 0x1004fd4119004b11U, 0x33342323192b02fdU,
  0x8083b16361c2908U, 0x302115142655f140U, 0x52e0d2f1cfa22ebU, 0x221c322108e72cf8U,
  0xf535e0f91e030a0aU, 0x29171c31161c1718U, 0x12da1b154d113007U, 0x1b010a0d2618f7f7U,
  0x1c17312d0d25f424U, 0x182616042932fa23U, 0x1104fd0cf01c0d3cU, 0x1afb225418211804U,
  0x1af910fff9e805edU, 0xcef3cf07e4d6faf6U, 0xc1e904fa06edecfaU, 0xd7dfd4ff1e0ac2d6U,
  0xdadef8ecfcdc030cU, 0x7e5f5e4ecf4f20dU, 0xf51305e0f9ddf7f3U, 0xf2f6e1e6d8dc05f5U,
  0x18f73425dac719f9U, 0xe1fdf4f40406faf8U, 0x6dc10f7d5d2ef07U, 0xc024e3ec2ff8f8e1U,
  0xecee09f3eed7fffbU, 0xe811dcfaea19101aU, 0x4fdfcf516d819e8U, 0xf00c0fd407f900efU,
  0x2ddc260ed5b926efU, 0x10fa01d703d6edfdU, 0xdf7fcf0bfc1ef04U, 0xd121e6f8fdfceee6U,
  0xc50401def4f111faU, 0xe18e6ebd90bf3f5U, 0x28070cf01bff1e10U, 0xec2f09d6d5ff15ffU,
  0x21d016ecc9e229e0U, 0xf8d8e4cd020a1d17U, 0xfe0a2fc3b9c1bffcU, 0xcff3c5e0eafafd1aU,
  0xe8e0d7e4f012fdf8U, 0xf705e7fc09ffdfceU, 0xbe804faf509c50eU, 0xf2fcf8e5e60017e6U,
  0x2bd7e8dbdac30ef5U, 0x1d00ecc7ea0df0b9U, 0x2e05fddbfde0e908U, 0xcb08eafaddd4fa20U,
  0xf42ec6cde30517f7U, 0x16f5f11429f6eee6U, 0xcafcfa140014c707U, 0x5e8fffa160fe304U,
  0x21efd6e7cecf0dedU, 0x19fae6d90cf6fdf8U, 0xfde20ee1e0e8c0f3U, 0xe5e4c10ddde1e1edU,
  0xc1fecadddd0cd6e1U, 0x180eead3f9f2d3d0U, 0xc2fff2e80412d82aU, 0xcb0ce1f7db07f7f1U,
  0x15fbd6ea17c0f006U, 0xdfc052bfcd7f9faU, 0xebda0a0916d3e6feU, 0xe009daddbcdacd18U,
  0xe8f1bde10432cd1fU, 0xff09effb2bccedbcU, 0xd109ebdef40aea1fU, 0xdbfdf323250afe0bU,
  0x21dee23322cfd7feU, 0xf8f50307db2a0eU, 0xbef1f32302c1b6d3U, 0xe0f2c2e82430e311U,
  0xd6eb1400052bc10fU, 0xdedfd6bf1f16dd18U, 0xe7ffccdf17041f1dU, 0xd10dd8361efd38eeU,
  0xf8f0051726010e1bU, 0xecf4fd0c01d80913U, 0xd6d3fe080df9d3ebU, 0xee50cff11416f007U,
  0xddcde23d0b14bd09U, 0x3d5e6b4500a0b02U, 0x312d4e0fef0ddfcU, 0xfb07fef724d80008U,
  0x244a2428320a0d21U, 0xf6100a1a0ae000f3U, 0xded1fc2c4a030907U, 0xe37ecf21d05e3f3U,
  0x14011a301521d425U, 0x2e71bded4301e1bU, 0xff2e0ae8381afef5U, 0xe911053921f5e6ffU,
  0x4a2448354034410bU, 0xe411ff3404e33822U, 0xf60d0243370a4e27U, 0x344c51fd3510e61aU,
  0x21f437363afcf22cU, 0x14041bef1c562324U, 0x1201101811ea2a06U, 0xb22fa3805060801U,
  0x20393f3c1b32240cU, 0xa0915121e1514f4U, 0x80925f0170d0f38U, 0x232829192827fbf6U,
  0x24fe201c1a090fe3U, 0x1b13070629380524U, 0x2447fe261c164034U, 0xfe151d2dd909f80dU,
  0xee0502e70df705feU, 0xf4f8eff8e4e9f210U, 0xed04faf7effdf6ddU, 0x11d605dddb1201fcU,
  0x9e8f0f0f9fdf3efU, 0xeff9f1f0f4d904d5U, 0x1ff0fbffd700feeaU, 0xfbebf30d17e9fd00U,
  0xd7fa0ebe09f2faf4U, 0xf205e4faec0c04fbU, 0x2020eff6ebf819c8U, 0x6f30ee9e405212cU,
  0xfc0cfb1107ed08dfU, 0xaff2a1608fb15dbU, 0x1718080aec0415d5U, 0xfee409f7281501efU,
  0xd417fbea0bfeeffcU, 0x2614020df70c2b30U, 0xe44060228f41bc9U, 0xee20efee4181425U,
  0xe0d0302031d3003U, 0xce1f401f1bb02e4U, 0x1ad8f315c8052740U, 0xffc6df25f5020af8U,
  0xe018dbed271b01f5U, 0x702f545e9e6354bU, 0x1e1ad32f3412fe0cU, 0x305fe01eb272662U,
  0x1212271f29220922U, 0x28fefb0d4dd713edU, 0x6d903f9040c1c32U, 0xf8d0e70923284004U,
  0x108e8ed18ecf4ecU, 0x1c061d3be7fee3eeU, 0x25ffd83744edd4e3U, 0xd908de05dcbedcf4U,
  0xcf091f0346021712U, 0xeef3d71b1bddecc7U, 0x14f3e9dcd2220765U, 0xeaeb07161b163de2U,
  0xeff1eaf7cbf003f7U, 0x6e7e705eac22213U, 0xeccef010e5b9e9f0U, 0xef04edebe61bea0eU,
  0xc20815d50628dfeeU, 0x1fcece61af6c8d6U, 0xe1dbcbb9dfe7f81aU, 0xbed0e70616e72a0cU,
  0xf727dff23127f921U, 0xd5f4e61cf0ce01ebU, 0xeed5e72b35fe02c9U, 0xdc2beed602fae7f9U,
