/**
  ******************************************************************************
  * @file    network_data.c
  * @author  AST Embedded Analytics Research Platform
  * @date    Wed Dec  8 22:06:32 2021
  * @brief   AI Tool Automatic Code Generator for Embedded NN computing
  ******************************************************************************
  * @attention
  *
  * Copyright (c) 2021 STMicroelectronics.
  * All rights reserved.
  *
  * This software component is licensed by ST under Ultimate Liberty license
  * SLA0044, the "License"; You may not use this file except in compliance with
  * the License. You may obtain a copy of the License at:
  *                             www.st.com/SLA0044
  *
  ******************************************************************************
  */
#include "network_data.h"
#include "ai_platform_interface.h"


AI_ALIGNED(32)
const ai_u64 s_network_weights_array_u64[ 19440 ] = {
  0xbe877dc33df2d894U, 0xbd79cec1be6e7a25U, 0x3e0244da3e8719a6U, 0xbddf3062bdd5c34bU,
  0xbe9140bc3e89f274U, 0xbeb6f3c4bda4f1c0U, 0xbd7bb948bdc95a88U, 0x3dd10e543dc2dbecU,
  0xbcc40e60bea34614U, 0x3e7ff804be3e14ebU, 0x3d651de33e666817U, 0x3cbbd7adbe069273U,
  0x3de740cfbe5144fcU, 0xbd21fcf0bec3f265U, 0xbe804dcf3dc2afc5U, 0x3e862793bea460b6U,
  0x3dd0966abd7c34dfU, 0x3d90ad2e3e4b2018U, 0x3b08a777U, 0xbc5b6c39bc103321U,
  0xbe489a12be6ae14fU, 0x3d042fc83d02237dU, 0x3da2229a3e85d78fU, 0x3e1adf623e3bb9c7U,
  0xbc0374603e2b2521U, 0xbe0f75d13d5990f3U, 0xbddfa944bdc2333eU, 0xbe340c8e3d7376c0U,
  0x3e0f3ad5be78e175U, 0xbdaa154a3e2f708bU, 0x3e3c0f6dbd79650eU, 0xbe67f732be2d57e9U,
  0xbdd177803e46771eU, 0x3e9bc1d5bdd08ec0U, 0x3de8373abe4a54a9U, 0xbd6a80e13e166fa0U,
  0x3dd2d99e3e21894eU, 0x3ce3e4a1be4f2174U, 0x3e69943f3dd440aaU, 0xbdaf0aa73d940df5U,
  0x3dbb5aca3e001be7U, 0xbda84b0f3d87ef78U, 0xbd22d5c4be69343bU, 0x3e81c4cd3d7d56feU,
  0x3d86d9923e495a1dU, 0xbd9e4fc23e6842b4U, 0xbc78bd50be2cf047U, 0x3e4b7ae63e5c1370U,
  0xbe2a5d94be1644b0U, 0xbc4ebcfbbdc1ae43U, 0xbb2c7500bde8584cU, 0xbd9803b13da32d68U,
  0x3ddc666e3e0a5e9cU, 0x3e03bbf73cecf9c0U, 0x3e13be27bcd17055U, 0xbe546368be615ee0U,
  0xbe61fbf9be638089U, 0x3e54f3d83df5a12aU, 0xbd2180883d0c6aadU, 0xbb818cb3be2f4684U,
  0x3d71258cbd370c9bU, 0xbe73b8123e13430cU, 0x3e0e01d1be7fbc2aU, 0x3ddc69f7be69c0a2U,
  0x3d07cf64bdd73066U, 0xbdf94ccf3ce7d60dU, 0x3d9f9e663e037faaU, 0xbe4d68a33e2ec29aU,
  0xbdb4455a3e414fc1U, 0x3e7ad88f3e2f20fbU, 0xbe5095bebd5d90b2U, 0xbbdff1e53e36f005U,
  0xbe4b7a7e3dee2c5eU, 0x3e5cef0b3e0d4c56U, 0x3c9c24d83da84979U, 0xbd99414abd1130dbU,
  0x3e0f2dffbe8dc4c9U, 0x3e149c1abe59722aU, 0xbe1a5cd33c85bf51U, 0xbe7706bc3e2894b7U,
  0xbcaf79a83e290542U, 0xbe08a1063e1b8b35U, 0x3e67b0fdbe83a515U, 0xbe700782be0d7e83U,
  0xbc9b74503e726901U, 0x3c7cc19a3dced42fU, 0x3cadec483e124e0aU, 0xbcf0de4b3bf69aa8U,
  0xbcbb9b083e237521U, 0xbd6124b33e3f6da3U, 0xbb5d0c403d20f6abU, 0xbd0d07b7bd180fb4U,
  0xbe61b062bd40a2e0U, 0xbe11d4a83e0cafeaU, 0x3df033debdd1b9f3U, 0xbd2909a2bddd8fb1U,
  0xbdd17936be0607abU, 0xbd4436e33e21c95eU, 0x3e5b305fbe1388f7U, 0xbe38c42cbe3b329cU,
  0x3e49c86b3d06a1cfU, 0x3dd93648bae657abU, 0xbdca5fae3d8873d6U, 0x3ceeb5fbbe49af0dU,
  0x3df09d3a3e1bbf54U, 0x3e516fc23dd2d2d7U, 0x3dedafee3ea57ad8U, 0x3c898b09bd9f7e48U,
  0x3e16f8d73e58164aU, 0x3e03308dbe709c04U, 0x3dc20216be3c2452U, 0xbe4f89863df7904cU,
  0x3e6ba7673e27a543U, 0x3e90f301be84d09eU, 0xbe1c0b2c3d376bdbU, 0xbe4d9dbfbd257c59U,
  0x3cd039f83d3d3a13U, 0x3d884d18bca66e18U, 0x3e1893893da70d3dU, 0xbcb348773d274826U,
  0xbe6a866bbe3290f7U, 0x3e1a65e1be5b342fU, 0x3e4bd94f3e1bbd55U, 0xbe7690583e1d48cfU,
  0xbe0b34eebe1aaddbU, 0x3e5ceb3f3dc4526fU, 0x3e1f01213c46b70fU, 0xbd3faa083e16685dU,
  0xbe6108ab3e84266bU, 0x3e896382bd4514d9U, 0xbe0916103e95f86eU, 0x3e6770ddbe4a82e9U,
  0x3def06a2bd70978dU, 0xbe106950be046a40U, 0xbe238bd63d7f6fd3U, 0xbdf9e7c5be420f1fU,
  0xbe43cc483e084c63U, 0xbd6685323dd7047eU, 0xbcba9a983e51c3b3U, 0xbdf20b97be4585c5U,
  0x3d179d143de30847U, 0xbe1c8b25bdf3c2ebU, 0xbe42c5a6be0d00a5U, 0xbe3d42f4be803434U,
  0xbe5598d5bdbcc289U, 0x3e24c6fc3d7cc87bU, 0xbe17164cbccfb050U, 0xbe02e6d1be5dc687U,
  0x3bd816603daea70bU, 0x3c0c90d2bd75fa26U, 0xbe32889d3c036b91U, 0x3e2252f83dd950c2U,
  0xbe3f65c23d97e5bcU, 0x3cc6d504be577a66U, 0x3e0f8f49bcaa8a3eU, 0x3e18a536be4761c5U,
  0x3e4af6f53e1831b2U, 0x3e300bff3d93f450U, 0x3dc9d6da3e8413c0U, 0xbdce11cc3e035b16U,
  0x3e1ed2c5be3eb93dU, 0xbd0cddd4bdfc8bd8U, 0x3e5d88ffbd4440ddU, 0xbe3d57293e17606dU,
  0xbcd8b84ebc913f90U, 0xbc05905f3c3033b5U, 0x3d84937f3c8c7859U, 0xbda062f53ca46541U,
  0xbd3b3f113e66f737U, 0x3d5c812cbe0a1cb4U, 0xbe596d7a3d4ddc07U, 0x3d81459e3cbdbc88U,
  0xbddb2ce43dd3e5d1U, 0xbe1ab7cdbdc0af21U, 0x3dbed102bd92aa66U, 0x3dadc98c3cbc7885U,
  0x3d61e5c2be068e06U, 0x3e1ecdbf3e459b48U, 0xbcd68a52be2cef41U, 0xbd93a7e73cd00b7eU,
  0x3dc72653bc1b7054U, 0x3ccbffbabe26b0dcU, 0xbd20ecbf3dbf22baU, 0x3dbc1c56bcf0d3ceU,
  0x3ddfd2763e3b3330U, 0x3e0f15e1be4c738dU, 0x3def06fc3c4fd066U, 0x3dadaac73e1713a8U,
  0x3d152a533d437e42U, 0xbe3b25223e17f5a2U, 0xbd23cbacbdc08f82U, 0xbd4bda7dbe188607U,
  0xbe33fe6b3d55dfe5U, 0xbde304213d37750bU, 0xbe050d643db0ce5fU, 0x3e214dea3dfea140U,
  0xba36f998be1a41aaU, 0xbdb04ca2be9478ebU, 0x3c3072edbe1bb147U, 0x3e4b38ffbe300c0aU,
  0xbda905a53bd8bb2cU, 0xbcb81037be1e1b66U, 0x3e7915a43ea0c136U, 0x3dcb2397be1abde4U,
  0xbbfc16093e436b2cU, 0x3e04f119bdfb7bfdU, 0xba7d080abe9da529U, 0x3d126dad3e5079fdU,
  0x3e3bd3203d193060U, 0x3e286744be216290U, 0x3e0d8ee8be3870abU, 0x3e7882f13d8a98aaU,
  0xbd1ae0073e5b7e72U, 0xbcb2e13c3a0471a8U, 0x3e09f0a23ddf6015U, 0x3d7d4f073e177dd7U,
  0x3e1d8cdc3ea1bdc1U, 0x3e505b683e263babU, 0x3dc5e0a33dec5057U, 0xbe16c4513d44ad3eU,
  0xbe327c1b3d1f0a21U, 0xbd860308bdb44e39U, 0xbdcf4dd9bcf0a4ffU, 0xbc6954b0bd4448acU,
  0xbdd81b3cbdc29bf0U, 0xbdad9c283e09ece4U, 0xbe20a93bbde2b13bU, 0xbe0c74c13d599dcbU,
  0x3d8069173d18cc2bU, 0x3d350edfbe0a8da4U, 0xbe159ba73e1f13f2U, 0x3da01288bcfe5e15U,
  0xbd57d34c3e4cb7b0U, 0xbd106534be84d061U, 0x3d9cc8cd3dda5684U, 0xbca90ca8bd1f2c73U,
  0xbe1141d63db366b9U, 0x3e57c2f83bee6316U, 0xbd6aa9f5bda9b5c5U, 0xbca58ea3be1154ddU,
  0xbde25637be55a12bU, 0x3dd278c8be159c0bU, 0xbe73e9fc3d877383U, 0xbd9c070e3db8be91U,
  0x3e3648d1bd81d332U, 0x3dfb00adbdbb6832U, 0x3e12c2e13dd348feU, 0xbd1983d1bd989ad2U,
  0xbc7b06a0bd32d174U, 0xbc92ee88bd14f5e9U, 0xbe5efc8abdc911faU, 0xbd657a5bbe4a354dU,
  0xbddfde033e325470U, 0xbe065dca3d95c4d8U, 0x3dae2ebfbd8fd95dU, 0xbe0d59bbbe21e926U,
  0xbe2e8b1e3d4db098U, 0x3dbe9a75be3e467aU, 0x3a8945853e1cadd8U, 0x3e2ed8f63e912d80U,
  0xbe04879f3d450054U, 0xbe08e6d63dc3750fU, 0x3cac15c33d9457bbU, 0x3e3391bdbe0a9f61U,
  0x3e478d25bd51ade1U, 0x3e104ce1bda19286U, 0x3de4313dbe281b56U, 0xbd5661babda6475fU,
  0x3cf02914be3ab27fU, 0xbd96c0123d9be217U, 0xbe45aa58bd91f17aU, 0xbe383af1bd436683U,
  0xbe31ffbcbd0fa752U, 0xbdaf20423ddacea0U, 0xbe37694a3e8abfbbU, 0xbe1a74723d962011U,
  0xbe6556163da6a14cU, 0xbdc5c8353e2cca8fU, 0xbdeaeb6fbe1ba7d9U, 0x3cbbdf683d6f975bU,
  0xbdb73fd03e2b64e8U, 0x3c72e2463e536c05U, 0x3d3a09223e3d11e1U, 0x3de85c483d89e2c2U,
  0x3e07d95b3dbcbeb6U, 0xbe4c48263e4d5011U, 0x3a2ca1c63d8629b4U, 0xbd3dbcf2be869091U,
  0x3e13a0eabc2cb884U, 0x3cbca9ee3d1b6ff8U, 0x3e48e5b7be58b404U, 0x3dabf3563dfb0cc3U,
  0x3e4a7d13bdf2d4baU, 0x3cf7fca1bd5390b7U, 0x3e21aebcbe554c13U, 0xbd4ae0ca3e1c11b1U,
  0xbe1e8cfbbde1b453U, 0x3cfd76223e49b103U, 0x3d6c46f23e181399U, 0xbea06f753e452015U,
  0xbdc919e9bde70841U, 0xbe053ff63d2d8e8dU, 0xbe148ccfbe120d4dU, 0x3d86f033bcf42e74U,
  0xbdf797123d743048U, 0x3d463b4dbd9c5c09U, 0x3db556f3bde24bf1U, 0x3da00dd9bcc1096dU,
  0xbb0ac80c3cfbf931U, 0xbcb5c49f3c36651cU, 0x3d9856053c9a49d6U, 0xbd1e84453e40494bU,
  0xbe6bc1fbbdf634bbU, 0x3d8c97c3be6a6245U, 0x3d1884b9be071387U, 0x3e0188fe3cc469e4U,
  0xbda67c133e0cf71cU, 0xbdf722c2bd514453U, 0xbc0170e9be196e4eU, 0xbcd9aa333e4492f1U,
  0xbe289e0a3e52c843U, 0xbcd687873e8aa6a8U, 0x3e553625bd18f6d8U, 0xbe1d564fbdbf56bcU,
  0xbe8201213e3aa215U, 0x3d50de893e15e853U, 0xbd89c0d03db77e49U, 0xbdcefc0abdd0d5daU,
  0xbd49610b3e447c69U, 0x3be4e3223df6ad53U, 0xbe359d393e18e676U, 0xbdae502ebe09d54fU,
  0xbe099207bd882729U, 0xbd73a601ba88253cU, 0xbdefc1d43d4675b4U, 0x3de79e9bbdac368cU,
  0x3e526e05bd5408dbU, 0xbe30f5cabe08a9f3U, 0xbdf77c2bbd66913cU, 0xbe4bad8e3d244856U,
  0x3dfd27e1bd2ea881U, 0xbdc3c4173cec0cdaU, 0xbe738db93d1d69dbU, 0x3d3fc2e73d5f23cfU,
  0xbe5f357239bbd79eU, 0xbd9a999fbc146d3eU, 0x3c3132c23e04358bU, 0xbe2e1d423d072934U,
  0xbe4cb1593d9226e5U, 0x3d25b9823c6db38bU, 0x3ddf9f7a3e1237b5U, 0x3d817707bcb7d220U,
  0x3dca4f96be11eb10U, 0xbd827f863d1d426aU, 0x3e07924b3e0e3cf9U, 0xbcbb8b4b3e22c7ffU,
  0xbe120f6a3da8dd57U, 0xbe93b9b43e3eafa1U, 0xbca745f13e639dabU, 0x3dff2effbbb7daf0U,
  0xbe26e05e3ddfe5c0U, 0xbcabbdf13c62e8e5U, 0xbd10e02cbe27f2f1U, 0xbe0c6a65bbb338a3U,
  0xbe605bf43d2d750aU, 0xbe24b1253d137517U, 0x3c52a32fbe079d66U, 0x3d8b082a3e0902b7U,
  0x3dc49bedbe6a45ceU, 0xbc58b1a53cb2aea7U, 0xb85c94b53e720f90U, 0x3d9b57a0bd1a0fcfU,
  0xbcee6d30be825d7dU, 0x3e01cb49bdd3310bU, 0x3e65b5513d91d3c9U, 0xbd1972683d03982cU,
  0xbd708d1c3e290575U, 0xbe410acbbc218401U, 0xbe0ac293be20cd84U, 0x3dad613bbdd02b36U,
  0xbd43b33c3e428bf7U, 0xbd74abaa3dc46c42U, 0x3e29068dbe11ececU, 0xbd82fcfa3e200c68U,
  0x3d6e51bc3dc4155eU, 0xbdc37e2abd689bbdU, 0xbe3f88b6be0c35fcU, 0xbc029437be570a79U,
  0xbd8d98cf3e4e1c5aU, 0x3ca4c541be007172U, 0x3e3680713ddcb393U, 0xbe2ae30e3c6f71ffU,
  0xbb25e7a83e041c5cU, 0xbd56f7e4bd89467eU, 0x3e813a423cad9d9dU, 0x3d859341be64d044U,
  0x3e4f222dbdd9c1b6U, 0x3dbd4f743d2ddf98U, 0x3dc855813d894effU, 0xbdb003763cbe185bU,
  0xbdf834aabe03789cU, 0xbd932e2fbd43a34bU, 0xbdd2d355bc8f8222U, 0x3da07b9cbd65765cU,
  0x3dc2fa8e3cf05e91U, 0xbdfe158fbc900d7bU, 0x3ce290c2bdc8a06fU, 0x3da91261be3c9ae9U,
  0x3d9e8d9e3d9fedd0U, 0x3be21c1a3d7a5311U, 0x3e585c463e350e32U, 0x3e525d673d968758U,
  0xbc206dca3e3fb588U, 0xbe7279303db5ef1fU, 0xbe2ad717bba355e1U, 0x3e1130563e46e327U,
  0xbd8eba903e509a2eU, 0x3e1583fa3db07ab6U, 0xbdf5bef03dc44778U, 0xbdc7cb2abd9dba38U,
  0x3cb779153df2060eU, 0x3e30dd113e38ec78U, 0x3e38ab3abdc5f52bU, 0x3c4e9f0d3e3bac65U,
  0x3e29cdedbdaddae0U, 0x3e44f333bdf5fdffU, 0x3d9549fcbdde98a9U, 0xbdd92eebbe20e9dcU,
  0xbe134c82bd5a9890U, 0x3b8519dabdca00b2U, 0xbdd229663cb124c1U, 0x3cacf9083cab06abU,
  0xbcdf3d7bbd8624feU, 0x3e5a2d3dbe7bc9baU, 0xbd11b928be7a884dU, 0x3d05b7953e6369daU,
  0x3da06765bdbb3e84U, 0xbdbe2458bc84669fU, 0xbdf650cb3e15236cU, 0xbe1621d2bdf6739fU,
  0x3e67c4cebcfd7733U, 0x3d5893e73e45ec8eU, 0xbcfd531d3d958372U, 0xbcc84272bd97c83dU,
  0xbd830f33be101f4eU, 0xbe116c0c3e37212fU, 0x3c503c2bbe0011c2U, 0xbbbfbd1ebe204706U,
  0xbe64b7923d28c77fU, 0x3c938bcb3d933fa6U, 0x3db45dccbce20925U, 0x3de2c6953e4896c5U,
  0xbd959ebcbd755a06U, 0xbd5b5df43d56b215U, 0x3c640cbb3c35b104U, 0xbddeeff1bd89ac3bU,
  0x3bad71a7bc772e8fU, 0xbbb3c4cfbca5796fU, 0xbb85cefb3d24f37dU, 0x3d38a85d3b4b6cbbU,
  0xbe2b955b3ddc684fU, 0x3df5f6fbbe436eadU, 0xbd563ec23d9ad8cbU, 0xbca80825be2e1003U,
  0xbdaf022dbe06172cU, 0x3b3de7ddbda35fb5U, 0xbda37cb23dd5f541U, 0xbdaff45cbd98ee42U,
  0xbddb9ba13d2994a1U, 0x3d1bd851be17d4f7U, 0xbe19c92dbe389ed6U, 0x3e42b126bdfe8e22U,
  0xbe3a52a43dccbba4U, 0xbe612924be553d0cU, 0x3df475d9be99585fU, 0xbddc8e1a3cea4a4cU,
  0xbd64441c3d0bb72eU, 0x3e241bb4bd366ebfU, 0xbde3938e3e54a9c0U, 0x3d53d4ea3db1c202U,
  0x3e1856c23e1ba1fbU, 0xbdf65a5a3dab62a3U, 0xbdc97d5f3e6d545eU, 0x3e77036e3e1b1653U,
  0xbe4a0921bdc1e482U, 0xbd03a80dbe6020eaU, 0x3dfe64a7bdd69114U, 0xbd447e16be8eb0f4U,
  0x3e79e48b3ddcf4bfU, 0x3e6a97c53d224bbbU, 0x3d7a941ebe248870U, 0x3c910b67bd8a831bU,
  0x3e50b7303d8786eaU, 0x3c8675e83d91781fU, 0x3dcca3bd3dd84aa5U, 0x3e5b81623e7ea565U,
  0x3d2184a5bd85dc25U, 0xbcdaaf923d750fb1U, 0xbd4aaf773e09daa0U, 0x3e875c7fbe862596U,
  0x3dad9e1e3e6b3734U, 0x3e0a5e313e4362b5U, 0x3d6c4b8abe1dc899U, 0xbbde5c5d3dfb2c3cU,
  0x3e6b244c3cca90b6U, 0x3d3c40263e898cf9U, 0x3e9d490b3def5528U, 0xbe11ed2c3d6a8f42U,
  0x3d8e6dd73daa4c11U, 0x3da69e74bd44b01bU, 0xbe0dab543d2c945bU, 0x3d167e333da0726bU,
  0x3e0b1232be1acc42U, 0x3c02600abc182092U, 0xbc8c41a5be078bcaU, 0x3e1037c23e85d6cdU,
  0x3e870091bd4af32cU, 0xbca5fc44bd95e238U, 0xbdab03cfbdb13dccU, 0xbde2eb29bda84ad1U,
  0xbe401cb43d616689U, 0xbdae8bd83e846f30U, 0x3e83f75abe5a90c3U, 0xbd745e6a3e0e443eU,
  0x3c088a4cbe19e8deU, 0xbd62cd4ebe2ef35cU, 0x3da526343d671248U, 0xbe247ce1be37de78U,
  0x3d88dd833e19e042U, 0xbdc1c1eabe8c17acU, 0xbc85fb52be51daf1U, 0x3d2684483d763e82U,
  0x3e0abe38bdcde9bbU, 0xbdda82cd3e1e079eU, 0x3d8c45cd3cece4a1U, 0x3cadee6b3d0f1c39U,
  0x3e14caffbe6422b5U, 0xbdde8bbebdc4c9f3U, 0xbe4a40213dcf05d9U, 0xbd8372a6bcd048cbU,
  0xbcf26bd23e372871U, 0x3c911e2ebd6dcc73U, 0xbe2a2db0bbf4c87aU, 0x3e25de413dd44eecU,
  0xbe813f70be28fc4fU, 0xbd5fef22be88a1a6U, 0xbe41949bbd93ba35U, 0xbe852c043e36ddf7U,
  0x3df81e7d3be7818cU, 0x3dadd5a33e54a3a0U, 0x3da557603db26745U, 0xbe36f545bcbf0fdcU,
  0xbbe835a3be35f6baU, 0xbdacf7483e8f9cc5U, 0xbdcc6fba3df8560cU, 0x3e6bd84dbd6c0cb2U,
  0x3e2365453d60a13fU, 0x3e4da4103e39c515U, 0x3e899cc0bdd141d8U, 0x3dee1aec3e0e21a6U,
  0x3dafa1153e0320d0U, 0xbde10ea13d1959dcU, 0x3e23f1a7be492b4dU, 0x3d2aaed8bbacdcfbU,
  0x3e357d573db08287U, 0x3e0bf9be3e9106a8U, 0x3d64114e3ddc76dbU, 0xbe519faebdcc1077U,
  0xba0afe12be0c434eU, 0xbd286f513c0ac20fU, 0x3de6c386bd0d6367U, 0x3e3468e8bdfa10a4U,
  0xbd1bfafa3dc5ec36U, 0xbc911379be2116b1U, 0xbc738627be67acf9U, 0xbe24f2d4bdb51d0bU,
  0xbe56f782bba2082dU, 0xbe0d8df3be1acec7U, 0x3d8f9f01bdbf19daU, 0x3d8b1283be35df5aU,
  0x3c21beb5bc93da92U, 0xbe23bdf9bd81a7e8U, 0xbdfc06abbdd7db47U, 0x3db1e3163e232ae3U,
  0xbe42e6b9bd53293bU, 0xbde11eb6be2ab2b4U, 0xbcaeb2123cc16cbcU, 0xbe0c3bb83e2cb4c4U,
  0xbd3ebdf43e022eaeU, 0xbd8bf703bddf8a7bU, 0xbce60e0c3da7d3dbU, 0xbe0ed2b5bd09644cU,
  0x3d90fe983e5dddbcU, 0xbe5a15a93e0db292U, 0x3e21beb53da38bd0U, 0x3cdabe79bdfadd7dU,
  0x3e18a571bdb0da5fU, 0xbded5bca3e39a714U, 0x3e09ec2dbdcceea9U, 0xbdfc58763e02d630U,
  0xbe3f1a3d3e379a26U, 0x3e00e4b5bdf5d30fU, 0xbcc811433d9de648U, 0x3ba27d1fbe1f2028U,
  0xbd5d4703bc64c6e9U, 0x3dfcdb50bde59d1aU, 0x3c0ac499bd2785feU, 0xbdaddde53d14cb68U,
  0x3e555e58bdb0654eU, 0xbe0774703d701969U, 0x3db790b43e77a4a7U, 0xbe8dabd9bd273b22U,
  0x3dcae216bcdfade3U, 0x3c8b403f3d8fc528U, 0x3d0b94fdbc2d0cf6U, 0x3ce29aa7bce37c04U,
  0xbd2e48a8bbc64212U, 0xbe8158bc3e3aca21U, 0xbc969cb53d069915U, 0xbe1229de3e0267eeU,
  0xbd624c2fbdc46f59U, 0x3d962307bd70bbe2U, 0xbd783f653d41fe5aU, 0xbdb546c53e13d138U,
  0xbc26718bbe1a8b0dU, 0xbc4bfe2e3ca9be39U, 0x3e165d713e0df40fU, 0x3d98be623e53a176U,
  0xbe1c072cbd816c13U, 0x3dd78325be061f48U, 0x3e3beb5d3debf8f4U, 0xbe375fc4bd828a58U,
  0xbe26caf63d517989U, 0x3e089bcfbdc4482aU, 0xbd99b457bd7671b2U, 0xbce83d30bdd3f9bbU,
  0xbdb15b563de38339U, 0x3e4093c73e337ad8U, 0x3e8ac0b33d37a7f5U, 0xbd933d9cbd2eb5d2U,
  0xbd079a7e3e7c292eU, 0xbdf9082b3c17dbedU, 0xbe510d703d0fe0fdU, 0xbe338dcebba90a14U,
  0x3d88d35b3deefe3cU, 0xbd118d76bd8455b8U, 0xbe0f57053e7ae72cU, 0xbe571e613e5cc9fbU,
  0xbba731543dc2769dU, 0x3e04dcd3be384b8dU, 0x3dba1545bcd1d824U, 0xbe2d3f1ebe38d839U,
  0xbea0de41bd96f724U, 0x3bfd12e93c4b3b70U, 0xbe075724bd060b2dU, 0x3dafa2ecbd5b9138U,
  0xbdc2b4f5bdca0c31U, 0xbd0e992c3e113423U, 0xbcd8f44dbc86645aU, 0x3d3502f4be3ea3cdU,
  0xbd077e5b3d563c42U, 0xbdc40e3f3e148b6aU, 0xbe0b8ed7be08f04bU, 0x3e74d3983ca5afc2U,
  0x3e4ab2d23cba3c74U, 0x3e2fde793e6af438U, 0x3e10cda03e1e6f9cU, 0xbcd60b59be918562U,
  0xbe7bb85abdae1e20U, 0xbd723f9c3d9d0866U, 0x3d4c266dbea287abU, 0x3dc4f827bcb902eeU,
  0xbd55e4be3dafa24bU, 0x3da66340be0ee792U, 0x3e261d7abda139b4U, 0x3e58e008bcb26c65U,
  0xbdd946cb3e6b826aU, 0x3e0d28483e0e7094U, 0x3deddcccbdf0304dU, 0x3cfa7d7f3e505e02U,
  0xbe3e99993d798c39U, 0x3e46d7683d6da704U, 0xbe09d2e9bda358edU, 0xbd6cbc71bd189c98U,
  0x3da3bd98bdbe3b50U, 0xbe7de45cbe362df0U, 0xbe7ea70fbde49e5dU, 0x3e487d0dbe59cdf3U,
  0x3dee85843bcaaac1U, 0x3d926e81be6c89c9U, 0x3e2a3928be146405U, 0x3c364bccbd70443aU,
  0x3d0a2d0e3c5d5cbcU, 0xbe083ebdbe690a58U, 0xbcee1c3dbd85ca48U, 0x3dd7eac4be945c4dU,
  0xbe1d13f1bc5e4849U, 0x3d89c28a3e2234bbU, 0x3d8a4be83c9c55c4U, 0x3e2ad0873e174f3fU,
  0x3d62831f3d672c28U, 0x37c4936fbe6b5acdU, 0xbe61745c3dc0a670U, 0x3d9a5f2abe6202faU,
  0x3a994d1abda3b562U, 0x3e2f97afbe375dcdU, 0xbe4a449fbc605fd5U, 0x3d5c63bf3c432bcaU,
  0xbe07d231bdf39ae2U, 0x3dcd009c3e5169b9U, 0x3e89b19cbd4f4860U, 0x3e7251243e453e60U,
  0xbc9ca2b5bdccd72fU, 0xbcc0bd1abe72d898U, 0x3db6c1833c141e01U, 0xbd326af0bd1bcfe6U,
  0xbe1f7e883cc10e40U, 0xbc9352babb2f04f1U, 0x3c09ec64bc6e993dU, 0xbe066d55bd346d5bU,
  0xbe23704c3de86fb8U, 0x3e39f582bd1436f8U, 0xbe4b86d93e072640U, 0xbe439e21be79733eU,
  0xbda7fe813d0f88ceU, 0x3d18b783be95567cU, 0x3dec575d3d6b3f87U, 0x3d351472bcde58c1U,
  0x3c9780993e47fa15U, 0xbded2d0cbd2ed387U, 0xbe29af33be1c60fdU, 0xbe2b8b24bdde67eaU,
  0xbdaf74d5bd06188dU, 0x3d38108bbd5ed2b7U, 0x3d9684863d39a7cdU, 0x3d81ef353e3aa93cU,
  0xbe545771be1bfdf5U, 0x3e0bf6cfbda5f357U, 0xbd6660353d702174U, 0x3c843932bead2b2dU,
  0x3e55dad23d5ac53eU, 0x3d515615be71992fU, 0x3d4c5734be19575fU, 0x3e06bb6cbdfe39e0U,
  0x3d14dc1dbdc056adU, 0xbdeb8aa13e85284eU, 0x3df0677bbe19c8a2U, 0xbe122eb2be325540U,
  0x39b2f30f3cd07a73U, 0xbc95d1a5bc62a40bU, 0x3d12734abcb9fffdU, 0x3b9640c23ce8ece4U,
  0x3baa34043d162500U, 0x3c04996d3d48dc35U, 0x3ca126113d968071U, 0x3da572d83d0268cfU,
  0x3cb1f0fabc77424fU, 0x3cc940503d7e3744U, 0x3d082bd13d1ff3cdU, 0x3c469ddebdb23796U,
  0xbcbc2e48bce6f48eU, 0xbc0c47fabd03ef73U, 0x3cbc25fabd023f5bU, 0x3b7b08503ce8f7aaU,
  0x3c0591fb3cae3780U, 0x3d09280bbcd58523U, 0x3c921f6b3d6620daU, 0x3c98f255bc9cdce4U,
  0xbcfdfe763bd36655U, 0xbd0dc2d9bda709f4U, 0xbce65e493ce3e94cU, 0xbcb7d7d43c51a84eU,
  0x3b133a00bb11b970U, 0x3ce3fc42bc9d20d1U, 0x3c877856bcb89928U, 0x3c005f7cbc649cbcU,
  0xbce829f03d01f11dU, 0x3ca869c4b7635000U, 0xbcb3c238bc14e9d6U, 0xbc372920bb9741c4U,
  0x3cb96fdcbd027b2eU, 0x3ccab1463cd254baU, 0x3c8e17b2bb090970U, 0x3ce7bc0ebd0f6b41U,
  0xbd0a742bbcc0b69fU, 0xbc8c0ff6bcfe714aU, 0xbcb39f823cd3b5beU, 0xbc85b47b3d035079U,
  0xbb8d7090bb3b4c0dU, 0x386ec1583b6825a9U, 0x3d10fce2bcfb4923U, 0xbcc2a4a4bcbd8d3aU,
  0xbc6493003bd4f9fdU, 0x3d0ee925bcb04795U, 0xbc9bc4e9bbc525b2U, 0xbcaf78833cf7687bU,
  0xbcf423db3d0372a9U, 0x3cb51552bd126f3aU, 0xbd08a47ebc3bc9f8U, 0xbc0bbe04bcf69d02U,
  0xbd140dd2bca9a44fU, 0xbcedd53b3bcc3eb0U, 0x3cf6ca1b3cc144a3U, 0xbcae42093ccd9d7aU,
  0xbc4bec72bc3820c7U, 0x3c969fdabd10bac3U, 0x3cfc2823bc175060U, 0x3c9971ecbce0c2bcU,
  0x3cfe0f1ebcad3b3dU, 0x3b9fb9a8bcf67202U, 0xbcaa9345bbbda54cU, 0xbd1051e83bf32d50U,
  0xbcde4d863bc08b30U, 0xbc952b6abc169134U, 0x3cc7675ebd065907U, 0xbc6f078cbc63bfecU,
  0x3ca5cd3c3c89840cU, 0x3c3dee3c3b28c4f0U, 0xbc7f417cbcc88bd0U, 0xbbb23350bc2274e0U,
  0x3b91b2b0bc67a920U, 0xbb98f1a8bcc1b9baU, 0x3c2dfdfc3cfd165aU, 0xbd0216da3a55c440U,
  0x3d9ae9eabd8d4cbaU, 0xbbcfe00ebd7e03f5U, 0xbe0f9d58bd567e32U, 0x3d178112bd35a1c1U,
  0xbda0dadf3d2326c1U, 0x3b96c4483bfcf2f3U, 0xbcd87b823caa96e8U, 0x3d4664cf3cb04de2U,
  0xbd040c46bced208aU, 0x3cb5eb223b5b82b0U, 0xbccc2e91bbeb36f4U, 0x3c99ea803aacf360U,
  0xbd093d2a3cc61400U, 0xbce3cad83be54448U, 0x3becd2893d60165eU, 0x3d1b30223c618e7dU,
  0xbbbd76bf392b0a71U, 0xbaa065c0bcb80ddaU, 0xbb4ad1903b80cab7U, 0xbb90bd03bd80b540U,
  0x3c82e6223cd474e8U, 0x3c255234ba83f840U, 0xbcb72a25bceb274dU, 0xbc8ea4a6ba092e40U,
  0xbc941213bcbc2c5aU, 0xbcff43efbc0f1b38U, 0x3cbb26c0bcd9fd62U, 0x3c5ccf003cf629f2U,
  0x3bf07be83c36b1f8U, 0xbcf8055cbc6012f2U, 0xbc193308bce4b986U, 0x3ccb5dc83c508c78U,
  0x3c34dbc4bb999348U, 0xbcf0195bbc74fc96U, 0xbbdf17d03c5e3584U, 0x3d0a77853c28f414U,
  0xbd350a55bc881fa7U, 0xbbb4fcb0bc41e0feU, 0xbcd63ba0ba6642d4U, 0xbb94542abb9dcf24U,
  0xbd15a3fa3ca9025fU, 0x3cf88986bcc9e03dU, 0xbbe1ddd3bd125955U, 0xbcc2094cbc9d0aa3U,
  0xbd0267d1bb911c18U, 0x3c9f686abcdef972U, 0xbcf8c932bb4f9100U, 0x3cfac57ababa38e0U,
  0x3c0ef9b93c8ff33dU, 0x3be84830bb313aa0U, 0xbbb6f1d8bcc7fcaaU, 0x3c4a2622bc3eeaf3U,
  0x3c2c4bfa3c7c16e5U, 0xbd10e0233c9aa5a0U, 0xbca2299d3c62d108U, 0xbc47aebebd30ee41U,
  0xbcce8068bc63f646U, 0x3d04eccd3d0de11fU, 0xbcb1f7c839ca8000U, 0xbba77c283cbae5daU,
  0xbc968d56bc7a66c6U, 0xbc0ef7aabcf8371cU, 0x3d05f309bb73ef40U, 0xbc632664bcc36597U,
  0x3c85bbca3c5f22a8U, 0x3ce45c6a3bacd650U, 0x3988d880bd109330U, 0x3c3c6188bc73b400U,
  0xbca22522bd0616c5U, 0x3c13726cbc8ac4a6U, 0xbd067975ba5e6600U, 0x3ced1a723c8393aeU,
  0xbd24b421bc98228dU, 0x3c4a9e3abcdd51a0U, 0xbc9bbd96bc81dfc6U, 0x3cf13b34bcea581aU,
  0x3c7a4d27bcadd981U, 0x3d08cb69bce02d80U, 0xbcc978e73cbc841cU, 0xbc516a2cbb9e1fceU,
  0x3d0c547bbd07f3fdU, 0xbb03ef403cab1e5cU, 0x3c67af483c91f024U, 0x3c97ab6cbd0be0e0U,
  0xbcad4fccbcdfa514U, 0xbca4d4283cd9f8deU, 0xbc3d84d2bc2bc0fcU, 0x3c882d5bbcb60f7eU,
  0x3caeae333c70515eU, 0xbc1fb6543cde5b16U, 0x3ab306c03bce7818U, 0x3c57b3f83ce69ce5U,
  0x3ce9257abc9d59adU, 0x3cf850ea3c9e3686U, 0xbc6da9a83d021e17U, 0xbc8f724cbcbee5a1U,
  0xbcb30de3bb82b968U, 0xbc5e66c83b447830U, 0x3c4de5743c1253dcU, 0x3ca6a64a3cb2b966U,
  0xbc708546bc08d696U, 0x3cd30b323c847482U, 0xbb0cd8803c591890U, 0xbc32c5a6bc5439a2U,
  0xbc5a12aa3b127c80U, 0xbce6b2433c206790U, 0xbb7b44e0bcec8a63U, 0xbcb3e56bbc825d3aU,
  0xbc79f9673bd6bca4U, 0xbcfe39efbc5240b2U, 0x3ce545cabbd7d368U, 0xbd0b7d46bd19b6a0U,
  0x3b6494703bbefbd3U, 0xbce3a657bc36e2b9U, 0xbcac54343cb91501U, 0xbd1f82c9bd04d4eeU,
  0x3c30d534bc418e50U, 0x3b9056a83c900bbeU, 0x3c24109c3c3aefecU, 0x3cd44e3c3cd4b9daU,
  0x3c91db19bcac3ba4U, 0x3d0d547b3ba41ac0U, 0xbbac6e64bc9fbcb8U, 0xbc72ff80bc9e1c42U,
  0xbcaa43863cc612aaU, 0xbca55f7ebcccce0cU, 0xbc7546ecbb946fe8U, 0xbd0a4e743a836290U,
  0xbcd1279a3c954910U, 0xbc3a66e4bd00c672U, 0xbd04cf333bb5efe8U, 0xbc1a28f2bcec5c04U,
  0xbb19ca003bb4f6e8U, 0xbbb78dbcbc565ad8U, 0xbd050aedbcc93c5aU, 0xbc2d23cabb6aec50U,
  0x3cada6163cd160aeU, 0xbcae422e3d043715U, 0x3cfe20ae3c756d68U, 0xbcd2dbc13ccb512aU,
  0x3d064a89bc8322edU, 0x3d0c4515b93e5a00U, 0x3cf4f406bcd82299U, 0xbccdca0cbd050736U,
  0xbc7cac83bc8893d1U, 0x3d132406bd2d22faU, 0xbcea5282bcacc85eU, 0xbcbdb3d53ac991c5U,
  0x3b6aeb6d3c0fcaf7U, 0x3ca584003c848c1fU, 0x3cbe2690bd3b73a8U, 0xbd267512bd442b5bU,
  0xbc7ee032ba15c300U, 0xbcef8bd13c79b61cU, 0x3d001bd3bc9378ceU, 0x3c12be3c3c4164dcU,
  0x3cd12532bc818e2aU, 0x3c890a1c3a7e7a80U, 0x3b154c6c3c41a18cU, 0xbd1e09283ca6d8c9U,
  0xbc9720fa3c8b0d59U, 0x3ced0f123d00abbaU, 0x3b807ea0bc027646U, 0xbc8cf8373c174b5cU,
  0xbc6d597cbcf58446U, 0x3d0c88ff3ce1e816U, 0x3c98a04ebc292faaU, 0xbcba73063d03ffddU,
  0x3c361d383c707cc0U, 0x3c7677503c73f384U, 0xbd073cf33cabb01aU, 0x3caf47383d0b46b7U,
  0x3a62e340bca9f2ceU, 0x3cd260223c0c2e18U, 0xbb67f6b0bb15cbd0U, 0x3c05965c3bbee240U,
  0x3cd2e980bb8a3550U, 0xbc75d4243b5df4b0U, 0x3a2ef6803ca24dc6U, 0x3b6b37f0bc0a751cU,
  0x3d109ea2bd3d2b8bU, 0xbbcc322ebd814d4aU, 0xbd567e59bccaac72U, 0xbd09e8d4bd0571b8U,
  0xbd390c7b3d4e1f5bU, 0x3d333b0c3ca771deU, 0xbc8748f93b717283U, 0x3d41b6b73d59854eU,
  0x3d0e0a113b9536a8U, 0xbcd724b83c26d590U, 0xbcb96becbbba473cU, 0x3ca7cb66bb13cf40U,
  0xbd1e11a83beb557bU, 0xbc2bf2d43d0cbbdfU, 0x3d04e0963dbcefc5U, 0x3d1ad5a73c41b74cU,
  0xbbdcfa663c8da396U, 0xbc4ed7c0bcc0c718U, 0x3c7243f13be55b8cU, 0xbbb40181bd93ee89U,
  0xbb56e2103c4289f4U, 0xbbd0e53cbb965d08U, 0xbc95d43dbba12b18U, 0xb88c72003bb8e350U,
  0xbd03fd483c96f45aU, 0xbcfe7294bbf7543cU, 0xbd08b7c83c056c34U, 0xbd03e80c3b253d50U,
  0xbcd5b6313cb7d5baU, 0xbce01c0bbc387566U, 0xbd0ba1f33cb87d76U, 0x3d036aab3cae7832U,
  0x3d02de43bc87bd47U, 0xbc122f84bc961efcU, 0xbc31dc96bcca3e5fU, 0xbbbb338c3ae034a0U,
  0x3d9ba6a4bdd3d421U, 0x3c967c5dbcaf023dU, 0xbd2919b2bd15b941U, 0xbc2f5d45bd685b38U,
  0xbd0dab1a3d921a0aU, 0xbcb844ae3d15cc63U, 0xbd5168b53d3b3683U, 0x3c97c7ff3d71ac75U,
  0xbacbda803cf24c62U, 0xbc8b21dfbaf5f600U, 0xbcc81c483cb0fc84U, 0xbcae04c1b9296600U,
  0xbd73cbcb3cd70421U, 0x3cb95e16bc57ade4U, 0x3d19e2173d6b35a6U, 0x3d7650c03c875a25U,
  0x3b9a5a523d0c37a2U, 0xbc9c0830bc537302U, 0xbcc82e0ebd1bb369U, 0x3cdc280cbd8e3b4cU,
  0x3c87970ebcc1938bU, 0x3cd9b908bd0d3cd2U, 0xbd0c3f30ba9de2a0U, 0xbd0581cfbcc69b5eU,
  0x3c91f0a0bd000659U, 0x3c9de3823cd866e6U, 0x3cca8f383c41b9ecU, 0x3c86e8ee3c15ff04U,
  0x3bffe1e83cd9787cU, 0xbc372ebebcbe0288U, 0xbcdd557abcc6f272U, 0x3c8a30943c6138c4U,
  0xbca655e4bd06d3ccU, 0xbc931207bc7245beU, 0x3c6806f03cbce5f2U, 0x3d02c611bc84cd97U,
  0xbd0b5ee93c53f950U, 0x3b97eed83c659c32U, 0x3b0a8a7abd307b21U, 0xbc0ccce4bc8eeea4U,
  0xbc873590bc80d0fbU, 0xbce930b7bc99a827U, 0x3cbbfc29bcbcb710U, 0xbd0a8e553caf707cU,
  0xbc63b9163ccddea8U, 0x3c4602d43c9fa678U, 0x3c932d2abc2fb58aU, 0x3c03d880bcc4f09aU,
  0xbcbae600bc40b3f8U, 0x3c84e81abcf072faU, 0xbccf72cebbd66cdcU, 0x3ce0c09e3c84afa4U,
  0xbcf46d4ebc0edd69U, 0xbd0e0c3e3c6ee23cU, 0xbca266edbb800970U, 0xbc985098bd0621d0U,
  0x3c2bb2a03b0fb900U, 0xbcdcdc623bb7b848U, 0x3c7f21ccbb804518U, 0xbcbfac433cfd357aU,
  0x3c484a8c3d04f193U, 0xbc865e9d3a7bea80U, 0xbd040878bbf836bcU, 0x3d0b421f3c15c5f8U,
  0xbd117980bcd28e80U, 0x3ceabba2bd005620U, 0x3d09e2e7bca8fc36U, 0x3b903f183d08c253U,
  0xbaf73320bc253258U, 0xbcc71927bb87bbf8U, 0xbc40bff83d0c47b9U, 0xbc7e2da2bc37a230U,
  0x3cd06d76bcab2a2dU, 0x3c979a5dbcd781e2U, 0x3bab6528bd1fa132U, 0xbc5d0562bce2eef6U,
  0xbd08a4a33c414442U, 0x3c9b1da03c4199a3U, 0xbc5716d2bd3295b8U, 0xbd02062f3cca7705U,
  0xbc2950b6bd10ed2bU, 0xbae5dca0bc37ab76U, 0x3cc759043c4f6040U, 0x3bbc47083c38a808U,
  0x3c99f69737cc09b5U, 0x3ce6dc9e3c37fa0cU, 0xbca0014b3ccca496U, 0x3c891b1abd144b49U,
  0xbd268304bc3a0222U, 0xbcfc9cbc3c21f928U, 0x3d10d83ebb94f508U, 0x3cbbd542bc2408caU,
  0xbca79430bc92dd92U, 0x3bf3ae4838b7f800U, 0xbc1d6144ba870d20U, 0xbc48e392bcf26895U,
  0x3ce315823bb47a28U, 0xbbff5b203c820fdeU, 0x3cce11fabb9c57f4U, 0xbb2b4900bccd3a80U,
  0xbc4810523c28b89cU, 0x3c6e707c3cfcaf7eU, 0xbc3bd42e3cc6a4c4U, 0x3c9624c0bcd8cf18U,
  0x3c53c9acbca528e8U, 0x3c4c52083c895dfcU, 0x3b69ca90bcd2104eU, 0x3b93f9d83bfa0d10U,
  0x3c59b22abcbdf0b8U, 0x3b2298c03c7eba98U, 0xbd0d488cbbe1f647U, 0x3ccdbb9ebd048c66U,
  0xbc7290a0bd2bfd57U, 0xbcfcb94a3cf451d2U, 0xbcdd3c74bcd813bdU, 0xbc83b9f23a387039U,
  0xbcbb30463c5b13b0U, 0xbc93b46cbccfe76aU, 0xbc8467bdbc593926U, 0x3c5a94f8bccf7f80U,
  0x3bc13533bc883b34U, 0x39cfb3003cdd4afaU, 0xbd3b6e80bb8bd370U, 0x3d08d12f3c58dc74U,
  0xbcdb7f223c3e33e6U, 0xbc0f7650bb194560U, 0x3c66b9fcbc87fbabU, 0xbc4aaacbbc885c21U,
  0xbd0712e5bcde8042U, 0x3b3707f03c473f6cU, 0xbb158b303c7d8cb8U, 0x3ab978603caa8794U,
  0x3ce2bc3e3b9666a0U, 0xbbd2fd1c3c668a6cU, 0x3cc7860abceee5e4U, 0xbc3ca854bc9a55c7U,
  0xbcd26cc6bc5f8a08U, 0x3ce33662bcbeba80U, 0xbcec48933c8284bcU, 0xbcca43e73bef81b0U,
  0x3aa53e603caf56a2U, 0x3cc68e5a3c204bb4U, 0x3cc70e3cbc817973U, 0xbc166360bbb6e298U,
  0xbcb7a0de3c224097U, 0xbc8c56a9bd0a4f66U, 0xbc28e35bbc814906U, 0xbcf718753b445df5U,
  0x3c86ca29bc1e11e9U, 0xbd0f06ddbc943908U, 0xbb1aec90bbb7bd73U, 0x3c6fab64bc0284f4U,
  0x3c5e66d0bc4905bcU, 0x3c5bf88cbcfbd530U, 0xbc8eba623a594180U, 0xb9a26b803ca8edfaU,
  0xbc36edf73ba8374dU, 0xbcb6f9dcbc899ac8U, 0x3c8e675c3c8b18faU, 0x3b0adaf6bc9be8a0U,
  0x3c3100d8bcbed579U, 0x3cd73e7a3cd85516U, 0xbc3456be3ca10ffaU, 0xbc0252aabb363d13U,
  0x3b92a2e03b9af050U, 0x3c3511d4bc95d205U, 0xbb30fbe03ccc7230U, 0xbcb7ed653d0c329bU,
  0xbca83e5f3caad514U, 0x3cefe16e3cae398cU, 0x3cd30c98bd018ac7U, 0xbca40822bd032bbaU,
  0xbd09fd7dba9940c0U, 0xbd00c99bbbd56478U, 0x3bb9bf78bd125d95U, 0xbbf8fb3c3cbe7074U,
  0xbd0eade3bcedf20aU, 0x3cb4c200bce5ffb7U, 0xbb4ce320bccfe0ceU, 0xbd08ddfa3cfc65c2U,
  0x3ce64dd73b493ba0U, 0x3d07a25d3c16a6fbU, 0x3cd12ee4bd648e81U, 0xbc9e9fb9bc1ed0eeU,
  0x3cb07637bd554097U, 0xbc148f6ebc8c773eU, 0x3a162d43bc82ec75U, 0xbd6824fdbc44c4a7U,
  0x3ba114b03c0f8f30U, 0xbbca4c343cc39cb6U, 0xbc9910db3cbfb686U, 0xbcb91776bcb64f5fU,
  0xbd2c5e7c3b5a8850U, 0xbd021f48bc64a78eU, 0xbbb1781a3d0006b3U, 0x3c21dcbebceb4fb8U,
  0xbd39eb17bcdfb00eU, 0xbcf71b22babb8aedU, 0xbd303d153ca9f8b6U, 0x3c9916cbbd107818U,
  0x3c3e775cbd067032U, 0xbd0ebf573ac0e140U, 0x3cef2f3abbeb4f70U, 0xbba7c658bccb4de2U,
  0xbbd49cd03cffaf8eU, 0xbce16016bb2bddb0U, 0x3c860eb2bc1d8642U, 0x3cabf16ebcf1e2d4U,
  0xbd037a5ebcef51d9U, 0xbb3f8760bc578158U, 0x3cd1eed8bcb5ccd8U, 0x3d095873bc333920U,
  0x3b97a2c83cc08ac6U, 0xbcaeea923cbedd40U, 0xbce8ce1fbbd8c72cU, 0x3d1039633c293968U,
  0xbb9f8f203c39554cU, 0x3cdf41ca3c81c299U, 0xbb83ad1a3c2d03dcU, 0xbc37e564bbd028e8U,
  0xbd16857abd1da21bU, 0xbb5e97903c8c5329U, 0xbcd5319bbbbfcfb5U, 0xbba6ddf1bc1aeee9U,
  0xbca097103ca7725aU, 0xbca6742abb8d0cd0U, 0x3cbd256e3b1fea70U, 0x3c7b9668bd09107cU,
  0xbbe0a9e5bcdafc12U, 0x3c499cccbba80124U, 0xbceb33f1bcc80edeU, 0xbd120ecdbbd7d78dU,
  0xbcad18a83c26e2c5U, 0xbbebe578bd0db762U, 0x3b9bf4d8b9fe9780U, 0x3ca8e2e9bce14ae4U,
  0xbcbe29e6bb3f0d60U, 0x3c9283923b6c3230U, 0x3c2f629c3b7c5f30U, 0x3c83a58cbc291132U,
  0x3bceb640bc79eb34U, 0x3cad03463c03401cU, 0x3ba42a00bb874028U, 0x3d077083bd0d3d1dU,
  0x3b8c82083c1de010U, 0x3cbf844ebd088a8bU, 0xbd029400bb3dbcd0U, 0xbbbf0cc83c0f5b34U,
  0xbce7abd8bc7e9f88U, 0xbcdad4d3bd10253fU, 0x3ce81b423c23f120U, 0x3cca524cbb978cbcU,
  0x3db97e0cbe039884U, 0x3d4ad6fbbd85ba95U, 0xbdfbfa903c7457e7U, 0x3c2c8cbabd176a80U,
  0xbda9b5753d8a3408U, 0xbc3080dc3c952a96U, 0xbdae34ab3d01cdeeU, 0x3d8b7ffb3d624f7bU,
  0x3b8851d8bc1a382aU, 0x3ca5a35cbca2a55aU, 0x3a5459403c5f76fcU, 0x3cb53816bc8dee53U,
  0xbca178383c9d4ed5U, 0x3d0ed521bcb6be3eU, 0x3d887fa03d4db34eU, 0x3c81d7d6bc9551c7U,
  0x3ce280f53c6903c1U, 0x3d12454fbb3476c4U, 0x3ca75af7bbde004fU, 0xbcc0df6abd87568fU,
  0x3d0ce4353ccccf6cU, 0xb9259800bd09724eU, 0xbb89e7d03b8ec238U, 0xbc11b1323d0fcabbU,
  0x3c4fe194bc027c0aU, 0x3cb410be3ca56b26U, 0xbcf89205bccc56c2U, 0x3cb2a51e3d08ef65U,
  0xbad344603b71a600U, 0xbc6e26babcb26ffcU, 0x3ce82ad6bce49960U, 0x3c4d3dbcbcd3245eU,
  0x3cc96016bbcfb1f4U, 0xbca17be13c8c159aU, 0x3ba3b7203b93c8c8U, 0x3aae4a80bcfbb412U,
  0x3cd5830dbd949ac9U, 0x3c9236f9bde22c64U, 0xbd8843acbd037f5aU, 0x3d194311bd2289cbU,
  0xbd9b32ed3d64f655U, 0x3c442dd83d00eee2U, 0xbd142f083c9d4901U, 0x3d12d4183d27b9c5U,
  0xbad86620bbcce430U, 0xbc5c7aa2bd05febcU, 0x3cd715bcbc98ad11U, 0x3b6099003ce8d096U,
  0xbd00d8433d216687U, 0xbcb21d063cac7e0aU, 0x3c89a2f93ca5ea05U, 0x3c3b0cfb3cfd857fU,
  0x3d4f14aa3d49caa6U, 0xbc5b3f26bd4d2a2bU, 0x3d0ad919bb8494baU, 0xbc22eca9bdd29ebdU,
  0xbab73ca0bcca6385U, 0x3bcf21703c21376cU, 0xbc9dd6d6bccc4ac4U, 0x3d0594bfbaf0f1e0U,
  0xbbe192f03bc27a40U, 0x3c86b350bc071d9aU, 0x3d027b73bc75da42U, 0x3c56ce503b2347f0U,
  0xbd0bf0543c63857cU, 0xba8daca0bc0cff60U, 0x3ca324243c91cda0U, 0x3cf1d4ca3c717e4cU,
  0xbcac24ec3ca44170U, 0xbb6c2ee0bb163e40U, 0x3c6875d43c61f654U, 0xbc29bf923c99735cU,
  0xbc97b77ebbdfea46U, 0xbce2381abc30b9e7U, 0xbc9c238b3aaa2b35U, 0x3ba45188379257b7U,
  0x3bf0ba9abc33fd3aU, 0xbc859c903ca07ce6U, 0x3cf3f62bbc8b044bU, 0xbcb98d7b3ae1ce00U,
  0x3c407e8c3d003d1dU, 0x3afb8a80bb1086f0U, 0xbc6e841c3d0fc1efU, 0xbc7558d2bcf5fd3eU,
  0x3a3357bebcce9011U, 0x3c2ba9ec3d034ccfU, 0x3c95eef6bc8f3febU, 0x3c20b718bd0cab97U,
  0xbceb922a3c0233c8U, 0x3b0039703d06da13U, 0xbc9f71de3c9be4faU, 0xbb72be80bcccbfd5U,
  0xbcf297183cb6eab2U, 0xbc1c05ce3bb3a2e8U, 0x3ce0a8463c92f248U, 0xbc849f593cf997aaU,
  0x3cebd50e3b21d890U, 0x3b66c5e0bd03861eU, 0x3c86df4c3ce2256eU, 0xbc2284a03a792540U,
  0x3c706c5cbccd8c2cU, 0xbca26a6f3ccec8c0U, 0x3b5f80b03ce01b52U, 0x3ce9089ebcba708aU,
  0xbc9563ef3b9dc0b8U, 0xbca465d6bb6a9b70U, 0x3c780868bc4c03ccU, 0xbca3c39abc713d48U,
  0x3c37b91fbcef0987U, 0xbcf8705bbb765927U, 0xbd1749523ca85503U, 0xbcf3b39bbd07ad06U,
  0xbcf7700f3a39282aU, 0xbb2e7cb03c14120eU, 0x3ca94e5a3c421e3dU, 0xbc87bd8cbd2b193fU,
  0x3d0cf3b93beed2a8U, 0x3cfeeeceb5850000U, 0x3cce0ec2bcd714e0U, 0x3cdc53e6bcae1ad8U,
  0xbc2835ad3cb864ccU, 0x3d0eaf51bcac273bU, 0xbcd66bed3b574f30U, 0xbaab1e9bbd0ea8c6U,
  0xbc0c23d03cb78534U, 0xbc88a483ba9012e7U, 0x3be960603be29ea0U, 0xbc36bdd8bd2f0778U,
  0xbd0705acbd0f4101U, 0x3d0bb0a5bcfe752cU, 0xbc0f237e3cd08c2cU, 0x3cdafcfa3d0a8fcbU,
  0xbd0b312b3ce195eeU, 0x3c5a0bcc3c85b988U, 0x3cb9cf003c60e850U, 0xbd11a968bc8611b4U,
  0x3bebb0f8bca23ff8U, 0x3af9d1203c7395f4U, 0xbc09a6b0bc9b7004U, 0xbb02ebe03cc10082U,
  0xbd022cc83c527cd8U, 0x3c223c94bc936831U, 0x3bda7ed03d0af801U, 0xbccb046ebc508ad4U,
  0xbd1885abbd155bffU, 0x3ccf98a43ca41bbfU, 0xbce4ae04bc9c8425U, 0x3c5c7debbc9f4045U,
  0xbaa9fce0bc09fd4cU, 0x3cb8f2c63c9335c8U, 0xbaefdb203cc1f73dU, 0xbcfbed84bcddeebaU,
  0xbcb4bc3c3ca9d878U, 0xbd01030c3ce9ec96U, 0x3cd27c543c8ed89aU, 0xbc3690723d09da59U,
  0xbc0227c43aa81f11U, 0x3ccb8a383d005c5dU, 0x3c0c08ecbcb2118cU, 0xbb5c0c4e3c4411e6U,
  0xbd20518dbb60b105U, 0x3c7b6674bbbfc0e4U, 0xbc754b1cbca7852aU, 0x3b5a7571bac904e0U,
  0x3ceeea3abc41dfeaU, 0x3c6cb9f0bc174e1eU, 0xbcb183b43c20e780U, 0x3c3fc670bbdd0fc4U,
  0x3bef3590bbd1ab74U, 0x3d03081f3cf7affeU, 0x3c799484bd121312U, 0x3c6e1e743d129d73U,
  0x3ca71678bc160104U, 0x3c9c18083cb9a842U, 0x3a65e700bc4c16bcU, 0xb9d1a1003cabd9d6U,
  0xbad792a0bd0c0d30U, 0x3cfe1e823ca3f8b0U, 0xbcd1d97cbccac38dU, 0x3b2dafb0bc065874U,
  0x3dd34000be114b0fU, 0xbc0f1fdbbd38965bU, 0xbd9ab867bc024fcbU, 0xbc9dfbf1bd4d25a0U,
  0xbd65d2563d5e601fU, 0x3cd0b9f23d23da71U, 0xbd63fd4ebc852809U, 0x3cfa85c83d52cd4eU,
  0xbc0f176cbc8d261eU, 0x3c8aed14bb0d3bc0U, 0xbc0696703cc064c4U, 0x3cc1ba04bcb2762eU,
  0xbd6457e93d1a7952U, 0xbca988aebc208a56U, 0x3d5c33a73ce71dafU, 0x3d70ff4a3ca66175U,
  0x3d0b6f2e3d11c20eU, 0x3c09a2a4bcca3e2aU, 0x3d39aab7bc9c45f2U, 0xbcc16c2fbd8decf7U,
  0xbcf2f5f6bb0280f0U, 0x3ca3645c39ba7400U, 0x3d088a23bcb978d0U, 0x3bd919e0bd0fc82eU,
  0xbcda37ba3ce122aeU, 0x3d044b17bcc173e4U, 0xbbf1c6d0bd015929U, 0x3c6fccccbcbce162U,
  0x3c67bbc03c6dcc80U, 0xbc5838c8bc51abbeU, 0xbc9d04dfbc0fbdecU, 0xbcedde783d118821U,
  0xbca9a5c0bc29e4c6U, 0xbc8e4a62bc72d766U, 0xbcf5f38f3c97080cU, 0xbbea8870bc857580U,
  0x3dd16abfbd150d25U, 0xbc511006bd29ccb3U, 0xbd122f9bbd04688aU, 0xbcac3339bd3bbc36U,
  0x3bc6a3303d10b2d6U, 0x3c57c06d3d2d9c20U, 0x3d8fb270bc1c09d0U, 0x3d44986e3ca0e598U,
  0x3ce040de3cd135e8U, 0xbcee25303cf87ccaU, 0xbcf6b6f33b837c10U, 0xbba9f420bcab96caU,
  0xbd839f903d27e773U, 0x3bd77ae83cac7b1aU, 0x3b1a0a733c8a4aa3U, 0xbca7ead63c0ca583U,
  0xbcd731f83d2412b3U, 0xbc147efe39f5f8e6U, 0x3d28fe02bb69f031U, 0x3c7e39b1bb9723a3U,
  0xbd0fe9f8bca71ff1U, 0x3ccbb944bb8a24d8U, 0x398f7480bcddaf9eU, 0x3bfd00c8bb6d6460U,
  0x3c8c920cbb714550U, 0x3cefcc3eba92e000U, 0xbc8b61883c1c1db8U, 0xbac70a20bd03f074U,
  0x3d0c38abbc9f82f7U, 0xbcc81470bc98b713U, 0xbcfa8ffcbadf48a0U, 0xbc94256d3c8a0d4aU,
  0xbd0d38053cb72f96U, 0xbc765ac4bd064699U, 0xbc631d54bc98476eU, 0xbc27304a3cafd044U,
  0xbd5e4ba83d3a05b1U, 0x3a445fe53d8ea04aU, 0x3db9591d3d8e822eU, 0x3cdc510a3d71623eU,
  0x3d0ab7eb3c07940eU, 0x3c5a36e03d271ebfU, 0x3bea4b703c87fcbaU, 0xbd0eeadcbd90d5c2U,
  0xbcf257ea3d0611a7U, 0x3cd70e00bc98d36aU, 0x3d0c8fbf3d003709U, 0xbc5285e83aa82920U,
  0x3d8cd429baadc350U, 0x3cdf6486bc884cb7U, 0x3b215add3c67eed1U, 0x3d06e8debc82e2eeU,
  0xbd224cdbbaaa5938U, 0xbc62fdf6bcbb4deaU, 0x3d1b484e3b403396U, 0x3d7099053da642f4U,
  0x3cad2916bc613e6eU, 0xbcbf98fb3c9730f0U, 0x3d1245c5bb43ba90U, 0x3c56d384bcf5a0ebU,
  0xbb49f150bb124d80U, 0xba5451c03d0afb85U, 0xbb3674003c609b30U, 0xbc490ccabd09c922U,
  0x3ce9be363bbe96f8U, 0xbc343edcbc9159d9U, 0xbad9c4603b08b1b0U, 0x3c5cdb903b56a280U,
  0x3ce0cc6ebb7a2a70U, 0xbcc8f1d3bcaa29f2U, 0x3cc34668bae3fd60U, 0xbca104e1ba8c7420U,
  0x3db116d7be02750eU, 0x3d1e38cdbd7c3c13U, 0xbded9667bcfcf214U, 0x3d15e015bd82b91eU,
  0xbd3c03fc3d95075fU, 0x3d02d87b3cac1dfdU, 0xbd44be083c90d40eU, 0x3d540f7e3d9b729dU,
  0xba215fc0bca28ef9U, 0x3b6d7b20bcfcc2f0U, 0x3c3638b03c61bba4U, 0x3b8443b0bc91f185U,
  0xbd90bbda3d79a1c8U, 0xbc23a1aebc5fdcfeU, 0x3d2967c83ce09d0dU, 0x3b6876f03cdc006dU,
  0x3d0dc9a43c264a69U, 0xbcc6c93cbd199408U, 0x3d1f09aebcdc4893U, 0xbce37548bd3211c7U,
  0x3d033d933ca66674U, 0x3a031dc0b9cd9d80U, 0x3ce05706bcbad398U, 0x3c7e8dfc3d0067c9U,
  0x3aebbb00bcddcfa2U, 0xbd096d1d3b1e65b0U, 0xbc49f03abc4c37caU, 0xbbbfd2c83ceabc32U,
  0xba538c803cd01470U, 0x3d05d3873a897be0U, 0xbcf32b4bbd06697dU, 0xbc16b9c63ac0a000U,
  0x3cb7bb1a3c60af18U, 0xbcaacf513afc2200U, 0x3a1c9f803c97e202U, 0xbca40cbcbcda7169U,
  0x3d42d15bbd910f06U, 0x3b0d11dabdb26ec4U, 0xbda9fc2abd15932bU, 0xbc860df2bd22649fU,
  0xbd9a1ec03d91ddcdU, 0x3c85b68c3ca00c93U, 0xbd563bacbc0a92c6U, 0x3d2db8a73d511ed6U,
  0xbce8dc283d0ffa31U, 0x3d0869073ac9bb00U, 0xbcda0f563be6bb08U, 0x3ba17d40bc897f69U,
  0xbc97e6ee3d4b7433U, 0x3b90ddb8bcd42546U, 0x3d7dc7863d95e875U, 0x3d730b113d0f4655U,
  0xbb8878603b822ed8U, 0x3cefbddebb1cec58U, 0x3d4882b2bc8ad8ebU, 0x3bc307a2bd633cc9U,
  0x3cb7abb63cade2d8U, 0x3b69ed60bd014a2bU, 0xb923ab003c4d3b10U, 0x3849c4003d0a68f9U,
  0xbd076ae33c60ca90U, 0xbb5963c0bc87a8d0U, 0xbd019a8d3cefd72eU, 0xbc1a28eabb49ece0U,
  0x3bc6bff8bd0fdaecU, 0xbb0daf60bcdf2790U, 0x3c06a008bd08a8efU, 0x3caa4eb8bc4e443cU,
  0x3c2f12d8bad63780U, 0x3c85a76ebb2ce4c0U, 0xbc981cc93d04ea17U, 0xbc9a02acbb4b6820U,
  0x3cc052153d2eb2e2U, 0xbc65670abc973013U, 0x3d306716bcacf848U, 0x3c054ff53bf914b0U,
  0xbcdc4949bd261da2U, 0x3bd282483b4004ddU, 0xbc7296d4bba50dc3U, 0x3ccd28fabd289b59U,
  0xbba32854bc6904deU, 0x3cfd3a5a3be63250U, 0x3bb39928bc0c47d6U, 0xbcbce00abcde3bdaU,
  0x3bee810038f87441U, 0xbd04c9f43ca72dd2U, 0xbc9c90363c6af374U, 0xbbbe4fd1bc9d11e8U,
  0xbd29c9413c9d2960U, 0x3d034b533c485c26U, 0xbaee4a15bca1ee43U, 0xbd1971de3ba6256bU,
  0x3b57ab70bbd4e2c8U, 0x3cb64cfebcd97ad1U, 0xbc755434bc82ba6eU, 0xbb0747703c6a19a4U,
  0xbb884b203ce2dc62U, 0xbb0484d03cd1ee4eU, 0x3c10acdc3cb888aeU, 0xbab1cf603d11700fU,
  0x3cebff12bd016e0bU, 0x3c68ff643c55cde8U, 0xbc40d85abc8f0039U, 0x3cf335b63c9ee1e4U,
  0x3bf6ed403b85e4a0U, 0x3d021901bd0a12c2U, 0x3b388e403c356ff8U, 0xbcaaa214bd05857fU,
  0xbda059d03d45eac1U, 0xbc68b09bbcb6309eU, 0x3dc864243d8a6796U, 0x3c8aa5093d3e85b7U,
  0x3d940d293c5372b2U, 0x3cb381c83cb03419U, 0xbd94c20f3d121fb5U, 0xbc642860bd7ba8f2U,
  0x3cf94c4e3c796854U, 0xbce906ce3acac6a0U, 0xbb6594403cd3749cU, 0x3cab0374bcda685eU,
  0x3bfc1ac2bbaaada1U, 0x3cba353a3d02c985U, 0xbcb92306bd75410eU, 0x3c7ace8abbc2ac01U,
  0xbd0f9b0cbbe3ea2bU, 0x3cd7e772bc9da15fU, 0xbd28b7a5bd36b0c4U, 0x3d2b2cbd3db3520aU,
  0xbd03baea3bbbce88U, 0x3c8e2408bb8510f0U, 0x3c45d430bc06412eU, 0x3c51dd0cbc66e2baU,
  0xbb3c2370bb3eab20U, 0xbba249683b3bbc30U, 0x3bdf6f18bc12c844U, 0x3cb619c6bba501e4U,
  0x3ce53d7abcbf14eaU, 0x3c6e6f4c3b7d42a0U, 0xbc26309abd0aee08U, 0x3acf6cc0bcb7f497U,
  0x3cec04debd0a7ef0U, 0x3c81de14bd0603e6U, 0xbcea80c53cd89c08U, 0xbce64854bc7aa8d6U,
  0xbc4c879fbcf89438U, 0xbd05fec8bcd7312aU, 0x3b6b24503bacc6c6U, 0xb9d1a9713c96d3d3U,
  0xbaad74f13b42cedeU, 0x3ba6de08bcd727c5U, 0xbbbb82b0bc5b290bU, 0xbc0faba03b072e64U,
  0xbd1210aa3c527edcU, 0xbc610a023d0269d7U, 0xbc9c015ebcd93b7eU, 0xbc7e8e223a05f700U,
  0x3cefa4603b4242a3U, 0xbd073df1bcb7973eU, 0x3bfd0c23bc09afd2U, 0x3b081c03bb89ae19U,
  0xbd1d9d193c841e85U, 0xbc857bd6bc0dc56aU, 0xbbc35d083c64b3e0U, 0xbd339f003cb6e04dU,
  0x3d026a7bbbb586c4U, 0xbcc19c103c5d1374U, 0xbcbd36ec3cfa6af6U, 0xbc1c5af43ca56df0U,
  0xbc65ceea3caafc80U, 0xbbcc8b2c3d09c349U, 0x3b8f8df03d04e70fU, 0x3c83b5043d0638efU,
  0xbcf30ed83cddcd5eU, 0x3c9ec8fe3d081b5dU, 0xbbc21b6c3c95a632U, 0x3b0a6cf0bcecd85fU,
  0x3c970daa3b8e89d8U, 0xbcbbc06a3cf35332U, 0xbc19823cbc3550beU, 0x3cf0eb0a3cc1cb94U,
  0xbc52d17bbcdb520bU, 0x3cdb25873d99c7f0U, 0x3e10817e3d8001f2U, 0x3d16865a3b8b8233U,
  0xbc695d983ba23117U, 0xbb880bf8bda1256aU, 0x3d5ad667bc315f11U, 0xbd4beeee3cc5b296U,
  0xbcf79356bce4bb28U, 0x3cf345463c783570U, 0xbc9b76df3caa0060U, 0x3cacd35ebc906f97U,
  0x3c253bce3c1a509eU, 0x3c766fac38867c00U, 0xbb4874ecbd11009eU, 0xbbe12d5d3a2407c5U,
  0xbb79cabbbd013dcbU, 0x38d11c003aebde38U, 0x3cfa645ebc132a32U, 0x3d58dd183dbb5af7U,
  0x3b4f71d0bcee190cU, 0x3c9c28123d0deb29U, 0x3c69770cbcdf17f8U, 0xbc80478b3c7eb370U,
  0xbc5581403c7a1258U, 0xbcc0e8dcbd030bbcU, 0x3c3abe083c68c464U, 0xbc9d256bbd04fe00U,
  0xbca794b43c94a870U, 0x3ce2013e3cdc3e0aU, 0xbc1e976a3b9b3e18U, 0x3b0ef7503c96c68eU,
  0xbb5ec9903b76c7d0U, 0xbcb239f43cbddfb6U, 0x3be283d83d040429U, 0x3ce372b23cc46198U,
  0x3d56debfbdd30f99U, 0x3bc5e5afbd82bbbaU, 0xbdeb4facbc30b377U, 0x3c18065bbd220e3fU,
  0xbd0db8733cae95e4U, 0x3c80fd66bd04e205U, 0xbc33c86a3d7c3c95U, 0x3d3774f83c71bff2U,
  0xba63a8c0bb63a550U, 0x3b883390bbb6a1b4U, 0xbc90b5693cad7818U, 0x3cefbcd63cec1c96U,
  0xbd275ec03cad2793U, 0x3c2a3660bbf60798U, 0xbbbdb805bccd7787U, 0xbb2dd46a3b878145U,
  0x3c34bb163d4b1427U, 0xbd0409b9bd0d2b32U, 0x3a2ae74dbd199b75U, 0xbcf53056bd81e13fU,
  0xbb8f01803d0c4d13U, 0xbaca3840bc13ebccU, 0x3cacd8d03ce1388aU, 0x3bb8c0983d065119U,
  0xbcf1b5e0bbb4de7cU, 0x3b6e1c20bac50880U, 0x3c24efe4bc99de58U, 0xbc2f22fc3cd8c86aU,
  0x3cd9db9abd0802deU, 0xbba45fa0bcf29fd0U, 0xbb47ed90bd0b5513U, 0x3c22558cbcad0d5aU,
  0x3c442604b9d94700U, 0x3c35ff4cbbba21a4U, 0x3c5d00b83d0d72d9U, 0xbcde472b3b99a930U,
  0xbd83de053d1aaac9U, 0xbd11e4003cfdf549U, 0x3dc0bc253d96002fU, 0x3d13488d3cf22c06U,
  0x3d66d3ff3b0f3892U, 0xbcc4fe933d9b0dfbU, 0x3a9030cabc03a0d3U, 0xbbb7a939bcdc0a5eU,
  0xbacb72203ba8ade0U, 0xbd126206bbb48da4U, 0x3caa41acb9b39200U, 0x3b3b1710bbb62ffcU,
  0xbbedbc183ced56deU, 0xbaa8abc0bc8e214cU, 0x3c8d1c17bd277aefU, 0xbc9e4718bc8ca4bfU,
  0xbcb0dfb6bd4cc92bU, 0x3c6419d4bcb2198bU, 0xbd08e7573d1cea21U, 0x3cd5c8513dd1ee81U,
  0xbc031ae0bc52e8e0U, 0x3c0ac4ecbcb58a35U, 0xbcdfbd60bd05e217U, 0xbcaa38cabc19e936U,
  0x3b3bee703cc515f6U, 0xbb9895903c0ee3b8U, 0xbcf8830ebc3f7628U, 0x3ce772523c615a64U,
  0x3cc60d22bcba9b13U, 0xbcaba0a33d0c9411U, 0x3c721dc0bcabca90U, 0x3c0a45583d041d8bU,
  0x3cc7c8ec3c6e13d0U, 0x3cd88872bb8a9b00U, 0x3c8bb4243c24e008U, 0xbd09d2fbbcffe864U,
  0x3db06cc7bdc0646fU, 0x3c53458ebdae6607U, 0xbe015f473bd8e758U, 0x3b91742abcff55e6U,
  0xbd60f9dd3c77228dU, 0xbc14dc703c6bae4cU, 0xbd0542bd3c4e8586U, 0x3da698113cccce60U,
  0xbc840a053be0a778U, 0x3cfa01aebcd1e496U, 0x3ba72de03c470878U, 0xbd0073a33c9f865aU,
  0xbd471674bc4827adU, 0xbcbed3dabc089cfaU, 0x3d57a2313d8e4bb2U, 0xbbfad60f3d201c29U,
  0x3d3cd579bbf7838dU, 0x3c2559c43c3c1d64U, 0x3d119dc1bc75437bU, 0xbc75f465bd61ba9aU,
  0xbceefcd8bbb041c0U, 0xbc6084c63d0844ebU, 0xbce1bc803cdfaa2aU, 0x3ce0c2d2bcd2a068U,
  0x39f6cd00bce075aaU, 0xbcb3b9003ccadbb8U, 0xbca4ac9c3c5cfa48U, 0xbce8173a3ba8b5c0U,
  0xbccdb7b63cd0c310U, 0xbcabdbb33b4a45d0U, 0x3b1d6b103c7473ecU, 0x3ce6b4ca3cb2e2f4U,
  0xbcd7eb6cbbf114a4U, 0xbd0414503c9fd2f0U, 0x3cb1a2623c52f354U, 0x3caeb8083b386b50U,
  0xb9850ee9bd6b91aeU, 0x3c52ade8bd0ffe40U, 0xbd503871bd2fafa5U, 0xbacbda203d22fbf7U,
  0x393762cabd73a43dU, 0xbc87176d3c169c21U, 0xbc6f02dc3ce26000U, 0xbcc1722dbafcbe9fU,
  0x3ca55710bcdeb0a6U, 0x3d0b5f2b3ab36e80U, 0x3d0186353d021c55U, 0xbd00c2e93d09751dU,
  0xbd44b164bc516120U, 0x3ccda6543bd46ad0U, 0xb9086d47bcb2ef34U, 0xbd038c5ebd846f41U,
  0xbd17a88f3bf88538U, 0xbad719c03b8a3b10U, 0xbc7b55d03a371b40U, 0xbc28d782baeb5282U,
  0x3bd6a700bcc7ed72U, 0xbc870d6b3bfd51c8U, 0x3d03fc293d03b6cbU, 0x3cd0f5b0bbc29b54U,
  0xbc5472e2bd03687dU, 0x3cf25c22ba0c4d80U, 0xbc9506c0bb4e66b0U, 0x3c8b96fe3cb800e0U,
  0x3c98c60eba184b00U, 0x3ae6b160bcd8212aU, 0x3c044690bc8bdb66U, 0x3c0393a43c0a9eecU,
  0xbc4270aebc83f295U, 0xbc82cc6c3b1051d0U, 0x3cc57cb43ca1bc66U, 0x3ceebb86bcaf0592U,
  0x3d297d07bd893be9U, 0x3d283c0fbd89d8bbU, 0xbdd359b33c8654a2U, 0xbd3ec21abb91de55U,
  0xbd8520313d78c4dfU, 0x3d23c7863ce3c3a6U, 0xbd530733bc55fc83U, 0x3d1ced1d3d5caba7U,
  0xbcb9a0743cfbe396U, 0xbb7b8530bca829a8U, 0xbcbae1663b40a2d0U, 0x3c634134bcdb0228U,
  0xbd64faf739f4fb0cU, 0xbba6a878bca6f414U, 0x3d05747a3dc53f03U, 0x3c9319c73cba8a24U,
  0x3d09e4583c353666U, 0xbc2c45cabcc3351aU, 0x3ca24c80bcb63ecbU, 0x3c10f1f7bcda15b4U,
  0xbd0d6c05bca33ac1U, 0x3ce75cfabc6b58e4U, 0x3c6ee0903cc08934U, 0xbbbee6543c3dac90U,
  0x3aaf5de0ba970220U, 0xbbc0ba50ba96fa80U, 0xbc6b89bcbbd5293cU, 0x3cb250e2bcf5cf9cU,
  0x3c954c2e3cd7138cU, 0xbcfdb7103c9d6c5aU, 0x3c6ec014bb477270U, 0xbbf43644bb998b9cU,
  0x3aa1ac403c87cc4cU, 0x3c664d743caf696eU, 0xbce35b4abc1c73e0U, 0xbc7706dabcd9dab0U,
  0xbd684baf3d297e60U, 0x3cece77a3c003323U, 0x3de0afaa3d46233eU, 0xb97e65343c9705a4U,
  0x3db591d23c365d59U, 0xbc8aee0b3d1605c5U, 0x3c86c1acbd10317dU, 0x3c362d36bdf25676U,
  0x3c43bf243c9d2da8U, 0x3cea1906bb2a75a0U, 0x3c19aad8bbf30b6cU, 0xbc65c0e0bc75f2caU,
  0x3d563b433d2e1065U, 0x3cc3045cbcdcdce7U, 0x3ca3eca63c118b63U, 0x3c60ac8cbcabb9daU,
  0xbd069363bb2c3989U, 0xbd055ba1bd83ed29U, 0xbd7a22e63c913272U, 0x3cd0d4173dd32778U,
  0x3c8e93ee3c8bc2f2U, 0x3cb8db0e3be2eac0U, 0x3ce1f33ebd0c791dU, 0x3c4ec2503cb3c962U,
  0xbcb1d1eb3d0c91a3U, 0xbca6eab33c3f6630U, 0x3c46c15cbc2507f2U, 0xbcbcd0f7bcda30e8U,
  0x3c0e70e43cd0d82cU, 0xbce612443c00dc0cU, 0xbc52c46e3c544c10U, 0xbc33dbcabb95d97cU,
  0xbcc50babbcc434acU, 0x3c93e5d03d0a4211U, 0xbc726a32bcb24fcbU, 0x3c260520bcde5723U,
  0xbc59f1ae3cb23be8U, 0xbcb090d03bf13034U, 0x3c802f6d3c85e91cU, 0xbc545d0cbc88a9b5U,
  0x3c21ec2bbd072bb0U, 0xbb550a30b9b46838U, 0x3cb04fe33cc53e59U, 0xbcefc56d3c851631U,
  0xbc804b89bc60be5aU, 0xbcbadb1c3c9f443cU, 0x3c76f48c3c4eb128U, 0x3cfc2546bce47c10U,
  0xbd1223aebd139e2fU, 0x3cd920883bd92690U, 0xbd0381a83cca709cU, 0xbb5a92f1bc5ae2a5U,
  0xbd3043ecbcd02872U, 0x3c9b42223ba13e98U, 0xbcce3fdebaad4c20U, 0xbd37964a3c29f505U,
  0x3cdff4163ce21a8eU, 0xbcb0b2263bfdbfb8U, 0x3c8807aa3cb896a2U, 0x3cca43703b2db8a0U,
  0xbcf365df3c9034b4U, 0xbd03f6e6bc1482caU, 0x3ca8a74c3bf660e8U, 0x3c7c8d64bcad5a3fU,
  0xbb975ca0bc1b3d54U, 0xbd1294743cc709beU, 0x3c9a2a46bc1ef06eU, 0xba620900bbfed390U,
  0x3bd5dc683cc51e92U, 0x3b3e3a40ba27c480U, 0x3caf14b83c4be654U, 0x3c9c2d3a3cf1b6e2U,
  0xbc36e3553adbe4b0U, 0xbcaf67fcbcdd677aU, 0xbd00351cbb41f92cU, 0xbd039c68bca83e69U,
  0x3c81f1fbbce2cb2fU, 0x3ce1ddaebc360232U, 0xbc9d64cb3b8dcc70U, 0xbbadf6883c18cc25U,
  0x3bdd4008bcad4f01U, 0x3c893df03b4f73a0U, 0x3c669b803ce73f5aU, 0xbb096300bc83515aU,
  0xbd1a0565bc2b7920U, 0x3c93e43a3b016ca0U, 0x3cf00b6abc9211adU, 0xbccf4cd6bba43de4U,
  0xbd55503a3c062decU, 0xbcc11c6a3c33923aU, 0xbc33a8f23adf38e0U, 0xbcf88e703bdb7d64U,
  0xbc65012c3c769a88U, 0xbd06e859bc867d5fU, 0x3c953f2ebcadb250U, 0xbc02359c3c456d2cU,
  0xbc961310bbfa1764U, 0x3cf65a86bc9ba413U, 0x3d1208e5bc1ac358U, 0xbbf6ed1cbb5f8790U,
  0x3c3d3fb83a09a980U, 0xbc1dd5f63ccb6bf2U, 0x3bd39f703cd8f01aU, 0xbc04654a3cb31544U,
  0x3c7661483cb08066U, 0x3c9ec96c3c9b0318U, 0x3ce5902239b0e500U, 0x3c2ecae83c934c1eU,
  0x3b894b95ba7bc5a9U, 0x3c24b3d0bca8e459U, 0x3ccc0e58bc7f777fU, 0xbd0e6f5abcaa7a14U,
  0xbc4363a8bcd2eb8fU, 0xbcbf78e63ab03620U, 0x3d064953bcb98f92U, 0xbc95d62cbbf6b0fbU,
  0x3d063b81bcad9389U, 0x3c4f1c483cc54bdeU, 0x3cf61d86bccacf2cU, 0x3bc8d078bcbc4674U,
  0xbc5991d33c17af81U, 0x3d11e6313cb0b6c0U, 0xbcce70803cce5d30U, 0xbcf720e8bc2f23b9U,
  0xbd05549abcf08ba6U, 0x3c08e7c4bc92a53bU, 0xbbf7239d3d06b26fU, 0xbc8c3916bd168fc3U,
  0xbc05540abc01bd4cU, 0xbcc1fe153c71ef84U, 0x3c196e30bccf5042U, 0x3bdd76883c0873b8U,
  0x3bc699f03c8fe24cU, 0x3d0d528bbce38f48U, 0x3d11fe1f3bf65f88U, 0x3b317ca03d09bdd9U,
  0x3b8b19883c392410U, 0x3c75b3fcbcc11b98U, 0xbcf9e7cebb7a1b60U, 0x3b4527f03c9669a4U,
  0xbd1243d9bc0a4228U, 0x3d0219b53c0f6230U, 0xbcc5fda0bc9ac53dU, 0xbc3f721e3b465090U,
  0xbcf4a4813c86e7b9U, 0xbcc50f9cbca19b74U, 0xbcaba9c23ba039e1U, 0xbc9da687bd3a7588U,
  0xbd220559bcbbe91eU, 0x3d0db514bc548d1dU, 0x3c9fa2a13ca058e2U, 0x3ca125363b24572eU,
  0xbaa030803c409bb0U, 0xbce9f5f3bc9ad4daU, 0x3d1197c1bcf3603bU, 0x3cf32d6ebcf6b227U,
  0x386f7cdc3ccff001U, 0xba93f760bcdef6ecU, 0xbca28ec4bd01f881U, 0xbd313296bcc53868U,
  0xbbf28582bd389924U, 0x3c8dfcaa3ced0642U, 0xbc818e403be9acf0U, 0xbc98f5a83d107c47U,
  0x3b9aa678bbfec204U, 0xbce8349b3c3b344cU, 0xbc7f79bc3bea2578U, 0x3d0033f73d0a97b3U,
  0xbcf32d233c8a9708U, 0x3c247d583cb24bf2U, 0x3cc9d154ba51aac0U, 0xbb986d983b4b8640U,
  0x3cd8667cbd0f2350U, 0xbc979f61bc909b0eU, 0xbc241670bc32531aU, 0x3cad89febce70559U,
  0xbc81fc96bccd2be4U, 0xbca38b03bcf0a484U, 0x3bda7df03d06799dU, 0x3c2953dcbb8c5a48U,
  0xbaf8f1853b5b2473U, 0xbc6e7f38bcbdee68U, 0xbc384bcd3c8ea5e2U, 0xbd09e7a5bd174727U,
  0x3bfd0fdabc841a8eU, 0x3cf09e7abc16581eU, 0xbbb35454bd2f8fbaU, 0xba3cda6f3b8c5ed8U,
  0x3c623bdc3bf22cd8U, 0x3c9117b6bbf39548U, 0xbc0573283bfcb398U, 0x3c862bdcb9b28380U,
  0xbc596024bc8f046aU, 0x3cb9cbc23cafe44cU, 0xbce03a86bd0b224dU, 0x3c459668bb7ab01eU,
  0x3cadf6f0bc890913U, 0xbc6bf240bc83e6a0U, 0x3c277024bc426542U, 0x3bb01d223c753ddbU,
  0x3ca7f686bcb36847U, 0x3c98e33ebb1fbc50U, 0xbb8635403cc25654U, 0x3a5a6100bce3b848U,
  0xbcb50feabcc35218U, 0x3c87b27cbd0675f3U, 0x3c4366d83c9ceaaeU, 0x3ca6ade6bca0dbefU,
  0xba6592c03ca58d2aU, 0x3c5a823c3ce58fcaU, 0xbcd7a4663c5fb3acU, 0xbb5b1b90bcf0ff96U,
  0xbaac5b40ba730400U, 0xbcd9d840bab35b00U, 0x3b6fc4a03d03c9d7U, 0xbc9251d23ba86ac8U,
  0x3d43c460bdb325c0U, 0x3c80c872bdfa2533U, 0xbe066b3fbb965416U, 0xbc99723cbc4c4f1aU,
  0xbdf590f03d168790U, 0xbc6f71b0bd078bc8U, 0xbbaef7533d258251U, 0x3da12a9a3d903274U,
  0xbcc67b6ebc9a0ecaU, 0x3bc735583d0b8e27U, 0x3d036a1dbb9b4508U, 0x3ba00758bcb0b800U,
  0xbc2de1f1bc7ee5d4U, 0x3bc88208bc4c20a8U, 0x3d5dcc753c401ab7U, 0x3d041c3bbd18b49aU,
  0x3b87b8613cb68b10U, 0xbcef6533bbc9caacU, 0x3d3318653c065cd6U, 0xbcfd2228bdb32362U,
  0x3c58ca00ba2c9e00U, 0xbc12e0b83d0db8f1U, 0x3d0d921939ad5b80U, 0xbbfce8e03c8025e6U,
  0x3cbb3828bce1615cU, 0xbc2e4d5e3b8674a0U, 0xbbec4fe0bc33017aU, 0xbc3df1503c86cec6U,
  0xbcaa4d783ae79dc0U, 0xbccb5906bd0c0576U, 0xbb3d29b0bca314dfU, 0x3d0f79dfbc620744U,
  0xba08a540bc26da88U, 0x3bea6c70ba946ba0U, 0xbc2231aa3cf07492U, 0x3c6959e03c9b4604U,
  0xbc18d3cd3c2e69efU, 0xbccbc29e3ad4937eU, 0x3d29c185bc5e6d2aU, 0xbccec4703b862a93U,
  0xbca42c8a3bd6a7c1U, 0x3d124263bcb28a99U, 0x3d588d083c7a7feaU, 0x3c9a0704bbf9a4ffU,
  0x3c90fc2e3b65c460U, 0xbc5336803c83d832U, 0xbcec75833ccd5198U, 0xbc9a33b5bcc6e9bfU,
  0x3b8eb503bc7cbf00U, 0x3c7798dcbc14bc0aU, 0x3bb482b53caa83b6U, 0xbd2824e9bb7b35bdU,
  0xbcdb92d6bccb10d4U, 0x3c84f28abbf675f0U, 0x3c463214bc072986U, 0x3cd128e23cac54bfU,
  0xbcadee57bb699aa0U, 0xbc2d6d1ebcdbf5e7U, 0xbc2d1794bd062054U, 0x3d05279fbcd6bc7cU,
  0x3bc6fda0bd11b14eU, 0xbd0b07163cb19ed2U, 0x3c8eedd2b914d600U, 0x3c9f296e3cfc65f2U,
  0x3bcb9e90bc29cc48U, 0x3c9984ac3cb6c02eU, 0x3cf697ce3bddbec8U, 0xbcd71eaa3c7e553cU,
  0xbc8a764abcd32166U, 0xbcdbf6f63c4efaecU, 0xbc13855c3c45db98U, 0xbd05989ebc1cc442U,
  0xbcc35b28bcedb0daU, 0x3c1bce2cbca2fabfU, 0x3cc118c0bc60402cU, 0xbcd467c9bcdcc110U,
  0x3c3b4d4cbd1b9338U, 0xbb8f4d58bc83aa01U, 0xbc8c08113bf105e5U, 0x3bb6ccedbcb8d25fU,
  0x3b9007883b881a38U, 0xbd0406643d0c1f37U, 0x3d113b45bb4393c0U, 0xbcbc6712bc976b07U,
  0xbaebb0643c27e063U, 0x3cd1bfb0bb9bc290U, 0x3cf0c11abc5dc254U, 0xbd0ac82a3cda9be8U,
  0xbce2d4f0bd05cd39U, 0xbc97c3413cdd676eU, 0x3c28cacc3c75a7bcU, 0xbcc9d6e8bceaad1eU,
  0x3c8afae0bbae1f38U, 0x3c850b0cbc9168beU, 0xbcde25c23c6cd100U, 0xbd0ec8463c41bf0cU,
  0xbc1675ac3c9569ceU, 0xbca2a6693c189d14U, 0x3ccf6eacbb072fb0U, 0x3cbabce83cdeb74eU,
  0xbd0a823b3d099d15U, 0x3c6dca743ce8d60eU, 0x3d0fe7833c967e80U, 0xba60a940bca9f1aeU,
  0xbceaa0423c4dd0ccU, 0xbce36e45bcb82ed0U, 0x3cfee31e3c716f44U, 0xbccb7f43bce9a9a6U,
  0x3c4be5b4bcd7c575U, 0x3cad8cbcbc786375U, 0x3cea659e3c68cddaU, 0xbcba4c7bbcc03a79U,
  0x3cf8eaa1bd15ba47U, 0x3b4979003c73e0afU, 0x3c0621d0bd0da73fU, 0xbcee32eebb66be8fU,
  0xbd11065cbc052bf0U, 0x3babc2183cf3ac16U, 0x3b972b203bc823e0U, 0x3ca1e022bb0839f0U,
  0xbcb60dcbbc1245ceU, 0xbd0bd99e3ca0be18U, 0xbc9efd213bb79130U, 0x3ad88c79bd220b84U,
  0xbaedaba33c9d54a7U, 0xbc99191cbb9a9f54U, 0xbce8d8183bf443f0U, 0x3c7213b3bc438359U,
  0x39ce7480bbcdb818U, 0x3ced7212bb786320U, 0xbb41a0a0bb391aa0U, 0xbca8b5763cefdc0aU,
  0x3ca83354bbe556acU, 0xb81e68003cfa706aU, 0x3cf29102bad05e40U, 0x3cd958e0bcc19804U,
  0x3d06ddc9bd0475c0U, 0xbd0ff2b0bb0b2390U, 0xbc5d926cbca89465U, 0xbcff89afbcfcc7efU,
  0xbc8db66fb9a75300U, 0xbc8ab7b03c44d07cU, 0xbcfb5bf83cdeab9eU, 0x3d0d8f0b3c54e75cU,
  0x3dd820b9bde45081U, 0x3d42f3b4bd7a2edeU, 0xbd9986ff3c9f8198U, 0x3cd80269bda0396aU,
  0xbd8b1e113d35207aU, 0xbd1ca876ba8d5865U, 0xbd947d853aeab571U, 0x3d9c9d0a3d56aa32U,
  0xbcf3d7f73d067fe7U, 0x3cb64a2ab980a580U, 0xbaa8eec0bd0cdafdU, 0x3c5ebcf8bcd52638U,
  0xbd59c2083d6613a7U, 0x3c35c29cbc6746d6U, 0x3dc298553d02352eU, 0x3ce581c53c51a610U,
  0xbc04a0773c664998U, 0xbcb814503c901649U, 0x3d20e0f9bc84188eU, 0xbc129c88bd6ff9bcU,
  0xbc6f49dcbcd100b4U, 0x3ccc49e83c3f0da4U, 0x3be7a4203c7313d8U, 0xbc8e19bdbbc97014U,
  0x3c44ef183c98609aU, 0x3bfa28b83ccecc90U, 0x3d03c22bbbec8c50U, 0x3c5ae81c3d08e2f9U,
  0xbcfb4a883c334d10U, 0x3cc8894e3bd681f8U, 0x3c044840bcf820e9U, 0x3cdf2cd63cc56b24U,
  0x3d11bd073cd70a9eU, 0x3d05abb5bc6fa4eaU, 0xbd026fedbc72ad78U, 0xbc45734abcd9f48eU,
  0xbd939a3b3d24ccb6U, 0x3c8a46043d88bc75U, 0x3da480a83d501055U, 0x3cac84b23d8730f4U,
  0x3da7326ebd0fe9f5U, 0x3cd8bf563d6c5cecU, 0xbc1c1972bc1f9379U, 0x3baf4460bdb58460U,
  0xbb248d503c9f0a04U, 0xbcde9ab43c84f906U, 0x3be496a03c2e4b9cU, 0x3cd30d26bd0b6fd9U,
  0x3d9e91fabc0972f0U, 0xbcf3f40a3cda90f4U, 0xbd2004103cc0ea4bU, 0x3c8e19583cb10573U,
  0xbc879e033c958dd9U, 0xba5a0d80bd8d2432U, 0xbc1ae20d3b5ab95cU, 0x3cd064a73e1413f4U,
  0x3c9dc1b2bcd68eecU, 0x3c4323d83bac3830U, 0xbc6fdfd03d027cf5U, 0xbd0d4cbebc5df7dcU,
  0xbd0da4d8bcecae96U, 0x3b6abc60bccd642eU, 0xbca910cd3c9ceb00U, 0xbc3d8be83c0c8be8U,
  0x3d061029bc9a6470U, 0xbcd67af2bd009f14U, 0xbcc38450bd06db41U, 0x3af04680bcbf48feU,
  0xbb2b9e60bc3d9854U, 0xbc778b9e3d0e22f1U, 0xbc83916dbc2ff8f6U, 0x3d02e17f3bd07968U,
  0x3d0b3a32bcbb32f6U, 0x3cbdcf3f3c1c6fe5U, 0xbdc3419abd6b46ccU, 0xbc0b3914bd2bbc05U,
  0xbd2c27493c985e31U, 0x3b909e853d329391U, 0x3a91b6c93c1b921eU, 0x3bc753023d9f47e3U,
  0xbcd41e2a3d03164dU, 0xbcd4fa3abcac907bU, 0x3d12713b3c1a1da0U, 0xbb4c7c203c5e54d0U,
  0xbc45318ebb356e4dU, 0xbbea01e03c138224U, 0x3d0709643d8f80faU, 0x3c843910bc9d554aU,
  0x3d5e378c3d329d23U, 0x3c064f8c3d0b6d1cU, 0x3ca3234ebad952b3U, 0xbd2b3bb2bde20880U,
  0x3c5c738cbc8ab457U, 0x3ccf2d223b905ee8U, 0x3c0f20983c82c0c4U, 0x3cc74d4e3d02d805U,
  0xbb871eb8bb1b3310U, 0xbc9c15ab3bb75b50U, 0xbb8f8b38bccb9ed8U, 0xbb1456e03c86954aU,
  0x3c564be83bb1b758U, 0x3cc4a88ebb50b8c0U, 0xbc105912bb317ec0U, 0x3bf537303b713490U,
  0xbb9f86643d102bcbU, 0xbd010ea83cc8a706U, 0xbc4d2c7cba621580U, 0x3c223940bc8119b0U,
  0x3dcc5eebbdb30d5dU, 0x3d0c2270bd95a02cU, 0xbdd07b99bd2f99b3U, 0x3c82b357bdbec4a7U,
  0xbd6e4a623ce276cdU, 0xbb55da1e3d1ca64bU, 0xbdbeb38d3cc82d52U, 0x3d9b77503daf1422U,
  0x3ce6ecbabd089612U, 0x3cfddae6bc70927cU, 0x3cca57023cb042c6U, 0x3c4e27ccbba36068U,
  0x3b2119ef3d72245dU, 0xbbb4878cbbc176dcU, 0x3dc0f6db3d26a9c5U, 0x3c9bd01abc5f432bU,
  0x3d2ae28cbbc84822U, 0xbd0dd5313d0e228fU, 0x3d228e81bc6f7cfdU, 0xbbfec2d6bd8bd1abU,
  0x3cfd879ebc2e6f86U, 0xbb8dbea03cbe154cU, 0xbc3abce4bc86b709U, 0x3d0f3d553cc2e29cU,
  0x3c1125e0bad17be0U, 0x3cc267da3bcaaec0U, 0x3c487378bd09cc62U, 0xbcfdecafbbe5b4a0U,
  0xbd0c43e8bcbbe466U, 0x3ccc4186bacf5420U, 0x3c35dbe0bc245acaU, 0xbd0d57afbb9eec6cU,
  0x3ae641c03c1e85a8U, 0x3cf47192bc75cf8eU, 0xbb675a00bd044aafU, 0xbccdc80abcaa627cU,
  0x3d64c456bdd87019U, 0x3ca7e230bd24a4b9U, 0xbdb60e9a3ccc8040U, 0xbc47dc03bcceb187U,
  0xbdd4e61e3d57cba9U, 0xbc72cee5bcaed370U, 0xbd9f4dd9bbfe1ca9U, 0x3d24e3e13d602c94U,
  0xbc60518abd07a827U, 0xbc62e21cbba3c8e4U, 0xbbd68c00bc0bcc32U, 0xb71b90003c4b5450U,
  0xbca69eb23d0acfbcU, 0xbad4c2803b83b1b0U, 0x3d6f5e33bb83e4b9U, 0x3d3c6befbcf248b9U,
  0x3bd4e91f3d2558b0U, 0xbce8e931bcd39dbdU, 0x3c0994423b11856bU, 0x3c28f46abd32787aU,
  0x3cde1426bcebb7a2U, 0x3cd28c92394c2500U, 0x3d057d93bc914426U, 0xbbec7b903b8c3330U,
  0x3c048874bb849510U, 0xbcdd9eaf3c358530U, 0xbca8e9b8bc5bec86U, 0xbca1b20e3b6dc680U,
  0xbce15d823c76a940U, 0x3c80a0843c492f98U, 0x3b9f9828bcc251b0U, 0x3aaf8b60bc4ae220U,
  0xbbe6df883d066b73U, 0x3a335f00bc68a8a2U, 0x38aaa2003aeea060U, 0xbca282b13ca245ceU,
  0xbdaf2d5d3bc7aac9U, 0xbc382aec3d32528dU, 0x3d8aa5f33d89f45cU, 0x3c047a273d39a691U,
  0x3d6f6295bc474ee9U, 0xbc8b678f3d8d3199U, 0xbcb5d051bc9b09c8U, 0xbc15911ebddaa206U,
  0x3cd146cabd055689U, 0xbc68a1debcb31008U, 0xb988a700bc9e7832U, 0x3cb7b4643cb4dc1eU,
  0x3d1ac9f73d2b8dd9U, 0xbc40cf30bb704320U, 0xbc9488cbbd2c412cU, 0x3d00cd46bb686842U,
  0x3c0206a6bd3b5049U, 0x3d10d387bd07b076U, 0x3be7425e3c8a514dU, 0x3d87fac43e05212dU,
  0x3c3f9ef0bcd4fa08U, 0xbcf941863caa7926U, 0xbc7d95c8bd03785aU, 0xbc5fd3c03c055d48U,
  0x3ccb3592bb465190U, 0x3c83eaccbcdb862cU, 0xbc945ba7bc56df54U, 0xbc1852ecbcc6e8c8U,
  0xbcd7b9debc1dd76cU, 0xbc583aaebc002264U, 0xbbd211dc3c23f208U, 0x3c7aa4143bfcee40U,
  0xbc12b22c3c368c68U, 0xbcd3e94c3b48a960U, 0x3c366b803bb36560U, 0xbd079228bd0a5f97U,
  0x3d902077bcf0c4dcU, 0x3cfa19bebd54887bU, 0xbd97a2d6bce8438fU, 0xbc458bafbdc753e8U,
  0x3b2a10e13c7fc0edU, 0xbc9ed2913cf86507U, 0xbd8d58c53be9d9f7U, 0x3cc69e383da48ea3U,
  0x3d0db3c3bcea45f0U, 0xbc103b2cbd124ed2U, 0xbb19d700bb3be200U, 0xbcff08fb3c1d7220U,
  0xbd1555383d6e4f7eU, 0x3d02c551bcc7ca56U, 0x3d441c663d9482d2U, 0xbb213a523ceb2792U,
  0xbbaac7ebbc3f7723U, 0xbcf6f0063cbdcddbU, 0xbc26acb7bd32a731U, 0xbc623004bdd6da6aU,
  0x3c2c8328bcf00d4fU, 0x3cf2601a3cb3d5b4U, 0x3ce13b26bcd86247U, 0xbd0e5eaf3cde249eU,
  0xbafcb7803d070f71U, 0xbc2c7ee6bc3dd0d6U, 0x3c44faa83bfef648U, 0x3b372e80bb8e2778U,
  0xbcb135c0bc4628dcU, 0xbd0966fbbc78400cU, 0x3ca77b72bc938d8eU, 0xbcf6f1fa3c1163b8U,
  0xbc2692343aa8fec0U, 0xbc61fc983d07933bU, 0x3ae821c03afe5920U, 0x3ae04900bbaca6f8U,
  0x3c912ca53ca8bb8bU, 0x3c01456cbce97376U, 0xbbcffcadbce5f373U, 0xbce8fe263bedf5b8U,
  0xbd1302b8bc9d0473U, 0x3cf0d16abbe5ad69U, 0xbb964e903b93e03fU, 0xbbe807ddbcb08f29U,
  0xbbf04bb4bc19922cU, 0x3ce87c0a3cfd7bfaU, 0x3c83e246bbcbfb3cU, 0xbcc506ba3c8cbe96U,
  0x3c81f6c5bd338faeU, 0x3ba98458bc85d69bU, 0xbbb9fddeb8d98e00U, 0xbd00c44cbd1c70bdU,
  0xbce4be79bcbc586aU, 0xbd0206f4bca9f168U, 0xbb298800bd08cc01U, 0x3ccaeef8bd1fdb53U,
  0xbcf349353cfd92eaU, 0x3ce07d223d0b2271U, 0xbd0a3580bcbe4224U, 0x3c20b5a03c5f0950U,
  0x3bb25720bc60132aU, 0x3b2d88a03c28b3ecU, 0x3ceb1d5e3ca6a472U, 0x3d07e477bd066455U,
  0x3cc53cec3b24d860U, 0xbc723d78bc9d5002U, 0x3ca896f03af428c0U, 0xbbfe3d643cd85fdcU,
  0xbd0393da3c36852cU, 0x3bbb27a8bc3ce4e0U, 0xbd0ee8d53cac22f4U, 0x3d10b1993cb5bab4U,
  0xbd7019f53da4ebcfU, 0x3d508e143d59ada8U, 0x3d860a623d1a21f4U, 0x3d1c74083db3ba0fU,
  0x3d4ec7dabba2ea58U, 0x3d0274033d902804U, 0xbc22f0f13ca94c17U, 0xbc8b5a40bdb3a652U,
  0x3cf71776bceadb9cU, 0x3bd26110bcd35a34U, 0xbcd59bb6bca4be7eU, 0x3cb9cdacba852da0U,
  0x3daed6c1bcf4ea52U, 0x3c0ad23c3c231d20U, 0xbca7c5b43c75d87aU, 0xba619212bc927ba5U,
  0xbd0380f63d0566bdU, 0xbcc50c19bba29c73U, 0xbd175055b8eebd81U, 0x3d7d4fe83dcc3a87U,
  0xbc2ab14cbbd96960U, 0xbcd5285e3c6900a4U, 0xbb18dab0ba769700U, 0x3ba056903d0451c3U,
  0x3cc877a83c687a0cU, 0x3c0d67e43d082803U, 0xbbb26714bceeab4cU, 0x3d0d63ef3cb02fe8U,
  0xbcb0812a3c8a24faU, 0x3c4af374bcc6658dU, 0xbc6585823b61ff10U, 0xbc2450163d0231c9U,
  0x3c583bdcbd04d31aU, 0xbd06029f3c81dea2U, 0x3cbaeb5e3d02e0d3U, 0xbcd7c235bca2a186U,
  0xbd370c123d8b3527U, 0x3c8127423d5f36eaU, 0x3daf80473dc04b5fU, 0x3d114d0b3d5f2caeU,
  0x3d672ef1bcc329adU, 0xbc1ec1dd3d4cd706U, 0x3d02f69c3d0dfecaU, 0xbcdc41a8bd934569U,
  0xbd0a66e7bd0e8edcU, 0xbc6b3e403c4c84a0U, 0xbb3563503b6b0960U, 0xbb658080bcd40314U,
  0x3d654d78bbf7b96eU, 0x3d033afb3cbd09d8U, 0x3ce14384bc5362d6U, 0x3c8f69b33cbceba0U,
  0xbd089b0bbc165267U, 0xbcaa8714bd6c7eb8U, 0x3c09eceb3d2e2473U, 0x3c44f6d63df1a8afU,
  0xbccf81103cff4ffaU, 0x3d0a4e3f3ce199baU, 0xbb1ac150bd0e28ceU, 0xbbb07de83cbf1424U,
  0x3bbf14383c8fd5aeU, 0xbcf5b586bc3b0a84U, 0xbc591c8abcfe6a53U, 0x3c975ef23bc2c400U,
  0x3ccaf57c3c9a8b8aU, 0x3cf2d1aa3be762f0U, 0xbc0062bc3a141840U, 0x3d02ba773cc5f72eU,
  0xbcab48ca3b025840U, 0xbce47d5abbf23874U, 0x3cd55c963c5825e0U, 0xbbb50b983c09c5ccU,
  0xbcc3c16ebcedfbb0U, 0x3cbf86343cc21d66U, 0x3ced5daaba94f600U, 0xbd08555abd108deaU,
  0x3b5229e0bcf7d223U, 0x3c6ba284bca2ef46U, 0xbccce5fcbc91b913U, 0xbbff1f9cb9f7ec80U,
  0x3b4194703c1736bcU, 0x3d01c2273b8ee7e0U, 0xbcbc5a5cbb5668f0U, 0x3cc56188bc411efeU,
  0x3a8a8a40bab9bd80U, 0xbc658f8abc4318a4U, 0xbabf5dc0bbb65314U, 0xbd0894f6bcfc63f2U,
  0xbd0d11dcbd10b5a0U, 0xbc0b14f2ba3c7b40U, 0xbc47293a3cd71a4cU, 0x3c6b77803cba95a2U,
  0x3ce3b37a3cf9ecb2U, 0x3ce425323d0de375U, 0xbc6a6d42bd0c1a58U, 0xbb1d77f03ce14e8eU,
  0x3ceca67ebcbc3a07U, 0xbaa88ac0bb617f50U, 0xbc8caccfbc8e2c20U, 0xbc768e703ce1d126U,
  0xbb4b6a20bd0f1df5U, 0xbb96d3e8baea8b20U, 0x3cc32a5e3cb5e708U, 0xbd060130bc9bf270U,
  0xbaf7fc20bbc84a78U, 0xbb0ac570bc5d6da6U, 0xbc8010e7bbe13d34U, 0xbcc21f66bc9269c6U,
  0xbcdeedb73bda0c4dU, 0xbcca03e3bcc34a21U, 0x3b35eef0bbb3bb41U, 0xbd106eb73b44a208U,
  0xbd06971abbcc7315U, 0x3ce093023becc5bcU, 0x3d033a553c312d74U, 0x3cd58f66bc96010dU,
  0x3c8af0503c45ca84U, 0xbb942f08bcc8d8deU, 0xbc82bcf43cfaef66U, 0x3cc0fddc3c2fed54U,
  0xbc3245bbbb69f15eU, 0xbd109373bc8a7766U, 0xbd0a23683bc06450U, 0x3bdd01b13cf66e64U,
  0xbcfe20f73ce8c32eU, 0x3b8c31d0bc926568U, 0x3cc0b4be3bd96180U, 0xbd1cc9423b6a829eU,
  0x3d125b4b3c3d36e0U, 0x3cc054163cc3e0f6U, 0xbc2beaa23cd774ccU, 0xbc8849d53b984f70U,
  0x3ca86c0ebcd580bcU, 0xbc859784bb8dc330U, 0xbcf833953c02feccU, 0x3d04b50d3cc16934U,
  0xbc81ed7a3c342cd8U, 0x3abe05603d0d8f3bU, 0xbbd36394bcd172ccU, 0xbc7431dcbc059298U,
  0xbcdc2d393c05e3b0U, 0x3ca113febc8c5261U, 0x3c1fb308bc4fa274U, 0x3af04dc0bbd2d7b8U,
  0xbce77172bcc24632U, 0xbd01ebd0bc475610U, 0xbcc62af43b0c7c50U, 0xbc3f3e20bca307c8U,
  0xbcd8c564b9aec100U, 0x3c8bf0b8bc9f4e79U, 0x3cca7ad03aed13e0U, 0xbced0fd6bcf2ddcaU,
  0x3cf491963cb454caU, 0xb9b6df803c579f50U, 0xbc4eecbc3b05b470U, 0x3c7171c43ccc9f60U,
  0xbcd83d86bc878373U, 0xb91705003d03e921U, 0xbd0f88c0bc4531baU, 0xbca2f944bc87f19bU,
  0x3c9ba570bcf406c8U, 0x3ccc0adebc801a12U, 0xbc751148bb9a7d60U, 0x3ce07ae6bce15007U,
  0xbc4749d03d09934dU, 0x3c903812bb173270U, 0xbcca3e313d023a2dU, 0x3bc53760bc5b7ec6U,
  0x3c093430bc86577dU, 0x3d00e51f3d0b5e1dU, 0xbcc5dee3bcd13da9U, 0x3b8932703c9304ccU,
  0x3ca8950abc2d280cU, 0xbcb512623c1c5a6cU, 0x3ce4d356bc57acacU, 0xbce9858ebc8c47a4U,
  0xbc96ff613ba5cbb0U, 0x3c7d30d8bbe9b8f8U, 0x3c36b44cbc6bcc8cU, 0x3cd2e088bccdbbb4U,
  0xbda694af3d44a251U, 0x3b83cb743d54341fU, 0x3dd0cfdc3d8cd324U, 0xbcc3cf313da59e49U,
  0x3d0eab9cb881bc45U, 0x3c21b0c0bae0faadU, 0x3d5674fdbc92ac26U, 0xbc188981bdab34e7U,
  0x3cf6083e3cc51d52U, 0x3cade7ea3ba37750U, 0xbc8c0f083c520528U, 0xbbd253083d01e16dU,
  0x3d2c75a5bcb95784U, 0xbd0eca48bd0e8365U, 0xbbe1a03ebc1c2e72U, 0x3c3f19913b3ffd28U,
  0xbca527063cd1ae64U, 0x3cbfd240bdbf2137U, 0x3c8a0d2c3d120d45U, 0x3d40bc763da4d4ccU,
  0xbbcc9158bd11f3a7U, 0x3c06da543c35ab00U, 0x3ce319a6bb065240U, 0xbcc8c2d4bd1205d5U,
  0xbc8487bb3cbb5100U, 0xbcbab190bc1c1c94U, 0x3cc65e68bceea367U, 0xbb2ca000bcd739b3U,
  0x3ce9c1fabc67ad2cU, 0x3d0be117bb98ceecU, 0xbcc71416bd0301dcU, 0xba620fc0bcff5853U,
  0xbbc149403c4faa9cU, 0xbc9c2a39bc6093acU, 0x3a40ebc03bd2aa40U, 0xb9bbd7803c39bd6cU,
  0xbcdc432d3c864992U, 0xbc3232633c012468U, 0xbd0595e4bc5bc9e9U, 0xbcdf39ccbcfcebdbU,
  0xbd091d4dbb61fb14U, 0x3cd71be83bbdce20U, 0xbd112c403c5b30d0U, 0x3925494e3abc5bb5U,
  0xbcde848ebc7f3610U, 0xbc91d7263cb2e106U, 0x3d05cdf7bcbc9a38U, 0xbcfea1a0bcaff087U,
  0xbb33ce213cd7f47aU, 0xbbee8f6c3cfde522U, 0xbc51edb03c5bd588U, 0xbc57d03dbba7cebaU,
  0xbc04a706bcad1958U, 0xbae51b80bcbf9728U, 0x3ce179babd07ee5cU, 0x3cb105aabd21a983U,
  0x3b9a6868bbb55bf4U, 0x3bb89e603d024273U, 0xbcd48ecb3cce2ab4U, 0x3ca7eac4bc8d6b27U,
  0xbaaa3620bc7206ccU, 0x3cd8c94a39a0e900U, 0xbbc95a98bbd3afa4U, 0xbcb0642abccdc2d0U,
  0x3cb47ef83cfd80b2U, 0xbcba979ebc4aed04U, 0x3c678ed8bcfe69a0U, 0xbce72bee3c6b8d58U,
  0xbcff2660bd0a97e2U, 0xbca3f6aebcc02432U, 0x3ca756023b34c3f0U, 0xbae16080bb664b00U,
  0xbd4dee983ba2e6d9U, 0xbbb91ee8bd090e11U, 0x3c6c8e63bcea7624U, 0x3cc6d5433a9eb567U,
  0xbd1e7122bc380ea1U, 0x3cb3a4943b23bc61U, 0xbb9aa4313cb61c47U, 0x3c9ee1cabcc7e4eaU,
  0xbc9ea21bbb2cb260U, 0xbc2f663abce370d4U, 0x3ca2006a3bd177b0U, 0xbca369bbba9fb9a0U,
  0x3c7792b5bce98809U, 0x3c5eba00bc862e22U, 0x3d0871dd3cd06202U, 0xbbcd2fb63b751a07U,
  0xbc95acc8bc279e78U, 0x3c5006883ccd2cfcU, 0x3cca0d16bcbcdff8U, 0xbce51ff7bc954fcaU,
  0xbc793acabc78fcf4U, 0x3cb9ea2cbcf7646eU, 0xbccacd26bb392a10U, 0x3d06533d3ccbc5a4U,
  0x3d0549713caca23eU, 0xbb4f85d03d0d4bb7U, 0x3c698e143cc0e422U, 0xbd011eeeba46ba80U,
  0x3cf08e16bc5006d0U, 0xbcfc7d55bca38cedU, 0xbc88ff633caf6b9eU, 0x3ccbedde3bc3c0d8U,
  0xbcf3d2bdbc254b72U, 0x39dbfa003cf1f092U, 0xbce335723a84f020U, 0x3c8a3f2a3d01a8fdU,
  0xbd0a07133c962fbdU, 0x3d1958a43d8d5462U, 0x3d6026033da8780aU, 0xbc6ea3503da7f015U,
  0x3c9c8f3dbbfc5498U, 0xbbbb96063d086504U, 0xbba3b6053d047d78U, 0xbcb0e7febda2c1e7U,
  0xbcdca2c63c4eef88U, 0xbd0d93d13d0758e5U, 0x3ad44a80bca2e0cfU, 0x3c68c174bcda745dU,
  0x3cb685c2bc91a69aU, 0xbc2fecb63d0240a7U, 0x3d1648babcb0cf2cU, 0xbcb999163cbae04dU,
  0xbd130161bd47cc88U, 0xbd09565ebce604bcU, 0x3d001f8b3b0613daU, 0x3ca704973ddc97ebU,
  0xbcf110b4bb704460U, 0xbc829bfa3a167800U, 0x3c8208d6bb78b9d0U, 0x3cf7b5923c9876e0U,
  0x3be38970bbdd9b0cU, 0xbb946f483cf703eeU, 0xbc67a956bc6fa128U, 0xbbafe0f0bc32a79cU,
  0xbb04b180bcd6f2e9U, 0xbc812827bd01eb3dU, 0xbc8ea300bcc9b2baU, 0x3bef86303d088d53U,
  0xbcd6ec09bc383ad2U, 0xbc91e559bc16dfd6U, 0x3ca2abec3ca0d1c8U, 0xbc7b59243d0b2b4fU,
  0xbc06c4fdbd0781c1U, 0x3d3ac523bcc08e7cU, 0xbcb8b3bcbd2b876cU, 0xbd39e2d5bbd89557U,
  0xbc30565bbccb7254U, 0x3d0a34eb3d259722U, 0xbc0d7a8cbc562b8eU, 0xbc9f27fc3aec421fU,
  0xbc4f65943c740e4cU, 0xbc482990bcef6a44U, 0xb9918280bce6b8baU, 0x3c5faa1c3ce23f42U,
  0xbc043adebc83c9b4U, 0x3c7d21f4bcb30736U, 0x3cc11566bc15f82fU, 0xbb0b341ebcab99f8U,
  0x3cc869bdbc398726U, 0x3c9f27083b83877cU, 0xbca43d94bce6b211U, 0xbc4ca1ca3c8f893cU,
  0xbc0106e8bcb26e08U, 0x3bfb0bd0bb8e3ef0U, 0x3c99eda2bcf4e716U, 0x3cb2a4be3cd16e84U,
  0x3ce9d896bc85368eU, 0x3c2890dc3b831348U, 0xbcc4745fbcaeb0bfU, 0x3c199cbc3cc35366U,
  0xbcafc1a8bc6cf0f0U, 0x3c905cfc3d04c3c7U, 0xbc932a97ba909320U, 0xbbb814a8bcd27502U,
  0x3ca9ded8bca49d16U, 0xbbace7ec3bf79d90U, 0x3b3c5890bcc8ffd8U, 0x3cbfb0fe3bbe56d0U,
  0x3cc2c1eabd725aceU, 0x3d18aa183c9e683dU, 0x3d687e853d0b5e38U, 0x3c5a1c2ebcc90b08U,
  0xbccf2e21bd11a383U, 0x3cb5f3f4bc99b2c7U, 0xbc9c59d03c368d0dU, 0xbc04e3013c02402aU,
  0x3c9cdf423ad4fd40U, 0x3d05f4373c2e45d0U, 0xbc27da143cf85c06U, 0x3c2f57603b28f630U,
  0x3c26ffcbbd311a1cU, 0xbc9f91ae3c9167c2U, 0xbd84e34a3caf1b01U, 0x3b6f9c37bd5f6edcU,
  0x3b295226bcea0e51U, 0x3be119a03c078674U, 0xbcc26cdcbd087082U, 0xbd779bb0bc0a43beU,
  0x3ca7a396bca858e7U, 0xbc301902bca16b5fU, 0x3c6bb9acb9dc8000U, 0x3ca95692bbcd1564U,
  0xb89a3c003d045817U, 0x3c540dc43b9175d8U, 0x3d0605af3ce9326eU, 0xbcb426e4bc9a9fc9U,
  0x3d03d38bbc9a54ebU, 0xbce4dd6c3ba44938U, 0xbc22b9fabba0c810U, 0x3b914e28bc4d8c1eU,
  0xbce0b003bc19ef0cU, 0xbc8b3a1cbc78211cU, 0x3cc782f63c864ecaU, 0xbc7ff958baf5f000U,
  0x3c30b204bcbb5b81U, 0x3ce478dfbc5c5dd8U, 0x3cf0ac48bca85a49U, 0xbb25c245bce22396U,
  0x3d0a245cbbd8f084U, 0x3c4c4e20bc8bd45fU, 0x3d28ffb0bd0e908bU, 0xbc5cddff3cfc9558U,
  0xbd023b86bcefb6d6U, 0x3c4da2a4ba5f2380U, 0x3cab49203cd0213cU, 0x39f66c80bcd6527cU,
  0xbcce5d0ebd109239U, 0x3b6fabe0bcb22d47U, 0x3c1691bf3c648680U, 0xbc82af14bca53e2fU,
  0xbce0a6d6bc622051U, 0xbc25721cbb3035a0U, 0xbc9926ed3c518814U, 0x3c9239fcbce2d79aU,
  0xbb862ad03c8cdd20U, 0xbb32ee503b4eaee0U, 0xbcc72c6fbd049d93U, 0xbc8716e8bc37f5eeU,
  0x3c19ce08bc3c4424U, 0x3a964ce0bcb2f37fU, 0x3a559e803cc3b3c6U, 0x3d009b473ce8ab4aU,
  0x3bc058b03d00b10dU, 0xba7079c03c6c1ce4U, 0xbcec08f8bb170df0U, 0x3ce5d446bd104a2aU,
  0x3ca2a2d4bcbd2b1cU, 0x3c0ad6943c64e43cU, 0xbc4193cc3d0cec97U, 0xbc6e99563994d600U,
  0x3ba636703c4191c1U, 0xbbac8860bcca15f6U, 0x3c8c0988bd141e2cU, 0xbc07d6eebcf743c0U,
  0xbad9b660bd1123dbU, 0xbc98dd55bc906f00U, 0x3c592908bc038bbfU, 0xbc44024e3ae5bba5U,
  0x3d0ed67d3cfcccc2U, 0xbcff86ed3caed31aU, 0x3cbaf26cbcf13824U, 0x3b610140bbbf4fbcU,
  0xbb7260b63c5c63e3U, 0x3b7a0810bc807858U, 0x3c3fc944baa6fb30U, 0x3c89da40bd2fc498U,
  0x3c40a74abc7d1f14U, 0x3caa61ee3cbf1026U, 0xbb008dacbb9d81c8U, 0xbd144a6abd624900U,
  0xbb9fa0d03ca00752U, 0xbc7b0bd63bf1f3b8U, 0xbcfcc8d4bcb10f5aU, 0x3c995c8c3cd9e190U,
  0xbc3562923cc4ca8aU, 0xbcb52492bbc0207cU, 0x3ca80e923d0b173fU, 0x3a781640bc5a71bcU,
  0x3b4b84d03c8ec9beU, 0xbd02a09dbd02a57cU, 0xbcfbc4013c2a47a0U, 0xbc1c95acbc6541fcU,
  0xba591bc0bc84547eU, 0xbadc54203cdc3522U, 0xbcfbeb763c7cb488U, 0x3c62dbc4bc872c9fU,
  0x3de1bd8dbdc48b5eU, 0xbb89913abcfd5c2cU, 0xbd12a609bd2db547U, 0x3cf51600bda20fedU,
  0xbcfe6f363d5fa3b9U, 0xbc248c29bb9194beU, 0xbcef3c64bcaa6ac1U, 0x3c3002c33cabbfb1U,
  0xbccba3363d00d119U, 0xbcc8db803cadffbeU, 0xbcc8e3f3bca4c241U, 0xbca9e8763b2d4750U,
  0xbd8071143d46c153U, 0x3d00c8c33c5a82ecU, 0x3d3645103d7608d3U, 0x3cb2ddbf3d054d0bU,
  0x3cc9156d3b60fe2aU, 0xbcc7300dbd342717U, 0x3d406da1bca44940U, 0xbd273ef0bd9bc356U,
  0xbc39c78e3be7b528U, 0x3a5f04c0bca4eb52U, 0x3bb7f0583c3dc704U, 0xbd080d343c2779b8U,
  0xbac47fe03ce43a1eU, 0xbb31bc40bd1289e4U, 0xbc11a30ebc6fecb4U, 0x3cf18d16bcf46fd6U,
  0xbc26155a3bb398f0U, 0x3c67c8fc39b11e00U, 0xbd062cccbcb6ff8eU, 0xbc032edabc3d46fcU,
  0x3c1b35f43c97f132U, 0x3c934e6ebba2d340U, 0xbc5dedccbab168e0U, 0xbd038af63c8300b2U,
  0x3d9068ecbdc5f483U, 0xbc220ab3bb40dedaU, 0xbd987c45bc5c61f5U, 0x3ab1dc26bcc44ab8U,
  0xbd2a35d03d8ac054U, 0x3ca025ee3c139aeaU, 0xbd352da53ce446abU, 0x3d45b1ee3d4696a0U,
  0x39d6ef003c2bb190U, 0x3cbe3e183cf3d9a6U, 0x3c2fb8383ca5b9deU, 0x3cbb7e8cbcaa4fd0U,
  0xbd2dba513c20bb6aU, 0xbd044e94bc87de66U, 0x3d0dd7b23db40427U, 0x3d3fe9083c38831bU,
  0x3c3ee7bd3aaec4c2U, 0x3cc42c46bce54a09U, 0x3d1c963e3c5785c0U, 0xbcb82aaebd7044f7U,
  0x3b674db0bd110088U, 0x3c3f7238bb803e00U, 0xbb1b65c03c62a62cU, 0x3cb151443cb2b1d0U,
  0xbba940acbce53fc3U, 0x3cc74d04bc39d278U, 0xbcc697163b5f3680U, 0x3cd315703c9499c6U,
  0x3c83d164bb812b18U, 0xbced5d643b33c220U, 0xbc8c1a46bd09fba3U, 0x3d0ca0153cbfcee2U,
  0xbbc615f4bcb377ecU, 0xbb24b4903cd8b104U, 0x3c84c18a3cd68124U, 0x3b7de270bc263e74U,
  0x3d89acb4bd96c1a6U, 0xbc16b2e4bd9d1390U, 0xbdc363e93aad644eU, 0xbc80c425bcaf350cU,
  0xbd5409fb3d5d0ac9U, 0xbc9e47323c879f9cU, 0xbd4381373d014937U, 0x3d7c4b583d41a8b8U,
  0x3c81abf83ccef0ccU, 0xbd08d796bd0f7a04U, 0xbc7314c6bc1b04ccU, 0xbb5986603cb51ac4U,
  0xbd8f8b9bbbfe7f3aU, 0xbcdfb7973cc62bacU, 0x3d78f669bc13d2acU, 0x3d07c5d43d09fe41U,
  0x3d0ad7e53c9a6ddeU, 0x3b447550bc19073dU, 0x3bd8e9ddbc2cd9e0U, 0xbc7df7e4bda65a96U,
  0xbcc7f1b53ce9a9baU, 0xbd07530fbd021542U, 0x3c2b7f08bc1587ecU, 0x3d0bef2f3c857444U,
  0x3bc66e883d0106b5U, 0x3cc6aaa8bc1127aaU, 0x3ca21b9c3cfadffaU, 0x3cc5a366bc94c54cU,
  0x3cd2bd2c3cb9846eU, 0xbcfcd72cbc9e978fU, 0x3d05fc433cec339eU, 0xbc6517c43c1d0764U,
  0x3cb4c80ebc8c79c4U, 0xbcbeb9dcbb66f7e0U, 0x3cafd7fc3c5eb09cU, 0xbbf0bf903c910fe8U,
  0x3c7423cabcb3ddd7U, 0xbd10eb93bd0351beU, 0x3c1d6498bcb6a48dU, 0xbcd683eabca75b00U,
  0xbcafed70bc84b1abU, 0xbc9e4149bc1f1852U, 0x3ca28b603c2faaa3U, 0xbcd14589bac7110cU,
  0xbc451f6ebca4f136U, 0x3d11a39bbced320cU, 0xbc6e60d6bca7fbaeU, 0xbc33ca903be00bb8U,
  0xbd4130673caa8973U, 0xbc8081303b7e3e60U, 0xbcff2e33ba2f3a00U, 0xbcb6ce31bd1e47b5U,
  0xbc13501f3c20b058U, 0x3ceb19363c570b30U, 0xbd045022bc6fd526U, 0xbd12f6cebd13006fU,
  0x3c062c903cb3a6d0U, 0x3cc77d48bcb690dcU, 0xbc5ffbc03c86108eU, 0xbd11b549bd05edb1U,
  0x3c206ec43cf4c07eU, 0xbb8f28183c2e38c0U, 0xbd0e3959baf135c0U, 0x3c9cb2d23d1006a5U,
  0xbc88408f3d0fefdfU, 0xbc9ecf0abcc1094cU, 0x3cc94988bcafe8feU, 0x3cbbd936bbd519fcU,
  0x3be0ae103d0fa1b9U, 0x3c2d5aacbca2fec3U, 0xbc0146b6bbda5444U, 0xbc9e4394bc1e3116U,
  0xbcac28aa3b1e8e01U, 0x3b0e4ca2bd251b21U, 0x3ca15960bc596900U, 0xbcbb7523bbf5b8d4U,
  0x3bfb7ef4bd31da04U, 0x3ce2db9a3c82ad6bU, 0xbc8318f0bbe26e24U, 0x3ca52ddcbcae2deeU,
  0x3bc0c220bc975c7eU, 0x3c4a3e2cbc83e9f4U, 0xbccae2af3cbe6930U, 0x3cf0601a3ce681b6U,
  0xbc830fd3bbc5f727U, 0x3cf135d63c065df0U, 0x3bd2dc8bbd104d59U, 0xbd0eba35bc30a514U,
  0x3cbbabdebc87c955U, 0xbc4f51be3c901532U, 0x3cbbad1cbcea1aa2U, 0x3babe1123c621d30U,
  0x3cfe129e3c610708U, 0x3d09468d3ce1faa6U, 0xbca38f0a3c580ea4U, 0xbbda756c3c5d7780U,
  0xbcbd6836bc06fffeU, 0x3cd51c3e3c499de8U, 0xbc559d6ebcbd8c72U, 0x3c909bce3beb6ee0U,
  0x3c5d0588bc97cea9U, 0x3c5134383cb0bb4cU, 0xbccbd1d0bcccc84cU, 0x3c3930d03bf16a10U,
  0x39ddcf003cdcefb2U, 0x3d11353f3be76ab0U, 0xbc4ea4a03d010a6fU, 0x3d077515bce11658U,
  0xbda8a27a3d2b3907U, 0xbc97c1aa3d81cdb0U, 0x3d97c9d53d714b36U, 0x3d4c23953db90dcfU,
  0x3d9a8662bcf6bbfdU, 0x3a8840613d06866bU, 0x3bd0e81f3c90edffU, 0x3c11d0e8bdb872f7U,
  0xbc5d65b23c9f4c2eU, 0x3ca1fe12bc577ab0U, 0x3b6dd5f03a3a7280U, 0xbce1df1b3ae02ea0U,
  0x3da15073bc503cdbU, 0x3ca046e43c3eb62cU, 0xbc86ace4bcc2e61dU, 0x3cbe53c3bcd85e15U,
  0x3c13399f3c95d216U, 0x3cbc1d78bd48f536U, 0xbc55f287bc02d4b3U, 0x3cde8ef53e03e643U,
  0x3b2309e0bc97d390U, 0x3c7525e8bc565ae2U, 0xbad0e5c03c1fe748U, 0x3cbda2cabce42686U,
  0xbb5d9d303ca82472U, 0x3cb17bd2bc1cdb48U, 0xbb507ee03c6f8040U, 0x3caaf6063a013400U,
  0xbca6223ebd094ddaU, 0xbc90fb44382fa000U, 0x3c059a943c9605e8U, 0x3c33a5803cedf8b6U,
  0x3cda1504bcd383aaU, 0x3cd0f2f8bc9d6809U, 0x3c9bb0aebcec9642U, 0x3cf13d56b97bf000U,
  0x3c7bf377bcf6382aU, 0xbcf9b930bc715e42U, 0xbcd2042b3c7deab9U, 0x3cfae4c23c4baafeU,
  0x3bba0fa8bca2403bU, 0xbd096618bcf1107dU, 0xbc8327b53c82ff99U, 0x3bead2783cbd5d56U,
  0xbc9750e9bc8eead4U, 0xbafef9403c22654cU, 0x3b643e203b921dc0U, 0x3cc0a19ebc91b19bU,
  0xbcefffd0bd0fe46cU, 0x3b731c20bc8a387dU, 0x3c457514bce314b8U, 0xbc84210d3c1ed17fU,
  0xbd4b7cd7bc56beddU, 0x3c883d9a3c18feccU, 0x3d0e6a893c8ddfa0U, 0xbb6604bd3b135681U,
  0xbb8d1e38bc8f350eU, 0x3c91852c3cc6e3ceU, 0xba82aea03b3c42f0U, 0x3c831ef8bd047448U,
  0xbb5a4ec0bb8a5d20U, 0xbcf17a2b39535a00U, 0x3cb10dc23cabfd4eU, 0x3d0b0afdbc747548U,
  0x3c43b5a8babbe0a0U, 0x3d0326fd3c37e824U, 0xbbc571d43cdc1dcaU, 0xbae381a0bc33272eU,
  0x3bea3400bcd53c82U, 0x3b1b2ba03c9e24d6U, 0xb9abf500bcc36a5aU, 0xbd08a24d3c6acf78U,
  0x3b97f7e9bd377784U, 0x3b8480bfbcec7f29U, 0xbd5b3c59bd71e6b3U, 0xbcc5c72fbc8fc42eU,
  0x3d27da733c90d33dU, 0x3d3701463d2148d7U, 0x3d2e8acabc5adbc0U, 0x3a32d396bd653d81U,
  0x3d108b1b3c5fe3f8U, 0x3c00da4c3ca048d0U, 0x3be6d1f03c157070U, 0x3a9e1c00bcd754a0U,
  0x3cc706d83c999139U, 0x3a062d803ca92b70U, 0xbd46b6d7bc1b4c67U, 0xbce790d93c85c0c9U,
  0x3b269cf03c8cd424U, 0x3c3930583c75908cU, 0x3c5dbe22bc3acdb5U, 0xbbd8f0e23d0ca16fU,
  0x3cd412be3c0d7060U, 0x3ce5213ebccd9b12U, 0x3cb6f67ebccab7eaU, 0x3c0e31703c73ff84U,
  0x3cf8eb863c8bb27eU, 0xbab016a03b0bff60U, 0xbc9d75f2bc7b514cU, 0xbc857ba9bbb5376cU,
  0x3b90cb98bd0d3aecU, 0x3cacc27c3d0f4565U, 0x3ce0656ebc8173c6U, 0xbc8c9234bc4112aeU,
  0x3c8721b43bef5158U, 0x3aaa95403cbb88d2U, 0x3c99ddb8bc1821faU, 0xbcf81b533bb3b938U,
  0xbb931e00bbc33970U, 0x3c15b158bce2111cU, 0xbcfdeda6bd023fc7U, 0xbd0b6c64bca69424U,
  0xbc04f9a2bcd7297fU, 0x3cc638103c0b59c4U, 0xbcf763523b8790c8U, 0x3b9f5d68bc7eb9d0U,
  0xbc06949cbce5e2a0U, 0x3c124b44bcdb8b8fU, 0xbbf927483c7d1258U, 0x3cb869e03d0e9d61U,
  0xba4500403c336e0cU, 0x3c17a284bcde5a32U, 0xbcdce0cabbac8114U, 0xbd0544eebc40b87cU,
  0xbbca4c00ba84d6e0U, 0x3cea1bf23cd1f0a2U, 0xbc9848af3cb00de4U, 0xbc5017a4bcd28118U,
  0x3b486980bb9276e8U, 0x3c87ff9c3cea8a3aU, 0xbcbb675dbc1bf8eaU, 0x3cc5d8a4bab4abe0U,
  0xbcbce60ab93bc900U, 0xbba3b8c43bbe11c8U, 0x3cbfe2383c17b258U, 0xbc07ed183c183f84U,
  0xbcb962e2bbc0e900U, 0x3cb70576bb6b06b0U, 0xbc06e32abca4552cU, 0xbca4dd9c3c131c18U,
  0xbbcdcaa4bc03418aU, 0xbc9f43bbbd0d9cacU, 0x3cfeb3babbbe08a0U, 0xbcf721a73c12c654U,
  0x3dcab0c6be1a5d92U, 0x3c1f1b2abd2b1b8fU, 0xbd245fd6bcab8dbaU, 0xbbca2c17bd8fa0f2U,
  0xbd7f6bfb3d179cf8U, 0xbd03a36b3d42d1ceU, 0xbc81ed0d3ced7d5eU, 0x3d09b5943c9996f6U,
  0x3cfb6322bbff4bccU, 0xbce7b1333d0bbcb1U, 0x3cd4939cbb203fd0U, 0x3b8071c839ca2a00U,
  0xbc7753823cda4afcU, 0x3c9c835c3d05ca11U, 0x3ca11ba03d23e4a3U, 0x3c32c8fb3d108b45U,
  0x3d35339d3d628768U, 0xbb501a803b00e3cdU, 0x3d2016563ba70e48U, 0xbd1e4c43bdcb353fU,
  0x3b83b5c8bcfc324eU, 0x3a95eaa03c9be980U, 0x3c8776e2bb888db8U, 0xbba6eb70bc9c0eb5U,
  0x3c42e0543c92b142U, 0x3ca212523b8a0bd8U, 0x3d114eef3cf35af2U, 0xbd103802bc293802U,
  0xbc3333ae3b8f4e58U, 0xbb064f203c2595ecU, 0xbbd68cf03cf24e3eU, 0xbc54bfb8bd00bcbcU,
  0xbcfb0758bbed076cU, 0x3b97f7e0b9bba780U, 0x3c89ced43d020bddU, 0x3cb747943c39c340U,
  0x3c885968bd97e2cdU, 0x3d110360bd85a020U, 0xbd96a2e8bc0df6feU, 0x3d17894bbd373771U,
  0xbd6e7fea3d7c0c6bU, 0xbb44a790bc25a1f8U, 0xbdbb4faebc6d1494U, 0x3d5480263d6aeb9cU,
  0xba0d6c803a9511c0U, 0x3bbfa328bcabc178U, 0xba8d5f00bc3c7d4aU, 0xbcac8647bced71f1U,
  0xbc098e433d46f888U, 0xbc12756a3cf9eb12U, 0x3d8808613d8fa664U, 0x3d843429bc90d257U,
  0x3c9e4db53c6ef758U, 0xbc9a68dc3d62fb7dU, 0x3ca1be5bbc29f9aeU, 0xbcfad7b6bd55dbadU,
  0xbd06038bbc988a1fU, 0xbc38e3943cc4f17eU, 0xbce691973d07fbf7U, 0x3c118f643cbbebbcU,
  0xbc96d3893c386e34U, 0x3d0b52b1bb8aab08U, 0xbce19f483d087b7bU, 0xbb9fed94bca076d6U,
  0xbc921a04bc9c8884U, 0x3b86c8b8bd00f833U, 0xbc451d40b8f55c00U, 0x3c14aa2cbc5471a2U,
  0xbd02e50a3b6f0be0U, 0xbcc0bdedbd09b8e7U, 0x3cfabf723d0dde7bU, 0xba446ec03c9e4238U,
  0x3c8ace7fbd972549U, 0x3cc26047bd1ca673U, 0xbd979e7cbd50dea1U, 0x3bd16fdfbdaa4336U,
  0xbd87d93d3d35abc0U, 0x3b98d50abba94083U, 0x3ba1d4723d428a68U, 0x3d1f45153d0985c9U,
  0xbd08dc453c8cd4e4U, 0xbd03d6a83cf95c8eU, 0x3c18778c3d00c8e9U, 0x3cbf87263cb164faU,
  0xbd5097723c8eca6dU, 0x3d02df3fbd0b4916U, 0x3d5e3d38bbf9d7e4U, 0x3cc05cb93cbb23dcU,
  0xbc28d3b4bc7f64fbU, 0x3ce8e8bebc3e040aU, 0x3d1d5fbabd43e30aU, 0x3c83f16cbd5d95d1U,
  0x3a68b6003b74ae20U, 0xbc6969a0bd108a84U, 0xbc7c1b9abca41a20U, 0x3c4cc5c03cdd2d8eU,
  0xbbeb0754bceba4f2U, 0x3cfb93c2bc16b832U, 0x3c635784bcfc69edU, 0x3cae34b83c7dc514U,
  0x3cddf33abcda2d33U, 0x3c0c45543cf93bb6U, 0xbcc634b6bc9b33afU, 0xbccf779cba9d2360U,
  0xbcc2df80bcfba9c2U, 0xbc419124bc8f2e65U, 0xbc1b1aa2bb93d660U, 0xbc85fc21bcbb0702U,
  0xbc7a1ff93c8da103U, 0x3c80a306bcc9b5deU, 0xbba596a5bc834471U, 0xbcd2899e3b1ce3f6U,
  0xbb7397b5bcac88f1U, 0xbd0450173bac8057U, 0xb9892cbcb7e32800U, 0xbccb97b93c96bd68U,
  0xbcadb2d9bcd2f20bU, 0xbc849c89bd07aa4fU, 0x3cb6eab83b3c06b0U, 0xbbe79700bc8883c4U,
  0x3cbef3b5bc99fdf1U, 0xbd017ac6bd038d78U, 0xbc8fb6a33c82440aU, 0xb9b9d295ba0ea84eU,
  0xbd313faf3be4e008U, 0xbd0d88753c4b45a0U, 0x3a9d8de0bc821d70U, 0xbcc655abbc0ed0b4U,
  0x3cbabc923c0b588cU, 0xbcc5251cbc6c217aU, 0xbd0dae293c88c8beU, 0xbc29e44ebc7d7750U,
  0xbc27405ebc8b2682U, 0x3d0a77593cc00804U, 0xbcfcac79bc6f99acU, 0xbb6852103b7a9070U,
  0xbcd02df33cafe31eU, 0x3ba29360ba7a4300U, 0xbcef1262bca9a469U, 0x3cdf9d5e3d0e969dU,
  0x3d0f4403bc7d4830U, 0x3c206ac83c1d34ccU, 0x3c611fecbc25267eU, 0xbc4e6ec63b23a200U,
  0xbd46e9663d198519U, 0x3d05e70d3d44c887U, 0x3e0727803dc4fecfU, 0x3d5959623dbbf153U,
  0x3d69953a3ba7d586U, 0xbca15bdb3c4aaca8U, 0xbd3c38cc3d2e68d8U, 0xbd368db0bdcf988eU,
  0xbc88fc6abb4b9b20U, 0x3d0d37013ced79aeU, 0xbd0bf8de3c8568d4U, 0x3ca0b7d43d0c3e75U,
  0x3c48494d3d355591U, 0xbc1c17d2bd06f22bU, 0x3c35e11d3bb7e485U, 0x3cf0b268bcebed89U,
  0xbd1498d4bbf1dd42U, 0x3cf2f806bdb26ed9U, 0x3a6db9dc3b51da17U, 0x3c93061b3defd14eU,
  0x3d112277bc2c3b96U, 0x3be639c0bd0220acU, 0xbcec89d0bc9be1fcU, 0x3d07f64dbc6240a8U,
  0x3c4469303cf4bff2U, 0xbcf7a18cbc820485U, 0x3cf7f856bbe7b7e0U, 0x3ceab3eebaa17fa0U,
  0xbcd41dafbcd65566U, 0x3c3cdac83cfd0256U, 0x3ba5fb78bceb7026U, 0xbca4e417b9ee1280U,
  0x3d11754fbc4467e4U, 0xbd1188bc3cc0aa36U, 0xbb8ad7383cea73ceU, 0xba8ad3003cd71c08U,
  0xbcbc8c61bc8a8b1cU, 0xbbb293ddbc7b76a8U, 0x3cae5a3cbd251865U, 0x3b0f62c7bd23f23bU,
  0xbd08adb93cd17d50U, 0xbcd69d083cbd28f1U, 0x3c4c41fc3cbf893bU, 0x3ccfacbabb99a164U,
  0xbd0adb4ebc8f69e2U, 0x3cffecfa3b1fc810U, 0xbd09943dbc4a699cU, 0x3bb22bc8bc7e7536U,
  0x3c9a2e12bcf4d21bU, 0xbc2423d4bca43abaU, 0xbce193aa3ca44618U, 0xbd095f00bb527b6bU,
  0xbd064945bb766109U, 0xbd05a8fb3c90c7b7U, 0xbd08f6edbd0b5b97U, 0xbc161149bd1590d9U,
  0xbc0e74263c3a3630U, 0xbcd5ebfd3cabd046U, 0x3be67b00bc0c3fa2U, 0xbcbed222bd05e500U,
  0xbcf4060c3c91572eU, 0xbc8a7175bd0baa74U, 0xbc01a0023ced936aU, 0x3c4488ccbca79362U,
  0xbcb8f9a6bbf19288U, 0x3c98a096ba606f40U, 0x3b1f7b503be37408U, 0x3d01c00d3ccad538U,
  0xbca302853cfe9e22U, 0x3ccba332bcb5a116U, 0x3d001e39bd0ce057U, 0x3c810d1a3cf8b502U,
  0x3c9973d1370866fbU, 0x3c753e1f3c7d77a2U, 0xbc881a3dbbc4d392U, 0x3c60f9e5bcbcb64cU,
  0x3968f2e5bca953ceU, 0x3a36c5403ceabad1U, 0x3d26791dbcaae3f0U, 0xbd085e51bd1eedb9U,
  0x3d0d28bbbcb0167cU, 0x3cc30b7c3c051bf8U, 0xbc69c83abbe6030cU, 0x3b92efc8b76e5000U,
  0xbcf96e5bbd180d81U, 0x3bbf08e83ba46210U, 0xbd26eb9b3b35cbfcU, 0x3c54033ebc93375dU,
  0xbcba5be63c8010f2U, 0xbc2f9e1ebd28b0afU, 0x3c12b70a3d2d55daU, 0xbd115e9e3cec6e6bU,
  0xbbf4ae6cbcbc87a2U, 0x3bc818683d0791edU, 0xbc9fea6dbc25e6d6U, 0x3c093c443cf9e27eU,
  0x3b1b4e00bcf12acaU, 0xbce0706c3c1343f8U, 0xbd0dcf6d3c7d043cU, 0xb9a3a300bcd286a4U,
  0x3a9e99c03cd71bc4U, 0x3c8594b03ccdb510U, 0xbcf237303c66bf64U, 0x3cdbe9bebcf590f3U,
  0xb91cf2003ca81c96U, 0x3c2b1d883d0b3bb3U, 0xbced050e3c2848b0U, 0xbd05db203d073b41U,
  0xbd57d51dbb4149b5U, 0x3ca79d70bc9af27eU, 0x3b13f57b3c6411b0U, 0x3b9aa198bc500ef8U,
  0x3c9dfbcd3c942aabU, 0x3c6e10483ad1a0cbU, 0x3cef730ebc0b8498U, 0x3c836f14bc1fe826U,
  0x3d0cdbf53c7cf7bcU, 0xbc8be893bbf65784U, 0x3ce5e352bd129f77U, 0x3bf7a020bcc24cc0U,
  0xbc87699abcfdff41U, 0xbcacf1a03b4c06b0U, 0x3cd8a9693c7a3756U, 0x3cb49ce4bcfa9fcfU,
  0x3bfa68aebc894a2bU, 0x3bc4aa18bc91ce85U, 0x3ce815febcab5486U, 0x3c234dc5bd1a5691U,
  0x3b2a27603cd133a8U, 0xbcc7be383bada630U, 0xbb8322d03ccd9f54U, 0x3d101bcb3c07c204U,
  0xbcb3a9f2bc907032U, 0xbd066de73cb75fc0U, 0x3ce84c32bc277782U, 0xbc035e5ebb9aa29cU,
  0x3a4317803bb5c238U, 0x3c7c6a30bc65140aU, 0x3b979f583ba86430U, 0x3d0be2afbcf4cbe0U,
  0xbc7a493cbc8a5f5bU, 0xbb7290703cfcde92U, 0xbcc157f63cc67bf2U, 0xbcd156d03d09cf2dU,
  0x3ca95b813bed7d07U, 0x3cce1aebbc336e3fU, 0xbc6231ccbc75b565U, 0x3cc238fe3cc3b0f3U,
  0x3c27093d3c173f2bU, 0x3cd7867cbcbbc55aU, 0x3c0c37f0bd11f53fU, 0xbd303332bc0525e4U,
  0xbc979e89bd0ef9a4U, 0xbd0999533ccb99b0U, 0x3cc245dabbd16390U, 0x3ced17da3c82e798U,
  0xbcf1b9d83c79beafU, 0x3d126171bcc0fa02U, 0x3bb75e42bd10bb96U, 0xbb07334abbfa2ad0U,
  0x3aefb557bcf71650U, 0x3ce378e23c8d4ad6U, 0xbc32f1d1bce36c4cU, 0x3cc99652bc1a7913U,
  0x3ccba802bc9859f1U, 0x3d105e773cfcab4eU, 0xbb8a03f8bd03c658U, 0xbd0b4cb9bcd75e7dU,
  0x3af70e20bcd090eaU, 0xbcb865383b34c3f0U, 0xb9a272003c143ff8U, 0xbc1de0f43c8784c2U,
  0xbcbeda28bd0d7098U, 0x3ca343263b17e6c0U, 0xbcc33928bcb0bb07U, 0xbcdc64223c9c96d2U,
  0xbc95ac283bc00010U, 0xbcb839e9bbb1f300U, 0xbc8a43b2bbc9dac8U, 0xbc864624bc1cd066U,
  0x3d465ae5bd465930U, 0x3b8086c6bd8b220bU, 0xbe0acd0cbd713e06U, 0xbc8eee47bd9653f2U,
  0xbd660d213d91c94dU, 0xbd1a572f3bbc0e9eU, 0xbdbe1098bc109fd1U, 0x3d230e1f3dcd4a12U,
  0xbc9320193c4e3460U, 0x3c818c4cbc6e3bacU, 0xbbf467f43cca1778U, 0x3bd70d10bd0c62e1U,
  0xbc34a9673d2fefeaU, 0xbcd5a964bd024c28U, 0x3d0a27873d8f05bdU, 0x3d71c455bcd83741U,
  0x3d2c54a4bc77abacU, 0x3cb30d50bc4d35cdU, 0x3c2563efbc4d3796U, 0xbd1d9555bdd4f56cU,
  0x3cd30850bccf1d17U, 0x3caef3783cf7aed2U, 0x3c4fbff43c0ee998U, 0xbc2178843ccfe338U,
  0x3be146883ccaeb5aU, 0x3d0bcaef3ca90ba0U, 0xbce35de43c00c3d8U, 0xbc8cc3743c3a6130U,
  0xbcb13782bb7b3820U, 0x3ce2a85a3cecf3beU, 0x3bc451a8bce33620U, 0xbbc28cb8bc61f388U,
  0xbcf5766f3c81f7c6U, 0x3cfbe3623a770480U, 0x3cb413c03d0c122fU, 0x3cd0fc703ce650faU,
  0x3a8fdc8e3ce51069U, 0xbba838b73c427b87U, 0x3c9ba410bd2882e5U, 0xbc27e5b7bad9211cU,
  0x3cdb5b1ebd1e012cU, 0xbc9a21dbbaf9000dU, 0x3cff649a3c463c0fU, 0x3c13e882bcc3fce3U,
  0xbb7384803ce08016U, 0xbc4eac6e3b48fc20U, 0x3bd903c03d0e2543U, 0xbc8fb823bcb08838U,
  0xbc7de2603cce0de7U, 0x3c64a7e03c988e26U, 0xbcd6c841bb73dec0U, 0xb6c177b6bca66092U,
  0xbcccb3053c795840U, 0xbbcea6903c284a9cU, 0x3ca5aaf8bc8e8d29U, 0x3cbe5d21bd292ee2U,
  0x3cad4302bc3ecc8cU, 0x3cb09bbc3bbed6b8U, 0x3cb289903c675078U, 0xbae44da03cb62cdaU,
  0x3d05ab1d3ce59082U, 0x3c3d4c9cbba74888U, 0xbc890b46bc5e18baU, 0x3c7c48083c625e3cU,
  0xbb705320bd00db79U, 0x3bcefbe8bb928830U, 0xbcc2df9b3cbb7008U, 0x3c443b2c3bf2a0f0U,
  0xbcce5d303cdd16feU, 0x3c1c799c3b0aec40U, 0xbcba41f8bc7a7a52U, 0x3caf290abcc5f448U,
  0x3ddd9751bd847330U, 0x3cb2d4a8bd8dc8b3U, 0xbd4d4643bd267a21U, 0x3d195ce9bd710e61U,
  0xbaf242813d54c38aU, 0xbd20a98d3cac957cU, 0xbbc51a4c3cfbe7a5U, 0x3d73e5053d079458U,
  0x3c136a703b4c6210U, 0xbc9733713c5b40c4U, 0xbc779dd83d0ef0edU, 0xbd083f633d012935U,
  0xbd7f348c3d03e2ccU, 0xb908d500b9a82280U, 0x3c22106b3c95d215U, 0x3cb6eef53cf7850bU,
  0xbca3d07f3d0909d8U, 0x3d0355b1bcf055c2U, 0x3d625980bb5141d4U, 0x38bcc7d0bd9d9086U,
  0xbd0bf1f23cb33292U, 0xbcac142a3cd39950U, 0xbbfcfab4b9e0d780U, 0x3cd676fcbcbc4344U,
  0xbc49dbdabcf86218U, 0x3cd6a8b0bc669de8U, 0x3ce73d6ab89d6200U, 0x3d060c2b3c9a6258U,
  0x3cb786debc52184eU, 0x3cf41416bd103c5aU, 0x3cac1352bb7ab160U, 0xbcd29835bce75f74U,
  0xbc8e86f73d0e128fU, 0xbd07781ebbf765ecU, 0x3c9c50a43cb21eccU, 0x3c109ac4bae02440U,
  0xbc3c155b3cbe8717U, 0x3cdf42673c97b707U, 0x3dbf577d3da00c16U, 0x3ca1b9ddbc872ae1U,
  0x3d2dad99bbb38614U, 0x3ce7e0b83b5c2d34U, 0xbbd1f521bb859509U, 0xbbd74618bc9168bcU,
  0xbc0475c2bca4fa2eU, 0xbacaed803cdad592U, 0xbc6233f23c488b7cU, 0xbb5b2870bc9a25faU,
  0x3c0a860bbcf80865U, 0xbcffc19dbc34f0acU, 0xbcf31d943ca5e542U, 0xbcade5183c1acf0eU,
  0xbd43898abb25b4afU, 0x3c697604bd6074d5U, 0xbcf8e8143d757444U, 0x3cf9da4f3daf9e02U,
  0xbc0ba1f23ccd7220U, 0x3c7647f8bc60fb38U, 0x3cf4d38e3cd1f802U, 0x3cd3f1e43c3904b4U,
  0xbb5d46b0bd028a3eU, 0xbc7a272ebc6a5ddcU, 0xbcff2697bd004eb2U, 0xbb1f8cc0bcd2ea14U,
  0x3cb595a2ba143fc0U, 0xbd05e3e13c6d5bb4U, 0x3ca0e004bd0f4093U, 0xbca044273c9fba44U,
  0x3c54c070bc651e92U, 0x3d12195d3babf1a8U, 0x3c84bec03cdc7dfeU, 0xbbb3d1cc3c882d1aU,
  0x3d98e8c3bd12e43eU, 0x3cc5d60fbd8441dfU, 0xbdd3b4afbcf7d045U, 0xbcb92af8bccc0878U,
  0xbd071d893d80a58eU, 0xbc957c4b3c631dc8U, 0xbd72e4ec3d077e58U, 0x3d8119f33dbb1b65U,
  0xbc46b70239219500U, 0xbc9849503cdb15d6U, 0x3c937d80bc866670U, 0x3c040fdcbbee273cU,
  0xbd804c4bbad56dccU, 0x3b9a1ed83c52774cU, 0x3b3b21343d11abf5U, 0x3ce11c083c996b23U,
  0x3d57aa1a3bb6422cU, 0xbc0ae6f83d5c1944U, 0x3d4c8122bc9da9dfU, 0xbd0cf9e3bdf966bdU,
  0x3b1eb930bc38da7cU, 0x3c840dcc3c6c7974U, 0x3ca683d83cceb8d6U, 0xbcafc7f63be52fa8U,
  0x3b2c72103c649b28U, 0xbcad439a3c2e982cU, 0x3ce154923c02299cU, 0xbc06306c3cfe217eU,
  0xbbd96eac3ceee38eU, 0xbc4337c23d0cd997U, 0x3b9fc848bcb951dcU, 0x3c106cf03cb4db34U,
  0xbb874798bd0ced92U, 0xbcb634693c3aa188U, 0xbcac71babc1564a6U, 0xba3b4780bcca73f0U,
  0xbd27c8d33dc00eb5U, 0x3d1ca4573da8da50U, 0x3e1058db3dad66b4U, 0x3d138a0b3d8aa7b3U,
  0x3cd1d232bd1ec67dU, 0x3ced13f93d4febd0U, 0x3a4d78abbcb0d65aU, 0xbd482ac7bdd3341fU,
  0xbc446e04bc5381a8U, 0xbc654662bc8bc022U, 0x3cadb9f03c8641a6U, 0x3c59a9943ce369eaU,
  0x3d3a9ebfbd083d86U, 0xbc046854bb712c70U, 0x3bb91f6e3c7af1d4U, 0x3cd0fe3e3c037268U,
  0x3c8870febcd441acU, 0x3c116e90bd670153U, 0xbccd5a5d3d02b3bcU, 0x3d1288363e0aa1b5U,
  0xbb942a98bbbe9620U, 0xbc8cec78bc46300eU, 0xbcdf646a3c0a340cU, 0xbc51960cbbf3d038U,
  0xbaea9ae03ccf2a92U, 0xbad8b0e0bcf1d33cU, 0x3c3571f0bd0a19c7U, 0x3cdfdb4e3b8ac630U,
  0xbc70c4023cc0f532U, 0x3cb95c143b364ba0U, 0xba8aa540bbc12000U, 0x3d0315613ca4b494U,
  0x3aaaddc0bc044398U, 0xbc5f144cbcaed673U, 0x3cfcd0dabbef7d18U, 0xbc4b9516bcd21202U,
  0x3c030c38bcb1d256U, 0x3babf09fbc1eec88U, 0x3cae87ce3c59535bU, 0xbcc7bab6bbf675f7U,
  0xbcb70cb33b75bbb3U, 0x3bb8de50bd1ef748U, 0x3cef336ebcaba864U, 0xbcd47b37bd10c950U,
  0xbc88b3f63c92f91aU, 0xbcc28c403bd9a250U, 0x3cff1b62bcad168aU, 0x3c9d120c3bbb80b0U,
  0xbd11d334bb2f242dU, 0xbc418d743cd827b4U, 0x3cc27113bc89ce81U, 0xbb1d3d043bab9b18U,
  0x3a2002d6bd2becf1U, 0xbcfe62973ce40f52U, 0x3cc4f706bbebd95cU, 0x3cb1eaac3d08156fU,
  0x3c3946e8bd09f005U, 0xbbd26090b8bcf600U, 0x3c4f72dcbcf0a001U, 0xbcebf6e23c073634U,
  0x3ce2c0b6bce374e0U, 0x3c88f9483c7aa12cU, 0xbcaf32b83c8367e0U, 0x3cd0e5f8bd0eb654U,
  0xbc6472223d0dab0bU, 0xbba63ed83c9b87f4U, 0x3c91c680bd0400b1U, 0x3d074f033cbfecd2U,
  0xbbb804783cdebfa2U, 0xbc9cfe5fbceb5848U, 0xbc8f6778bd03b590U, 0xbc453028bd0e0d3eU,
  0xbcaa8365bcaa950cU, 0xbc0e3a9c3cc6a603U, 0x3c296fdfbb20c178U, 0xbd0f91acbcfc669fU,
  0xbce5a60f3cb2900cU, 0xbd056dd4bce1272bU, 0xbc0597c83c17dde8U, 0xbb8d2d523c7deefdU,
  0xbc2ccd9a3c9debe4U, 0xbb98e7b4bab970a0U, 0xbc24d52c3c8ba128U, 0xbd0b112bbcde16beU,
  0x3c2ce7fe3c89c790U, 0xbcb29d223ca130a6U, 0x3bb55cd8bcdea6a0U, 0xbce30a703cb09abaU,
  0xbd050efdbca076c1U, 0xbcfb4d7cbc768b12U, 0xbd0b9514bcb97e46U, 0xbd28de8ebcf3ba3bU,
  0x3d0b740dbcee2229U, 0x3c0e6bd8bcb909ffU, 0xbc8ed5413cdafe06U, 0xbc48830a3b962908U,
  0xbbc25ff4bc775242U, 0x3cd259d63cf3378aU, 0x3ad005c03cdb06baU, 0x3cc814febc07dd8eU,
  0x3c2a8b843b899b58U, 0x3d0c9eeb3ceb6b32U, 0xbc9a37373cf2c3baU, 0xbbe8c3443cef29b6U,
  0xbca5e4b1bcec62c0U, 0x3ce06bee3cf5f95aU, 0xbc48b410bb6ce4a0U, 0xbcdb38cc3cb896d8U,
  0xbd0afced3ce8fd6dU, 0xbc3ccd48bcb480c4U, 0xbd04ce33bcc3b7b5U, 0x3cce74ac3bb577c6U,
  0x3b7963a6bbae3e58U, 0xbc73b1febc23722cU, 0xbc99c8dd3be8ca3eU, 0xbc15e234bcff807eU,
  0xbc0a7bc4bc856ebcU, 0x3c306aa43cbbd208U, 0x3d01c3c73c6b9dc0U, 0xbcdbeec73cbb7dc8U,
  0xbd113934bb99f538U, 0xbc13b53abc719bd8U, 0xbd1dab3c3bdc6050U, 0x3bc65cc23c3767e0U,
  0xbd066a523be48669U, 0xbbaf2f58bd02b03cU, 0x3c135c80bc9e0a8aU, 0xbd1c1b223cb55526U,
  0xbd084a7abcc7b939U, 0xbb1897c0bb095510U, 0x3ca13f30bb9095e8U, 0x3ccffa043cef826aU,
  0x3c92418c3cff1f56U, 0x3b916e983b476c60U, 0x3ca785863d00c665U, 0xbbe56a3c3cfcae5aU,
  0xbd0404333c4d90bcU, 0x3d0e7e053c981edeU, 0xbc79ef80bcaa812cU, 0xbc19d54e3c3dbe1cU,
  0xbbea3d883ca6e8c4U, 0x3cb0b278bc104a90U, 0x3d1253df3cedf35aU, 0x3d0ffff33c365d88U,
  0xbd29a60e3c8839a1U, 0xbd21228abc3528e4U, 0xbc2d7bb73cb4e0feU, 0xbd2b18c7bbb337f1U,
  0x3c9dac943b20472fU, 0x3ccbbdacbc8cc35bU, 0xbc1f2406bbe6e77fU, 0x3c5b9fd4bc95f99bU,
  0xbcb0fe403cdf1552U, 0x3cd06cfcbc4f2002U, 0xbccd8b30bc52a2fcU, 0x3bb356c83c61d908U,
  0xbccff8f9bbf4c5adU, 0x3ccc97e8bc7a46e8U, 0x3cb7094a3b2e4640U, 0xbc040301bc82b135U,
  0xbbf2df33baea0529U, 0x3c6915e83d0dd5b5U, 0xbc0ffbf83c6fc91cU, 0x3b8bdba9bccbd9a0U,
  0xbd09cce2bc9994fbU, 0xbc34553e3d0b318bU, 0xbbbcc3cc38352400U, 0x3bbf7c903cece2beU,
  0x3b4bec10bcf4a860U, 0x3d0d19c3bcb63aa8U, 0xbd052eb23cd5f5faU, 0x3d0a86793cc6cb82U,
  0x3cb38652bcd68ce6U, 0xba34d5003ca42becU, 0x3c943694bc731558U, 0x3ca165763d0772cdU,
  0x3c91518abc7b5622U, 0xbc8235a93c992f34U, 0xbcc758753cdc48f6U, 0xbc402580bc13bbfeU,
  0x3d0bce72bca5344bU, 0xbc7900df3d0ad4d8U, 0xbc8dd021bd087b89U, 0xbd1a24febca27561U,
  0x3d041bf53c0bdddcU, 0x3c79143cbd55ebe4U, 0xbcb052c33a5fef0eU, 0x3a4d292d3d2060e6U,
  0x391335003c9fa7f4U, 0xbcf104ecbc4e60b2U, 0x3bbe9f383c62d35cU, 0x3c9d2260bb57a270U,
  0xbd62fe8dbd5e530dU, 0x3bb94ab8bce34ac4U, 0xbd096f1f3c38f934U, 0x3c8fe24dbc90d270U,
  0xbc865252bd2c6c85U, 0x3d0c9773bc650828U, 0x3d81b040bd0627c5U, 0x3c6f9ed7bd1aa1f8U,
  0xbca1f22a3c46fe7cU, 0x3ccead8a3d0e642fU, 0x3c99247ebcd6f252U, 0xba378c003cc319b4U,
  0xbc8de3a8bb8956a8U, 0xbcd2482a3cf1c5e2U, 0xbc42aebabc117efeU, 0xbc6a77a4bbc86250U,
  0x3caba9403d111759U, 0xbcf79d2e3c15a6dcU, 0xbbd74f5cbc60b7ccU, 0xbc0655ce3d06c0afU,
  0xbc1d197a3c81a1b6U, 0xbceee093bcee285fU, 0xbc6f45ec3ca151d4U, 0xbb7235103c940452U,
  0x3d9b86c9bdac9a6bU, 0x3c107e4abda1af5dU, 0xbded1d99bc721a78U, 0xb9bbd215bd0b77cbU,
  0xbd5e334c3d8f8d19U, 0x3d10067fbc365c32U, 0xbd00c7c83d4a76fdU, 0x3da6faa23d894676U,
  0xbaed5a603cdbe116U, 0x3c9116b6bba1b23cU, 0x3cc731c6bbd90b00U, 0x3cfa1386bb4f4720U,
  0xbd6e5a153cfdac87U, 0xbaef72a03ce43ea2U, 0x3d2782b43d7e3865U, 0x3d7399f73cb42ef8U,
  0xbbd26302ba80b6c0U, 0xbcd0d6dcbd54e528U, 0x3d46680d3b8925b8U, 0xbcb80752bdb757e4U,
  0x3c782d10bb997a94U, 0xbc936d8bbca2ad09U, 0xbc944c0b3bd3f398U, 0xbc3f872abbe317a4U,
  0x3d0a20e53bf7f2d8U, 0xbc77d8febb0ec7a0U, 0xbce995823c87b482U, 0x3bc537d03cd3743cU,
  0x3c72f7843cb64e64U, 0x3ce5aee6bbc55ae8U, 0xbb6bc0903b1962e0U, 0xbc15c2ae3cd0909cU,
  0x3cf11a82bc88545cU, 0x3caad3b4b7deb800U, 0xbae8e6e0bd067ba0U, 0x388b6000bb6a7ec0U,
  0xbd5313d23ca62107U, 0x3c9bbdae3957aae8U, 0x3cb03a933c3ae360U, 0xbd3097d13cdca8daU,
  0xbd391209bcf37976U, 0xbc869a3f3c7ff3bbU, 0xbb8dda78bd001c0cU, 0xbd2681e6bcf9f0ffU,
  0x3c5d7a94bce85e16U, 0xbcda67223d0e7967U, 0xbc1d11a23bcf29c0U, 0x3d01402f3aeec620U,
  0xbc072c76bc2a2c46U, 0xbc9666623cc94fbaU, 0xbcaf5d2c3cab5b2bU, 0xbcb99e66bb9c2cd6U,
  0xbcaee81f3c3a86f5U, 0xbd02d5f0bc4af1b8U, 0xbcd01bd43bc0b6f3U, 0xbcb965f8bcf6ce91U,
  0xbc34d840bab59c80U, 0x3ce34e763cc38ec0U, 0x3c2c96883b72e3b0U, 0xbd12902dbb8d9548U,
  0xbcf03feb3cf8f196U, 0x3ca9e272bc691bf6U, 0xbbb8eba03c39f92cU, 0x3b18c5c0bd095687U,
  0x3c15bac4bc953c8dU, 0x3c27f8143ba470f8U, 0xbc844ec43bf8d2a0U, 0xbce7bcdabcb1e598U,
  0x3c3d510cbc3cb150U, 0xbc9237d33ca0247cU, 0x3d097b393badf340U, 0xbc369408bc1b0716U,
  0xbc954e8fbcc0dd1cU, 0xbba8e5e43c09cc83U, 0xbd040cd0bcabf5d3U, 0x3d2211cdbd028026U,
  0xbc430f2c3b40200eU, 0x3be63008bbd7e6b0U, 0x3c7a7a693c9a14aeU, 0xbc9f6b6fbc950cc8U,
  0xbcde35db3cddfe8eU, 0xbbdeb0d43ca0dc86U, 0xbcba1ed0bbb82d70U, 0x3cbad188bcca1e46U,
  0x3b304dc0bca163e3U, 0xbcf5d2743b9c4a58U, 0x3cb72af13c4cd77cU, 0xbd366b37bd286bbcU,
  0xbd1a78e7bcf29d3cU, 0x3bc9b6503cec61d2U, 0x3bf68d2f3c2c67f4U, 0x3b6667fabc7d37f1U,
  0xbc062b7cbd086ba0U, 0x3c5e17683d057835U, 0x3d0b4ced3ce7cd56U, 0xbc8e685abce03ad2U,
  0xbcad7d563cdec4daU, 0xbbb080a0bcce6d97U, 0xbaf2dda0bccd9e7dU, 0xbc90b1543b58a610U,
  0xbb6455e03cebac96U, 0x3d04fb87bc65286aU, 0xbcc6a0cbbb8ead48U, 0x3ccea540bcd9e020U,
  0x3c7e5d9c3bdafe30U, 0xbcdf5a36bcdd918bU, 0xba6693403b11b9e0U, 0x3cdf3a6abcec5d4eU,
  0x3d7192aabdc42d79U, 0xbc6d6080bdb69772U, 0xbdacf2dbbcfcd380U, 0x3c8e6338bd457edeU,
  0xbd331f183d6478e0U, 0xbc3fc8553ca7e232U, 0xbd20bc19bc13c478U, 0x3d499bf83d6a6a7cU,
  0xbbc3593cbc9adf17U, 0x3d0b8f213cbb2000U, 0xbc4554763bebc250U, 0x3d0ed1eb3b093da0U,
  0xbd3cb2253d5fa0f6U, 0xbc1545a43d01adb7U, 0x3c124b0d3ce26fd6U, 0x3c125e38bc9e3840U,
  0x3d1b8b55bc48e14aU, 0x3cfb671ebcd613c3U, 0x3cad2309bcf7b34fU, 0x3cb5ca28bd54a42dU,
  0xbd0d19dfbd0f9f6aU, 0xbcfb6e80bba3582cU, 0xbc63725e3d0342b9U, 0xbc987f6abcb792eaU,
  0x3ba2f4a0bbbc56e0U, 0xbd0a71d3bc149270U, 0xbcde458abce584c2U, 0xbc745404bb8e37a0U,
  0xbc2a8fac3cb05618U, 0x3ce0a1d6bd0a6047U, 0x3c8982eabc344356U, 0xbb874fc03ba170d8U,
  0xbcba5d4fbc89bd0cU, 0xbce067cfbccce7e6U, 0x3acdf6603c591a50U, 0x3ce71deebd093737U,
  0x3c849d09bca7eb91U, 0xbc55e5babc4a8b3aU, 0x3c82098cba903754U, 0xbc9a10673c32d55cU,
  0x3ca867443b8b8d0cU, 0x3ccc4652bca4b79eU, 0xbcab5512bbd19d32U, 0xbcec62b4bbf00d66U,
  0xbd0e71393c3b6ce0U, 0x3cca74023cdc45d6U, 0x3ad2e9e03cb65e04U, 0xbc7130c83d055a6fU,
  0xbd24eeffbb3d9566U, 0xbc4e293cbb8e9e58U, 0x3c9188963c23da9cU, 0xbbb1bd87bd294943U,
  0xbce2988a3cc58c40U, 0xbc6e9e523b81f4e8U, 0x3c2581e83cba81f0U, 0xbd3810053c168916U,
  0x3d0649adbc84e5b0U, 0x3ca9b1c03ce8365eU, 0xbcdcb63c3c1c0418U, 0xbbf9f808baf6ce00U,
  0x3cee69aa3c7ffdacU, 0x3aeeb8a0bc24c892U, 0xbccdff4abc8dbf42U, 0x3cf20ea2bd0e2fecU,
  0x3c31a5d03ca154acU, 0x3cb1b968bc4d8c3aU, 0xbcea9170bc8c72e0U, 0x3a78ec00bd0227d0U,
  0xbb1cea50bcb92dc4U, 0x3cbb0f76bc1f1af8U, 0xbcdff279bae5da00U, 0x3a047bc03cedffaaU,
  0x3dac3c54bdc13923U, 0xbd1a117b39478198U, 0xbd003473bd49676aU, 0x3bdd7881bdc3adbaU,
  0xbc457ff63d88236eU, 0xbceac0aa3c5f147aU, 0xbc434fb6bce614dbU, 0xbc1bf33a3d188614U,
  0xbcafdb5ebce2aa5cU, 0x3c59a5ecbc97af39U, 0x3ccd40923c8d2e16U, 0xbcae6074bd088c95U,
  0xbda3477e3c7cbf6eU, 0x3cb62b4cbcab1c71U, 0x3d96b2893d9a342aU, 0x3d5261363cf3bf5bU,
  0x3bba355cbc7c9c98U, 0x3cc8f44cbcffb037U, 0x3cab7cd7bc4a3738U, 0xbd4755adbd9f7f48U,
  0xbc6dd1b0bcbd5bb6U, 0xbc93314d3cb8c794U, 0x3cd4a78a3c927ab6U, 0xbc77cc2e3c574ed4U,
  0x3b919fe0bcf8c478U, 0x3d0e04773c1d8134U, 0xbc90aae2bc540552U, 0xbd0452013cf78b2aU,
  0x3c9a0a1e3cb20cdaU, 0x3c8de822bd0e57a6U, 0x3cb8c48cbbcd7ba8U, 0xbc8c2d203cef667eU,
  0xbcf04c53bc2125ceU, 0x3c29d37c3c8ab8d0U, 0x3bc374c03c61b100U, 0x3b8e7258bd0c34e0U,
  0xbc8f1bd5bcbe56c4U, 0xbc6adcf2bb00d24bU, 0xbd61803fbc91432aU, 0x3d04f5d6bc8dceabU,
  0x3bab9152bc9e0bcfU, 0xbcf9eee4bcd80fddU, 0x3c8558773cbf5b5fU, 0xbc9445623d2b3fbbU,
  0x3c8bfb603ce0920aU, 0xbc10a4a83c37646cU, 0x3b23a9903cc6513cU, 0x3977b7003cd58e0eU,
  0x3b23ee453c17c405U, 0xbb586430bc81a940U, 0x3ce0c1eb39b3176cU, 0x3c8b0d93bcc60f75U,
  0xbc6d138bbc09f67cU, 0x3cf46dfa3c06d912U, 0x3d106e7f3c160f93U, 0xbbb1af20bd1d3c64U,
  0x3cc88f523cafb496U, 0x3becee583d0e0109U, 0xbc4250223cd9d1e0U, 0x3d0ccf053d0105c3U,
  0xbc4e4750bcf37c44U, 0x3ca02a92bcc16516U, 0x3d120e8d3c82f084U, 0x3ca79bbebcecaab8U,
  0x3c482734bcd79911U, 0xbca46cedbccb0208U, 0x3cb78b8ebbd31b78U, 0xbca732703d0357e9U,
  0xbcfe3f803c92487eU, 0xbb753910bc8423c3U, 0x3cdb72de3bffee90U, 0x3d0b1715baf59aa0U,
  0x3d0be782bca7abbaU, 0x3c335caebc848445U, 0x3c0fcd54bc9abfd8U, 0xbbdcbfb4bcab9252U,
  0xbbc96a75bd216c7bU, 0xbcdaf9503c484021U, 0xbcb974643d49388eU, 0xbd31a44e3ce1d3cfU,
  0x3c75cfd83c93c930U, 0xbb52b9d03d126b9bU, 0x3cbb15303ca2e44cU, 0xbcc10d3cbcd07151U,
  0xbd00711f3bafdd65U, 0xbc7c06de3ca12424U, 0xbcfe37233d0133e5U, 0xbccb3553bd05b1bfU,
  0xbce3ae12bc8f2dddU, 0x39d8ab803c89ca3aU, 0xbcd0596bbcb7bcb2U, 0xbca64da7bad6bfe8U,
  0xbcb27b7e3c175fa0U, 0xbcaf5e63bcfec2d2U, 0x3c615f54bd0c7eb3U, 0x3ca2953ebcbff4caU,
  0xbc3644143cf59fdeU, 0xbc8000cf3cafa5e8U, 0xbb5d2b80bd0037f3U, 0xbd02811f3cdc936aU,
  0x3ce3df0ebd11c498U, 0x3c4971f8bc50ed82U, 0x3c273d38bc6d289cU, 0x3c9cf9f83cbc0310U,
  0xbcdb50043c5628b0U, 0x3cc10cdcbc04fc08U, 0x3be8fb20bc645674U, 0xbcf2b217bcc3ac40U,
  0xbc1e2187bd066fa9U, 0xbd0225f6bbc07548U, 0x3bd23098bd0feb9cU, 0x3c269e34bc66b984U,
  0xbcf83699bc1e70faU, 0x3ba1c438bc792c9cU, 0x3adbd1803c92d5ecU, 0xbd06cc73bcb5c0b4U,
  0xbcc79ec33cf7ed66U, 0x3c638ba43c09c674U, 0x3cd2c7debc9417fbU, 0x3ce3a6debc52ff9cU,
  0xbbe00c94bc28b52cU, 0x3c9a6a90bc8a4034U, 0x3cc5c6dcbce0c86aU, 0x3c2696d4bca612b4U,
  0xbd3206d5bcf85f28U, 0x3c0639843ce47de6U, 0xbba778b8bd0ad3eaU, 0xbce2c71c3c024101U,
  0x3c4aea783c8e05beU, 0xbcebf3003ce968f6U, 0xbcd9185e3b2a40e0U, 0xbc01a042bc9fe79dU,
  0x3cd8516abc94450bU, 0x3baee0d8bcd95e50U, 0x3cf52cb6bc807fd9U, 0x3cb9ba1cbd10346bU,
  0x3b7b9ef03d0989dbU, 0x3c8018febc7e7648U, 0xbd03c1b3bca93336U, 0xbcda4cfa3cac7d86U,
  0x3c3c3144bbfbab24U, 0x3c6d64583ba485e0U, 0x3cd502f83a2be2c0U, 0x3bc19d88bd049731U,
  0xbd36fee23a999332U, 0x3bb0f8df3c6f05c7U, 0xbaed8e3c3c541afdU, 0x3cd3b877bcbe1897U,
  0xbcd7df1a3bddd824U, 0x3cdca63abbd1608dU, 0xbc1c90273c1568b7U, 0xbcde5902ba17832cU,
  0x3d0681d5bcee6b42U, 0xbb978fc03a493540U, 0xbc63ca463c115f10U, 0xbcbb0b983cbcaa90U,
  0xbb8454813c98b34eU, 0xbd0bf26cbad8bf80U, 0xbd38d807bd00461cU, 0xbcbdff51bac52911U,
  0xbc3b1eeabcaf7c43U, 0xbcca25463b0a9910U, 0xbd007e1e3cc0305eU, 0xbce12b3c3b8f4b7eU,
  0x3cc60368bcd29964U, 0x3bb52398bb3e0520U, 0xbba0f91c3d10c219U, 0x3cb4fb003b126190U,
  0x3c8b936e3d00abffU, 0xbcabc09cbb2c22b0U, 0x3c954da63bdf59c0U, 0x3cbb07b0bc6ce192U,
  0x3ccfc4643cfb25baU, 0x3d00b0ddbcd56296U, 0xbcba2204ba01bcc0U, 0x3d001eb7bbeffd5cU,
  0x3bb9afb8bcb7372eU, 0xbb93c5583b3f39e0U, 0xbca0babebc23b302U, 0xbd0ee0b0bd0ff335U,
  0x3c88c9d3bb271e00U, 0xbcba2ae3bcf1a734U, 0x3cd573d1bccfcf89U, 0x3af79f8e3c440966U,
  0xbc3e7a6abc877095U, 0x3d0671e3bd14a193U, 0x3b5ac5c0bd248a45U, 0xbce445993c8027bdU,
  0xbcb9610e3ba6e4a0U, 0x3c2bb1203cbf70dcU, 0x3c5289e43ce4ff9aU, 0x3ca592163d0964b5U,
  0xbca88e0c3cd062a8U, 0xbd09ce2c3d085c5fU, 0x3c81a2753d0ca0d8U, 0xbce787473ca96cd7U,
  0xbc664d80bcc3adf2U, 0x3cf728263c858fc4U, 0xbbd03e3c3c51b5d0U, 0xbb9e85633ca2316bU,
  0xbca325f3bcc6f084U, 0x3bf71f703b94b1a8U, 0xbd129a483d098a8fU, 0xbbcc1974bcf2d6fdU,
  0x3c8dd4543c9314daU, 0x3c5994ecbca82d3dU, 0xbcd078a4bc96489cU, 0xbcfd31ec3cfb7a32U,
  0x3d0e7791bd0f19acU, 0xbca13c73b813a000U, 0xbcd3eb0939a28a80U, 0x3bbec308bc820ce1U,
  0x3cd92fc03ca492feU, 0x3c19dcf83d0ba3b3U, 0x3d075c113caeb458U, 0xbbcca608bb8672a0U,
  0x3cfa3b63bd93a4ffU, 0xbc9c6756bd5f047fU, 0xbddfd975bc38201eU, 0xbc0d5710bd3016cfU,
  0xbdab0c993c911f78U, 0xbc1dd8e13c894c28U, 0x3cb333733cdc37c9U, 0xbb31c1043c371727U,
  0x3c74260c3c3e61acU, 0x3c2d6900bcbcca8aU, 0xbcf1d33c3cbf639cU, 0xbc176600bb9bda20U,
  0xbda736743b61a7f6U, 0x3a823c00bcf58736U, 0xbb384b57bb756863U, 0x3d1c15aa3cd2952cU,
  0x3cbda2523d30f8c7U, 0x3c0eae4cbc2103a0U, 0x3d588ab1bc880d74U, 0x3c971852bdae8c45U,
  0x3ba17cd03cc2b9c6U, 0xbc12d87c3c8fa376U, 0x3d1230473b342410U, 0x3c9c33b2bc11d224U,
  0xbc7f5e443d06295fU, 0xbcc0cf66bcaac554U, 0xbc88d3a13cda0eacU, 0x3cf1d3b63d0c8e67U,
  0xbc11b20e3c7d4b04U, 0xbd106673bbcd3d48U, 0xbcc15d48bc8d5940U, 0x3ba4b6d8bca99c32U,
  0xbcfdc1ee3be6acd8U, 0xbb3dd240bcfb1db4U, 0x3c49c6c4bce1f4c5U, 0xbc41b244bce9e471U,
  0x3c89cba1bcdbfa43U, 0xbc13c0d7bbafa07eU, 0xbb56d64d3a9910bdU, 0x3c08b18dbcf4a7a0U,
  0xbc937c013bb41841U, 0x3c7d817cbcc598ccU, 0xbcb65f32bd1197dcU, 0xbbfcc8e0bca1da7aU,
  0x3cfd0d0a3d04329dU, 0xbd113986bd0bbe27U, 0xbc097a00bc59fa2eU, 0xbcb3e7ed3ca7daf0U,
  0xbc5eab933cbe4d10U, 0x3b064c40bcb5bc48U, 0xbced4e2bbc51382aU, 0xbd1d0d3fbcfbfec8U,
  0xbc3c8938bbcc16baU, 0x3ba60b483d0894ddU, 0xbc25047abc3889a2U, 0x3ca5e20abc3c47c1U,
  0x3ca91e76bcb644b4U, 0x3ce4f19ebcaae218U, 0x3c85c8a0bc184b4cU, 0xbc06ac3e3d016535U,
  0xbce6e1663ca5139eU, 0x3d0e7cc1bc2be080U, 0x3c4f01a4bc876685U, 0xbcb15a1c3c39b58cU,
  0x3a12214037ed5000U, 0x3c4485c03ba0b5f0U, 0xbcbe3146bca7a0c1U, 0xbd0ef8643c82ac28U,
  0x3c9d07ce3c976878U, 0xbb824ab0bcf3b28cU, 0xbc300e84bb1f9eb0U, 0xbd0cd9673d085387U,
