/**
  ******************************************************************************
  * @file    network_3_data.c
  * @author  AST Embedded Analytics Research Platform
  * @date    Wed Dec  8 18:11:26 2021
  * @brief   AI Tool Automatic Code Generator for Embedded NN computing
  ******************************************************************************
  * @attention
  *
  * Copyright (c) 2021 STMicroelectronics.
  * All rights reserved.
  *
  * This software component is licensed by ST under Ultimate Liberty license
  * SLA0044, the "License"; You may not use this file except in compliance with
  * the License. You may obtain a copy of the License at:
  *                             www.st.com/SLA0044
  *
  ******************************************************************************
  */
#include "network_3_data.h"
#include "ai_platform_interface.h"


AI_ALIGNED(32)
const ai_u64 s_network_3_weights_array_u64[ 3593 ] = {
  0x3eeb8fb63f800000U, 0x3f8000003f600dd5U, 0x3f8000003f800000U, 0xbef3ce813f800000U,
  0xbf800000bf800000U, 0xbf800000bf800000U, 0xbf5bee6fbf800000U, 0x0U,
  0x0U, 0x0U, 0x0U, 0x0U,
  0x0U, 0x0U, 0x0U, 0x0U,
  0x0U, 0x0U, 0x3c85d47dU, 0x0U,
  0x0U, 0x0U, 0x0U, 0x0U,
  0x0U, 0x0U, 0x0U, 0x0U,
  0x0U, 0x3cd3e42a00000000U, 0x3c9bb2963d5d33beU, 0x0U,
  0x3c9e73c1U, 0x3cd293123d0d84e0U, 0x0U, 0x3c9d14de00000000U,
  0x0U, 0x0U, 0x0U, 0x0U,
  0x0U, 0x0U, 0x3cf4d588U, 0x0U,
  0x3a41c2a0U, 0x0U, 0x0U, 0x0U,
  0x3cad70e800000000U, 0x0U, 0x3c97134639b27ea8U, 0x3d374972U,
  0x0U, 0x0U, 0x0U, 0x0U,
  0x0U, 0x0U, 0x0U, 0x0U,
  0x0U, 0x3b1db19c00000000U, 0x0U, 0x0U,
  0x3be2b0aa00000000U, 0x3d01e7c4U, 0x0U, 0x3cdabfda00000000U,
  0x3bdafb7900000000U, 0x0U, 0x3ad0a18100000000U, 0x0U,
  0x3cd9c148U, 0x0U, 0x0U, 0x3d5045e2U,
  0x0U, 0x3c24831900000000U, 0x0U, 0x3c9cc67c00000000U,
  0x0U, 0x0U, 0x0U, 0x0U,
  0x0U, 0x0U, 0x0U, 0x0U,
  0x3d17138a00000000U, 0x0U, 0x0U, 0x3c74224f00000000U,
  0x0U, 0x0U, 0x0U, 0x0U,
  0x0U, 0x0U, 0x0U, 0x0U,
  0x3c2b003fU, 0x0U, 0x3d1d5b9000000000U, 0x3d370dc2U,
  0x0U, 0x0U, 0x0U, 0x3c45377800000000U,
  0x0U, 0x0U, 0x3d88ef4500000000U, 0x0U,
  0x0U, 0x0U, 0x0U, 0x3d07339000000000U,
  0x3c8843b800000000U, 0x0U, 0x3c9ae12600000000U, 0x0U,
  0x3bcbc11eU, 0x0U, 0x0U, 0x0U,
  0x0U, 0x3ce6a158U, 0x0U, 0x0U,
  0x3cd925eb3d0aefd5U, 0x3bd4746600000000U, 0x0U, 0x0U,
  0x0U, 0x0U, 0x3ca9b4f6U, 0x0U,
  0x3ada279800000000U, 0x3d632330U, 0x0U, 0x0U,
  0x3c8eb36600000000U, 0x0U, 0x0U, 0x3c663dea00000000U,
  0x0U, 0x0U, 0x0U, 0x0U,
  0x0U, 0x3c9e0d723ba92acaU, 0x0U, 0x3c4dbac7U,
  0x3bb995d700000000U, 0x0U, 0x0U, 0x0U,
  0x3c2eade200000000U, 0x0U, 0x0U, 0x0U,
  0x3b02368cU, 0x0U, 0x0U, 0x3d528aa200000000U,
  0x3a78608000000000U, 0x0U, 0x0U, 0x0U,
  0x0U, 0x0U, 0x0U, 0x0U,
  0x0U, 0x0U, 0x0U, 0x0U,
  0x0U, 0x0U, 0x0U, 0x3c9a9a583b2475a4U,
  0x0U, 0x3c3131a400000000U, 0x0U, 0x3c80c4abU,
  0x3b0f75c100000000U, 0x0U, 0x3d031e593bb38f05U, 0x3ca8faa000000000U,
  0x0U, 0x0U, 0x3caf3182U, 0x3c99d0e7U,
  0x0U, 0x0U, 0x0U, 0x0U,
  0x0U, 0x0U, 0x0U, 0x0U,
  0x0U, 0x0U, 0x3c0c328eU, 0x3cd53265U,
  0x0U, 0x0U, 0x0U, 0x0U,
  0x0U, 0x0U, 0x3b2ba0b8U, 0x0U,
  0x3c5981b63c9997dcU, 0x0U, 0x0U, 0x0U,
  0x3d41adb0U, 0x3c91e682U, 0x3c88be5a00000000U, 0x0U,
  0x3cb0c896U, 0x3ca27620U, 0x0U, 0x0U,
  0x0U, 0x0U, 0x0U, 0x3b99c55000000000U,
  0x0U, 0x3cb647bc00000000U, 0x3d23a0b600000000U, 0x0U,
  0x0U, 0x0U, 0x3c95f032U, 0x3c4e6f6d00000000U,
  0x3cf8cf4b00000000U, 0x3cef13ca00000000U, 0x3d32b79800000000U, 0x0U,
  0x0U, 0x0U, 0x0U, 0x3c33f864U,
  0x3c0e8da8U, 0x0U, 0x3c16d44600000000U, 0x0U,
  0x0U, 0x0U, 0x0U, 0x3c9b4880U,
  0x0U, 0x0U, 0x0U, 0x0U,
  0x0U, 0x3cf7c50400000000U, 0x3bae61daU, 0x0U,
  0x3b31a002U, 0x0U, 0x0U, 0x0U,
  0x3c88d066U, 0x0U, 0x3a40f37e00000000U, 0x3c90fd6eU,
  0x0U, 0x0U, 0x3caa161300000000U, 0x3c30e9a3U,
  0x0U, 0x3c8113813ca2aeefU, 0x3cc3c67e3c3f1fa7U, 0x3c857736U,
  0x3c24bed4U, 0x3c628e2d00000000U, 0x3c8ed30000000000U, 0x3b9e2ef400000000U,
  0x3c0ccbfcU, 0x0U, 0x0U, 0x3c0fdd25U,
  0x0U, 0x3ca9c3e63cbe23ecU, 0x3d074e243c457848U, 0x3bb8fd933c8e06a7U,
  0x3cb82363U, 0x3c4490833ca0103cU, 0x0U, 0x3c19c0ef00000000U,
  0x0U, 0x3b8465c5U, 0x0U, 0x3c9c500800000000U,
  0x3c1eb0113c10541dU, 0x0U, 0x3ca55d46U, 0x0U,
  0x3c3119583c92c226U, 0x3c9aeee6U, 0x0U, 0x0U,
  0x3cae88ef00000000U, 0x3c8d6b7f00000000U, 0x3c62537200000000U, 0x3c5da3beU,
  0x0U, 0x0U, 0x3c985d2dU, 0x3cb9c6d300000000U,
  0x3c47592000000000U, 0x0U, 0x0U, 0x3c4e842c00000000U,
  0x0U, 0x3cbd25e000000000U, 0x3c55784c00000000U, 0x0U,
  0x3ca459433cab6890U, 0x3cb38388U, 0x3c624392U, 0x3c960e283c016939U,
  0x3c2fa47200000000U, 0x3bfe9468U, 0x3b9729b900000000U, 0x3c8215b900000000U,
  0x3c856f34U, 0x3cbef9a800000000U, 0x0U, 0x3cbb6392U,
  0x3c211cb4U, 0x3c18880000000000U, 0x0U, 0x3bc3151600000000U,
  0x0U, 0x3c137f7aU, 0x0U, 0x0U,
  0x0U, 0x0U, 0x3c88dc3500000000U, 0x0U,
  0x3c8a444500000000U, 0x0U, 0x3c2ba12000000000U, 0x3c9fbe7f00000000U,
  0x3c688bc800000000U, 0x3cbc435e3c5548b2U, 0x3ca184f000000000U, 0x0U,
  0x0U, 0x3c94b823U, 0x0U, 0x0U,
  0x3bad9b45U, 0x3c89be8f00000000U, 0x3c7a4d293b345c96U, 0x3961a660U,
  0x3c8bdcb43c81bec2U, 0x3c6ce833U, 0x3c449978U, 0x3c8814b33cafb98aU,
  0x0U, 0x3c1ec44d3ca8861bU, 0x3cac53c43c64d6daU, 0x0U,
  0x0U, 0x0U, 0x3c9fde523bd87564U, 0x3c28d50b3c3a6bb6U,
  0x3bec968200000000U, 0x3cc1f808U, 0x3c3a588200000000U, 0x3c88e1763c5f4368U,
  0x3cd3c3ce3c926a1dU, 0x3c7685e0U, 0x3ca9bf9200000000U, 0x0U,
  0x0U, 0x3c1ac41cU, 0x3ca131e000000000U, 0x0U,
  0x3c2074763c9330edU, 0x0U, 0x3bce72f600000000U, 0x0U,
  0x3ca1df54U, 0x0U, 0x3cd633b33cc95b4cU, 0x0U,
  0x3c9e3a1600000000U, 0x3c05737f3cafe7e4U, 0x0U, 0x3c42a30dU,
  0x3cc356e43c93397aU, 0x3ca7fdec00000000U, 0x3c76b59000000000U, 0x3c86088f00000000U,
  0x3cd1fa4700000000U, 0x0U, 0x0U, 0x0U,
  0x3c5221e9U, 0x3c96cb003c94bdfbU, 0x0U, 0x3cc02826U,
  0x0U, 0x3c7bf2e8U, 0x0U, 0x3cb579c2U,
  0x3c58107000000000U, 0x3cb2e9deU, 0x0U, 0x3c94920200000000U,
  0x3c5b41c63c40fb62U, 0x3c598fc600000000U, 0x0U, 0x3c9f43de3c81d6beU,
  0x3c7393aa3ce1bdf4U, 0x0U, 0x3c79379dU, 0x0U,
  0x3bf089e0U, 0x0U, 0x3ca114ae3c8feac4U, 0x0U,
  0x0U, 0x3c976bc2U, 0x0U, 0x0U,
  0x0U, 0x0U, 0x3c9cbc89U, 0x3cb657c93c667f61U,
  0x3c4b322500000000U, 0x3c03ab7f00000000U, 0x0U, 0x3c82c4a53c5604c6U,
  0x3c3b2b2700000000U, 0x0U, 0x3c16708f3cda6881U, 0x3caec1603cba890cU,
  0x3c446261U, 0x0U, 0x3cd3537eU, 0x3c62140c3c28fd21U,
  0x0U, 0x0U, 0x3c2fa5b400000000U, 0x3c7fac8300000000U,
  0x0U, 0x3c900c043c59e9ffU, 0x3c79b7f2U, 0x0U,
  0x3c814b79U, 0x0U, 0x39edafe8U, 0x3c341e8dU,
  0x3c6eb2e0U, 0x3c052bfdU, 0x3c95b2ba3c90c300U, 0x0U,
  0x3cc337ca00000000U, 0x0U, 0x0U, 0x0U,
  0x3c5d16033c508de2U, 0x3c8c168eU, 0x3c595656U, 0x0U,
  0x3c50918bU, 0x3c92605cU, 0x3cb2807d00000000U, 0x0U,
  0x3c5632153be76c88U, 0x3cac39bcU, 0x0U, 0x3b96ecf400000000U,
  0x3be1166000000000U, 0x0U, 0x0U, 0x3ca136d500000000U,
  0x3ba82c70U, 0x3c6dc35000000000U, 0x3c8d702a3c92751aU, 0x3c862f723cb15ae0U,
  0x0U, 0x0U, 0x3be961063c9a2df7U, 0x3b473b3c3cc5b086U,
  0x3ca5a499U, 0x3c2d4a6300000000U, 0x3ca625913c3b9ecbU, 0x3c9f373cU,
  0x3cadb0f000000000U, 0x0U, 0x3c8c551e00000000U, 0x3c572948U,
  0x3c5c14c7U, 0x0U, 0x3c9d2cf400000000U, 0x3c6d356f3c2795eeU,
  0x3c8517c200000000U, 0x3c92499000000000U, 0x0U, 0x3c75f34eU,
  0x3c9379a5U, 0x3c26cb9dU, 0x3c91468800000000U, 0x3b8fddd900000000U,
  0x3c81ccbcU, 0x3c59834a3c64c1adU, 0x3c90e4b0U, 0x3c85d6a200000000U,
  0x3cda0ef1U, 0x3bb1198d00000000U, 0x0U, 0x0U,
  0x3d90b60aU, 0x0U, 0x3d4e078f00000000U, 0x3d89041fU,
  0x0U, 0x0U, 0x3db16d6900000000U, 0x3d86c218U,
  0x0U, 0x3d161be43da84f3cU, 0x3dbbdd2a00000000U, 0x3d915250U,
  0x0U, 0x3d7d521c00000000U, 0x3d8d124a00000000U, 0x3d5a3b7200000000U,
  0x0U, 0x0U, 0x0U, 0x3da04b41U,
  0x0U, 0x3db00a73U, 0x3dcf22943d65a23fU, 0x3d80dae2U,
  0x3d957f43U, 0x0U, 0x0U, 0x0U,
  0x0U, 0x0U, 0x0U, 0x3d9e60f200000000U,
  0x3d9119883d8269c4U, 0x0U, 0x0U, 0x0U,
  0x3d869add3d94ed9fU, 0x3d961b99U, 0x0U, 0x0U,
  0x3dba8e6600000000U, 0x3d93587e00000000U, 0x3dbf698400000000U, 0x0U,
  0x0U, 0x0U, 0x3dc41cc2U, 0x3d995dea00000000U,
  0x3d858e5600000000U, 0x0U, 0x0U, 0x3d6dfc4e00000000U,
  0x0U, 0x3d97195b00000000U, 0x3d855a9f00000000U, 0x0U,
  0x3d8a965c3dc36d62U, 0x0U, 0x3daac759U, 0x3d3f09d7U,
  0x0U, 0x3d970c38U, 0x0U, 0x3d883bd500000000U,
  0x0U, 0x3d8cd98a00000000U, 0x0U, 0x3cd03412U,
  0x3d5c0ca0U, 0x3ce7147e00000000U, 0x0U, 0x3c13ab3f3c8e6d9aU,
  0x0U, 0x3d6facd8U, 0x0U, 0x0U,
  0x0U, 0x0U, 0x3d96595500000000U, 0x0U,
  0x3d7e2fe400000000U, 0x0U, 0x0U, 0x3db1828600000000U,
  0x3da1ca9200000000U, 0x3dc2bcb83d9c55a9U, 0x3da551a200000000U, 0x0U,
  0x0U, 0x3dac3b03U, 0x0U, 0x0U,
  0x0U, 0x3d85b54e00000000U, 0x0U, 0x0U,
  0x3d7cc2793d6f98caU, 0x3d612696U, 0x3d93879cU, 0x3db2bfc23db1786dU,
  0x0U, 0x3d71517a3d7a7cb8U, 0x3d5cf48d3d910198U, 0x0U,
  0x0U, 0x0U, 0x3d97ea4800000000U, 0x3d56a393U,
  0x0U, 0x3da10e49U, 0x0U, 0x3d9d516c3d88e0e2U,
  0x3da7c27600000000U, 0x3d925326U, 0x3da6ad1000000000U, 0x0U,
  0x0U, 0x0U, 0x3d9d9e7500000000U, 0x0U,
  0x0U, 0x0U, 0x0U, 0x0U,
  0x3cd2f5e03da8f4e1U, 0x0U, 0x3dc025dc3dc7df75U, 0x0U,
  0x3d9ad24900000000U, 0x0U, 0x0U, 0x3d9438c1U,
  0x3dca96e73db353b8U, 0x3da99a5200000000U, 0x3d9a2ff700000000U, 0x3dae359a00000000U,
  0x3d75bb7d00000000U, 0x0U, 0x0U, 0x0U,
  0x3d9551bfU, 0x3db535683d8d4a7aU, 0x3c8c7da4U, 0x3d80e7d8U,
  0x0U, 0x3d6f2b82U, 0x0U, 0x3d9abe12U,
  0x0U, 0x3d8a4004U, 0x3c43f88e00000000U, 0x3d93e81f00000000U,
  0x3d8cb8013d95211dU, 0x3d96a96900000000U, 0x0U, 0x3d85f5673d9cf232U,
  0x3d3ad6903dd072d8U, 0x0U, 0x3d9f69a1U, 0x0U,
  0x3d912c16U, 0x0U, 0x3d83aad33daea79fU, 0x0U,
  0x0U, 0x3d82b4feU, 0x0U, 0x3b0644f6U,
  0x0U, 0x0U, 0x3d935386U, 0x3dc143b63d97ce8cU,
  0x3d8dd8e700000000U, 0x0U, 0x0U, 0x3d8eabb800000000U,
  0x3d77ae5200000000U, 0x0U, 0x3d8c63baU, 0x3d9fb3303db62820U,
  0x3d057c20U, 0x0U, 0x3db97febU, 0x3d839eee00000000U,
  0x0U, 0x38052200U, 0x3d7c41f000000000U, 0x3d45a87600000000U,
  0x0U, 0x3d94305d3d778792U, 0x3d9231a9U, 0x0U,
  0x3da1be0fU, 0x3aca6680U, 0x0U, 0x0U,
  0x3d841dd4U, 0x3d8e550dU, 0x3db0e2093da4071cU, 0x0U,
  0x3daf93923b96c066U, 0x0U, 0x0U, 0x0U,
  0x0U, 0x3d9b270cU, 0x3d096e1fU, 0x0U,
  0x3c9efe41U, 0x3db87e97U, 0x3da007ff00000000U, 0x0U,
  0x3d8c6d2e00000000U, 0x3dbb1bffU, 0x0U, 0x3d8c8b8f00000000U,
  0x0U, 0x0U, 0x0U, 0x3d84f36700000000U,
  0x0U, 0x0U, 0x3d945682U, 0x3d9b5b953dada3f2U,
  0x0U, 0x0U, 0x3d78b43b3da45161U, 0x3dd72f08U,
  0x3d9497a5U, 0x0U, 0x3d8dfdbcU, 0x3da5f1e6U,
  0x3d7e31bd00000000U, 0x0U, 0x3d7a1d6f00000000U, 0x0U,
  0x0U, 0x0U, 0x3d74d80500000000U, 0x3d6c37703d876290U,
  0x3dad509a00000000U, 0x3da37fa000000000U, 0x0U, 0x3d862313U,
  0x3da5ed4eU, 0x3d8852ebU, 0x3da5d08100000000U, 0x0U,
  0x3db3a6e6U, 0x3d9c99e0U, 0x0U, 0x3da75cfc3b6d5d28U,
  0x3d93b8eaU, 0x3d731dfe00000000U, 0x0U, 0x0U,
  0x3bdd0514U, 0x0U, 0x3bbd232d00000000U, 0x0U,
  0x0U, 0x0U, 0x0U, 0x3c2b8940U,
  0x0U, 0x0U, 0x3a1bf6983c4b1df6U, 0x3bfc1e30U,
  0x3c9fa6e8U, 0x388c1e0000000000U, 0x3bf33ba000000000U, 0x0U,
  0x3ba5b571U, 0x0U, 0x0U, 0x3bc80fe2U,
  0x0U, 0x3cac8eea00000000U, 0x3c2f0a773cad4c65U, 0x0U,
  0x3c9bfddfU, 0x3c92b5fa3cfbfd7cU, 0x0U, 0x3cb243a000000000U,
  0x0U, 0x0U, 0x0U, 0x3ba5f50200000000U,
  0x3c31afeb00000000U, 0x0U, 0x3cb7f628U, 0x0U,
  0x3b087c3300000000U, 0x3c673dbbU, 0x0U, 0x0U,
  0x3cade19c00000000U, 0x3c4aa58900000000U, 0x3ce90d0200000000U, 0x3cc52273U,
  0x0U, 0x0U, 0x3c7dc525U, 0x3b66081700000000U,
  0x3baaa34f00000000U, 0x0U, 0x0U, 0x3c1c885700000000U,
  0x0U, 0x3b0ae1f000000000U, 0x3c17970400000000U, 0x0U,
  0x3c63afc5U, 0x3cae4059U, 0x3c6b3dfaU, 0x3c45218100000000U,
  0x3c94001e00000000U, 0x0U, 0x0U, 0x0U,
  0x3c859d74U, 0x0U, 0x0U, 0x3cddb530U,
  0x3b8fe7a7U, 0x3c8d8b8c00000000U, 0x3c24f4be00000000U, 0x3b4696b000000000U,
  0x0U, 0x0U, 0x0U, 0x0U,
  0x0U, 0x0U, 0x39bb440000000000U, 0x0U,
  0x3c9e0b1500000000U, 0x0U, 0x3bc806c100000000U, 0x3c64657100000000U,
  0x3c91335200000000U, 0x3bc43f5b00000000U, 0x3a29d92200000000U, 0x0U,
  0x0U, 0x0U, 0x0U, 0x0U,
  0x3bbc13dfU, 0x3c296cee00000000U, 0x3cc18feb3c56b49fU, 0x3b401884U,
  0x0U, 0x0U, 0x0U, 0x3cb40b663b422f50U,
  0x0U, 0x3ba1e23600000000U, 0x3ccd8b2a3b281c97U, 0x0U,
  0x0U, 0x0U, 0x3c445d79U, 0x3cf304843a937400U,
  0x3ab8ff5a00000000U, 0x3a6a91e0U, 0x3cce8e9200000000U, 0x3bc12a7e00000000U,
  0x3bd513d0U, 0x0U, 0x3bf9f25b00000000U, 0x0U,
  0x0U, 0x3c6b44d4U, 0x0U, 0x0U,
  0x3c3c848a3ce410beU, 0x0U, 0x3a9feae800000000U, 0x0U,
  0x0U, 0x0U, 0x39f387e03c865999U, 0x0U,
  0x0U, 0x3cc11d62U, 0x0U, 0x3be095ccU,
  0x3c8e541e00000000U, 0x0U, 0x3c032ff000000000U, 0x3cbafd1000000000U,
  0x0U, 0x0U, 0x0U, 0x0U,
  0x39d76c80U, 0x3c6d97a800000000U, 0x0U, 0x0U,
  0x0U, 0x0U, 0x0U, 0x0U,
  0x3c5fbf3500000000U, 0x3a8c8750U, 0x0U, 0x0U,
  0x3c3a577eU, 0x3c42afae00000000U, 0x0U, 0x3cef836a3b1c30c7U,
  0x0U, 0x0U, 0x3c0e19d9U, 0x0U,
  0x0U, 0x0U, 0x3bd7dab439e68290U, 0x0U,
  0x0U, 0x0U, 0x0U, 0x0U,
  0x0U, 0x0U, 0x3a6de372U, 0x3ca00b4b3bf483a9U,
  0x0U, 0x3c859e1d00000000U, 0x0U, 0x3bb24dc33c43a09bU,
  0x3c48530900000000U, 0x0U, 0x3c3fede400000000U, 0x3c996b243bf71014U,
  0x0U, 0x0U, 0x3c8db1a4U, 0x3c731698U,
  0x0U, 0x0U, 0x3c50a5a600000000U, 0x0U,
  0x0U, 0x0U, 0x0U, 0x0U,
  0x0U, 0x0U, 0x3b4f9c32U, 0x3cdd4946U,
  0x0U, 0x0U, 0x3ba1e3ad3c6dcae6U, 0x0U,
  0x3c4f857000000000U, 0x0U, 0x0U, 0x0U,
  0x3c3017c53c041261U, 0x3aecc375U, 0x0U, 0x0U,
  0x3cca79d8U, 0x3ca97addU, 0x3c69508600000000U, 0x0U,
  0x3bd152e03c8e8dfdU, 0x3ca6e8c6U, 0x0U, 0x0U,
  0x3c4c54ba00000000U, 0x0U, 0x0U, 0x0U,
  0x3c3b1c363c355b38U, 0x3c64756800000000U, 0x3ce1fbe43befee70U, 0x3bd5edd000000000U,
  0x0U, 0x0U, 0x3bba29ad3c491718U, 0x3c98b0a43c09d15bU,
  0x3bb79b3a00000000U, 0x3ca3893700000000U, 0x3c92625800000000U, 0x3bb3e672U,
  0x0U, 0x0U, 0x0U, 0x3caa4912U,
  0x3c595432U, 0x0U, 0x3c7dacf000000000U, 0x3c65fc273c765cf1U,
  0x3c62d0b400000000U, 0x3c23c02a00000000U, 0x0U, 0x3cc869dbU,
  0x0U, 0x3a8d4900U, 0x3bd01a8800000000U, 0x0U,
  0x0U, 0x3caf63ec00000000U, 0x3c88a2adU, 0x3b361a5e00000000U,
  0x0U, 0x3be8a6f200000000U, 0x0U, 0x0U,
  0x3c7af470U, 0x0U, 0x3b53e33000000000U, 0x3b8f85dcU,
  0x0U, 0x0U, 0x3b63d24500000000U, 0x3c8b418aU,
  0x0U, 0x3b018b933b872b6eU, 0x3c56b39a3c4e88faU, 0x3c3654c7U,
  0x3c7a2b0aU, 0x3bc0bd8e00000000U, 0x3c1ec3ba00000000U, 0x0U,
  0x3a53b850U, 0x0U, 0x0U, 0x3b079d02U,
  0x0U, 0x3c99b2e83bd24642U, 0x3c9f4f993cc5cc6cU, 0x0U,
  0x3cee2948U, 0x3ca5eca83cde8ffaU, 0x0U, 0x3c78182600000000U,
  0x0U, 0x0U, 0x0U, 0x3ca3e50b00000000U,
  0x3c3fa84e3a86718cU, 0x0U, 0x3c9d067aU, 0x0U,
  0x3bc3e3253bef530aU, 0x3c957cdaU, 0x0U, 0x0U,
  0x3cbd2d4700000000U, 0x3caedf9800000000U, 0x3cf19c6600000000U, 0x3cdda964U,
  0x0U, 0x0U, 0x3ca221a8U, 0x3c2fc16a00000000U,
  0x3c59b24600000000U, 0x0U, 0x0U, 0x3c832d2600000000U,
  0x0U, 0x3c05116500000000U, 0x3c2db32800000000U, 0x0U,
  0x3bd215193cb885afU, 0x3cd733faU, 0x3c9a15d4U, 0x3c01501f00000000U,
  0x3c43243000000000U, 0x0U, 0x0U, 0x3a2464d000000000U,
  0x3c58772fU, 0x3bc5aa0700000000U, 0x0U, 0x3ceb6046U,
  0x3c22e118U, 0x3c97b21b00000000U, 0x3b2739ec00000000U, 0x3bf4f3c200000000U,
  0x0U, 0x3b031be9U, 0x0U, 0x0U,
  0x0U, 0x0U, 0x3c06dd7c00000000U, 0x0U,
  0x3cf28b2c00000000U, 0x0U, 0x3b75167e00000000U, 0x3cbd88d600000000U,
  0x3c9f278c00000000U, 0x3c0b856d00000000U, 0x3c2b1fbf00000000U, 0x0U,
  0x0U, 0x3bebaab6U, 0x0U, 0x0U,
  0x3bcacd49U, 0x3c8896bc00000000U, 0x3ca39e833c4332d4U, 0x3b7d0754U,
  0x0U, 0x3be7d1eeU, 0x3b9cc5bcU, 0x3ce857403c5e3784U,
  0x0U, 0x3c3275903ab05bc8U, 0x3d1c9eaf3c3410a2U, 0x0U,
  0x0U, 0x0U, 0x3c843a8e3bbe635cU, 0x3cb5fe3d3c5e331eU,
  0x3bfe71d600000000U, 0x3c239b3bU, 0x3caa1c8200000000U, 0x3bf502f23b47a4aeU,
  0x3c634d653c222ca1U, 0x3b115eb0U, 0x3c84e15400000000U, 0x0U,
  0x0U, 0x3c46473eU, 0x0U, 0x0U,
  0x3c9a1ecc3cb568f2U, 0x0U, 0x0U, 0x0U,
  0x3baad246U, 0x0U, 0x3c0ab3c23cb10e82U, 0x0U,
  0x3c29aaf200000000U, 0x3aeb75163cdf3e7cU, 0x0U, 0x3c4ece92U,
  0x3ccf6d563c1784faU, 0x3b74870a00000000U, 0x3c39366300000000U, 0x3cccdaa200000000U,
  0x3c6685de00000000U, 0x0U, 0x0U, 0x0U,
  0x3bc4fb85U, 0x3cb35d6c3c1165f3U, 0x0U, 0x3c0016b3U,
  0x0U, 0x3ac8e3a0U, 0x0U, 0x3be92164U,
  0x3c416b0a00000000U, 0x3c5d0ea8U, 0x0U, 0x0U,
  0x3b8a45ef3c4af800U, 0x3c9c213e00000000U, 0x0U, 0x3d0054fe3c4e4b94U,
  0x3be301923c0e8f2dU, 0x0U, 0x3c1b471eU, 0x0U,
  0x3b061e54U, 0x0U, 0x3c8965c03c331bf0U, 0x0U,
  0x0U, 0x3b48afceU, 0x0U, 0x0U,
  0x0U, 0x0U, 0x3c3f6c8cU, 0x3cde4dee3c4426d8U,
  0x3b8a99ea00000000U, 0x3ca7858f00000000U, 0x0U, 0x3c243e8c3c604001U,
  0x3c8a5c5600000000U, 0x0U, 0x3c5050083c5bf321U, 0x3cb820d83c7107bbU,
  0x3b7ad2b6U, 0x0U, 0x3cb78cbaU, 0x3b55b0a93c74e6e5U,
  0x0U, 0x0U, 0x3c5f60db00000000U, 0x3c3502b600000000U,
  0x0U, 0x3c33556c3c1c2dd7U, 0x3c4232acU, 0x0U,
  0x3b5498f2U, 0x0U, 0x0U, 0x3cb03764U,
  0x0U, 0x0U, 0x3bfdb6823c565a37U, 0x0U,
  0x3ca9b63000000000U, 0x0U, 0x0U, 0x0U,
  0x3c7c2b223c66e979U, 0x3c4b4ebaU, 0x0U, 0x0U,
  0x3c8b712eU, 0x3c953260U, 0x3ca77a1000000000U, 0x0U,
  0x3bf3d43e3cb01424U, 0x3cc1782eU, 0x0U, 0x0U,
  0x3b9ea88600000000U, 0x0U, 0x0U, 0x3bee800400000000U,
  0x3be94fe03bfc04d3U, 0x3c846aca00000000U, 0x3ccd84783c38d9aeU, 0x3c3527be3c318508U,
  0x0U, 0x0U, 0x3b6ec7ab3cce4826U, 0x3c91200a3c76060aU,
  0x3bf849c43c078418U, 0x3cb3555a00000000U, 0x3c73dd2a3b451373U, 0x3c7cea47U,
  0x3c0a36cf00000000U, 0x0U, 0x3be750c500000000U, 0x3ca66943U,
  0x3c60db1eU, 0x0U, 0x3cc8f08c00000000U, 0x3cba46173c899922U,
  0x3c870fbf00000000U, 0x3c651bac00000000U, 0x0U, 0x3cb7171bU,
  0x0U, 0x3be0f862U, 0x3c8408f700000000U, 0x0U,
  0x3b3f6a78U, 0x3ca93fe500000000U, 0x3c7c6f64U, 0x3c0e33b000000000U,
  0x3a288568U, 0x3c55b13100000000U, 0x0U, 0x0U,
  0x3b9d060aU, 0x0U, 0x0U, 0x3cd360ecU,
  0x0U, 0x0U, 0x3c4bd1a000000000U, 0x0U,
  0x0U, 0x3c5ee9f53cd3f0c9U, 0x3cb359b43cd044dcU, 0x3c0a94fbU,
  0x3c51af3aU, 0x3c10736200000000U, 0x3c4d5c48U, 0x0U,
  0x3c8659e0U, 0x0U, 0x0U, 0x0U,
  0x0U, 0x3cf8f7f43cc2a93aU, 0x3cdd753c3cc3e07aU, 0x3c3b40a63c136a5dU,
  0x3ceef140U, 0x3cd094fa3ca8f930U, 0x0U, 0x3cc540e200000000U,
  0x0U, 0x3b8b6affU, 0x0U, 0x3cebb6f500000000U,
  0x3b2e5aea3c929c97U, 0x0U, 0x3cf47accU, 0x0U,
  0x3c40d9493ca2a29eU, 0x3cb7cb4eU, 0x3c528fd2U, 0x0U,
  0x3c94010200000000U, 0x3c9d4b9200000000U, 0x3ca07fa13ba4fc2cU, 0x3ce8a5d8U,
  0x0U, 0x0U, 0x3cac5886U, 0x3c33f9b300000000U,
  0x3cf067e800000000U, 0x0U, 0x0U, 0x3bce04ee00000000U,
  0x0U, 0x3c91efe000000000U, 0x3a2da66000000000U, 0x0U,
  0x3c2df9c63cd695b0U, 0x3cff4d98U, 0x3cb975a1U, 0x3cf908543ca8eb45U,
  0x3cd3e06500000000U, 0x3aebbce6U, 0x3bdb2a7200000000U, 0x3bf7e66400000000U,
  0x3c2f296bU, 0x3bd8e46a00000000U, 0x0U, 0x3ca64492U,
  0x0U, 0x3caa2ea600000000U, 0x3b43f1f800000000U, 0x3cc279b93c1b10baU,
  0x0U, 0x3b60cb9cU, 0x0U, 0x0U,
  0x0U, 0x0U, 0x3c93302e00000000U, 0x0U,
  0x3cc416a000000000U, 0x0U, 0x3c4801c300000000U, 0x3c93ca8e00000000U,
  0x3c2d35f200000000U, 0x3cc9cd1e3b796016U, 0x3ced379500000000U, 0x0U,
  0x0U, 0x3cbf8a9dU, 0x0U, 0x0U,
  0x3c727529U, 0x3c21938b00000000U, 0x3c9c447000000000U, 0x3b9c304eU,
  0x3ca076a43b83c5f1U, 0x3c395616U, 0x3bc8f8f2U, 0x3cf2018c3d07b509U,
  0x0U, 0x3afc3c2e3c35866cU, 0x3cb8d60c3c7cd106U, 0x0U,
  0x0U, 0x0U, 0x3ce72d363c34216fU, 0x3cce198c3c76abd6U,
  0x3cb3533200000000U, 0x3c8ce896U, 0x3c96410400000000U, 0x3ca6b7483c8f999fU,
  0x3d0ce2633ce5e150U, 0x3cf9afe0U, 0x3cc0da9900000000U, 0x0U,
  0x0U, 0x3c83af25U, 0x3c57fe8100000000U, 0x0U,
  0x3d0305c33cf21c4cU, 0x0U, 0x3c8e271700000000U, 0x3a1d8330U,
  0x3cb4a746U, 0x0U, 0x3d138dfe3cf15373U, 0x0U,
  0x3ca41a3e00000000U, 0x3c9a52983d2066e5U, 0x0U, 0x3b003513U,
  0x3d09af793cd1528aU, 0x3ccd2fb600000000U, 0x3c013c2300000000U, 0x3c73378b00000000U,
  0x3cfcee2600000000U, 0x0U, 0x0U, 0x0U,
  0x3c0b80c0U, 0x3cd3ae083c8ede90U, 0x0U, 0x3cc16606U,
  0x3be4665900000000U, 0x3c8c56d9U, 0x0U, 0x3cb04455U,
  0x3c9e77c200000000U, 0x3c98e1b6U, 0x0U, 0x3be01bc800000000U,
  0x3c9bc00c3cbd4c51U, 0x3ce3fcc900000000U, 0x0U, 0x3d166cab3c26abd0U,
  0x3c9c2d443cea934aU, 0x0U, 0x3bd9050dU, 0x0U,
  0x3c2db1f0U, 0x0U, 0x3b31c0b03c6bb19aU, 0x0U,
  0x0U, 0x3cb2ded4U, 0x0U, 0x0U,
  0x0U, 0x0U, 0x3cb7bf76U, 0x3d10681d3c1a69a7U,
  0x3cb89ed100000000U, 0x3cb5d07600000000U, 0x0U, 0x3b4881293cd36052U,
  0x3bbe437300000000U, 0x3bfb8e5200000000U, 0x3c32869d3d06e98eU, 0x3cb5f6143cfac776U,
  0x3bec7ecaU, 0x0U, 0x3cfb97e4U, 0x3b58a1023c329eb7U,
  0x0U, 0x0U, 0x3ac61f1a00000000U, 0x3c757c3f00000000U,
  0x0U, 0x3c35821c3c4b83aeU, 0x3c412908U, 0x0U,
  0x3c6d1b18U, 0x0U, 0x3bbbb667U, 0x3c83e946U,
  0x3c74b3e0U, 0x3befddc0U, 0x3cbff8803beea0e2U, 0x0U,
  0x3d13d5c700000000U, 0x0U, 0x0U, 0x0U,
  0x3c8aee773cabd952U, 0x3ce68c88U, 0x3c1538dcU, 0x0U,
  0x3cc6d08bU, 0x3ca57a43U, 0x3cf99a4a00000000U, 0x0U,
  0x3afa7ef43c56162aU, 0x3ca5a968U, 0x0U, 0x3b95d1cc00000000U,
  0x3c694ea000000000U, 0x0U, 0x0U, 0x3cd9e7b500000000U,
  0x0U, 0x3cf96add00000000U, 0x3d1ffa673c0c63e6U, 0x3b1325ba3cafe5eaU,
  0x0U, 0x0U, 0x3cee8a68U, 0x3c7ace563ceb0ffdU,
  0x3bf2b2683c8a6802U, 0x3ce38e6200000000U, 0x3d12be523c2189dfU, 0x3c509f32U,
  0x3c59b71a00000000U, 0x0U, 0x3ca517e400000000U, 0x3c4e82bbU,
  0x3cb9d9a5U, 0x0U, 0x3cad27a800000000U, 0x3c8e0c1a3ca16da2U,
  0x3ca20efc00000000U, 0x3ca3d11600000000U, 0x0U, 0x3caf9d79U,
  0x3b60079aU, 0x0U, 0x3c9417c700000000U, 0x3c24740b00000000U,
  0x3c2333baU, 0x3c45e1de3b8d3443U, 0x3c9e71e0U, 0x3ccdc37c00000000U,
  0x3c2d755aU, 0x3b25f9f300000000U, 0x0U, 0x0U,
  0x3ca183c6U, 0x0U, 0x3ba14ca500000000U, 0x3c8d5abbU,
  0x0U, 0x0U, 0x3d11fac000000000U, 0x3cc5ce56U,
  0x0U, 0x3c9073d4U, 0x3cad39733c9742c0U, 0x3cb23552U,
  0x3c7d47f5U, 0x3cabcbbe00000000U, 0x3cd3ca6e00000000U, 0x3c3906a400000000U,
  0x3af31414U, 0x0U, 0x0U, 0x3d095963U,
  0x0U, 0x3cedccc83c47246aU, 0x3d115eb13cd4c104U, 0x3bfccb1f3caef239U,
  0x3bbb07faU, 0x3c898e3e3d09aec2U, 0x0U, 0x3cc166c300000000U,
  0x0U, 0x3c451a37U, 0x0U, 0x3bf25faf00000000U,
  0x3cc34f8e3c9ea0f9U, 0x0U, 0x3d34983dU, 0x0U,
  0x3cb763ed3c98cac9U, 0x3ccf0d70U, 0x0U, 0x0U,
  0x3d00c93900000000U, 0x3c17675900000000U, 0x3d06eeba00000000U, 0x3ca3aecfU,
  0x0U, 0x0U, 0x3cf5a76eU, 0x3cb84c6800000000U,
  0x0U, 0x0U, 0x0U, 0x3c9d0ee400000000U,
  0x0U, 0x3cbf7f6400000000U, 0x3c781ac600000000U, 0x0U,
  0x3cc9fd613cc4051aU, 0x3cec6302U, 0x3cbb8878U, 0x3d1db9e000000000U,
  0x3cb375a800000000U, 0x3d0abbe7U, 0x3c58981300000000U, 0x3cb122ab00000000U,
  0x3b7a01883c7d6e4dU, 0x3d0fbab300000000U, 0x0U, 0x3cfcd946U,
  0x3c7a1dd4U, 0x3c3dd48f00000000U, 0x3bc09b98U, 0x3c8c904900000000U,
  0x0U, 0x3ca7beceU, 0x0U, 0x0U,
  0x3a99825000000000U, 0x0U, 0x3c8813c600000000U, 0x0U,
  0x3c73dcd700000000U, 0x0U, 0x3c8296ad00000000U, 0x3cb1c25d00000000U,
  0x3cde8fb700000000U, 0x3d03598f3ce28106U, 0x3cc80b7e00000000U, 0x0U,
  0x0U, 0x3ccdfd0aU, 0x0U, 0x0U,
  0x0U, 0x3c8702ef00000000U, 0x3cdd5c743c3b7a31U, 0x0U,
  0x3bf47b483cd8b499U, 0x3ba56d25U, 0x3ca2b9b3U, 0x3cc1b2a03c495cdcU,
  0x0U, 0x3c834d323c6c890aU, 0x3c222c4c3c2d01d0U, 0x0U,
  0x0U, 0x0U, 0x3c2c7dbc3c0ce17fU, 0x3ce1a67600000000U,
  0x3c2f6fc700000000U, 0x3c8ad8adU, 0x3c8624b200000000U, 0x3cb5bdfa3bf646a3U,
  0x3c31918a3c7fecceU, 0x3c610c55U, 0x3c2fb3f600000000U, 0x0U,
  0x0U, 0x3c74a148U, 0x3ce6da8c00000000U, 0x0U,
  0x3c0446a43d094b1cU, 0x0U, 0x3c7c089200000000U, 0x3b98bb96U,
  0x3cb6ab88U, 0x0U, 0x3c9f0da63d002978U, 0x0U,
  0x3c1f06a700000000U, 0x3c2c2d6e3cf82470U, 0x0U, 0x3cb2a3d2U,
  0x3cc79a2e3ca6c477U, 0x3c7e92b400000000U, 0x3ce66b7a00000000U, 0x3ccdfe3c00000000U,
  0x0U, 0x0U, 0x0U, 0x0U,
  0x3cc585c3U, 0x3cdb88d63caf4e20U, 0x3cb6d4c0U, 0x3bee9620U,
  0x0U, 0x3c8b481bU, 0x0U, 0x3cc78769U,
  0x3c628b2000000000U, 0x3b91326eU, 0x0U, 0x3c94c5c300000000U,
  0x3c3ea72c3caef99bU, 0x3ad4bf0800000000U, 0x0U, 0x3cf08a143c8fefb4U,
  0x3cc97a26U, 0x0U, 0x3cb4b325U, 0x0U,
  0x3cd2bb86U, 0x0U, 0x3c961a153cbf3d66U, 0x0U,
  0x0U, 0x3cb87eb4U, 0x0U, 0x3b22ba81U,
  0x0U, 0x0U, 0x3c767d11U, 0x3cc3ca4e3ceef0e0U,
  0x3c58f65800000000U, 0x3c77231600000000U, 0x0U, 0x3ca21de53c1435f8U,
  0x3c3eca6300000000U, 0x3b80b05e00000000U, 0x3c82a3ee399078e0U, 0x3cb935cc3caa1efeU,
  0x0U, 0x0U, 0x3cdc9216U, 0x3cceb1e03caa00c6U,
  0x0U, 0x0U, 0x3c80673600000000U, 0x0U,
  0x0U, 0x3cb07b273c827330U, 0x3cab35c7U, 0x0U,
  0x3cacd84bU, 0x0U, 0x3c335282U, 0x3ce83405U,
  0x3c7a6c4dU, 0x3cc0f78dU, 0x3d0d5f0a3cb09b1eU, 0x0U,
  0x3b4a18fe00000000U, 0x0U, 0x0U, 0x0U,
  0x3c3613a23c48dd26U, 0x3bb42a68U, 0x3c0e77a4U, 0x0U,
  0x3d0251c7U, 0x3d02b173U, 0x3cdec86400000000U, 0x0U,
  0x3cd219213c117052U, 0x3cf297bcU, 0x0U, 0x3c9147a600000000U,
  0x3c95152900000000U, 0x0U, 0x0U, 0x3bac932300000000U,
  0x3bd94c9c3bfce164U, 0x3cc68f2600000000U, 0x3c9597a63cd979c4U, 0x3cd3dd5d3c848aceU,
  0x0U, 0x0U, 0x3cbbbc253c7b133eU, 0x3c90558e3ce94626U,
  0x3cba85ddU, 0x3c93261600000000U, 0x3ce1d71c3cc5b016U, 0x3c7e421cU,
  0x3c8f63dc00000000U, 0x0U, 0x0U, 0x3c9e7b46U,
  0x3c8f4396U, 0x0U, 0x3c4f60e600000000U, 0x3b0d82bc3be7ad3aU,
  0x3cd93e3c00000000U, 0x3caf581a00000000U, 0x0U, 0x3ca7d651U,
  0x3d122dadU, 0x3c8b8d92U, 0x3ca17fe000000000U, 0x3bff7bfa00000000U,
  0x3d08cd38U, 0x3c6c9a5d3cf56e30U, 0x3cbf2f51U, 0x3c5e366d00000000U,
  0x3d1ee137U, 0x3c72c18800000000U, 0x0U, 0x0U,
  0x0U, 0x0U, 0x0U, 0x3bd1e83cU,
  0x0U, 0x0U, 0x3b16532a00000000U, 0x0U,
  0x0U, 0x3c19b40d3c01ef55U, 0x3d4c675eU, 0x0U,
  0x3d017226U, 0x0U, 0x3ce0c50bU, 0x0U,
  0x3d0775faU, 0x0U, 0x0U, 0x0U,
  0x0U, 0x3d55521d3c3c9810U, 0x3c188a5e3b75bbdbU, 0x3cc59df739a5e330U,
  0x3c6db111U, 0x3d68d9be3d49a5cbU, 0x0U, 0x3d45d11e00000000U,
  0x0U, 0x3cd548a9U, 0x0U, 0x3c3f8f8000000000U,
  0x3b9b0bb5U, 0x0U, 0x3d5f753bU, 0x0U,
  0x0U, 0x3b5971b2U, 0x3d146155U, 0x0U,
  0x0U, 0x3c143a6300000000U, 0x3b9d5e453cb7f2c0U, 0x3d72d6c6U,
  0x0U, 0x0U, 0x3bc8638dU, 0x0U,
  0x3bc442e200000000U, 0x0U, 0x0U, 0x0U,
  0x0U, 0x3af1941400000000U, 0x0U, 0x0U,
  0x3bda1490U, 0x3d886625U, 0x3c171becU, 0x3d5cfc1000000000U,
  0x3d40e06300000000U, 0x0U, 0x3cc846d700000000U, 0x0U,
  0x3d217c0aU, 0x0U, 0x0U, 0x3ce777a0U,
  0x0U, 0x3ca78e0200000000U, 0x3c77f7163c462b03U, 0x3ccc014d397f9fa0U,
  0x0U, 0x0U, 0x0U, 0x0U,
  0x0U, 0x0U, 0x3bce533300000000U, 0x0U,
  0x3c00908700000000U, 0x0U, 0x3c9d8c6c00000000U, 0x0U,
  0x0U, 0x3be0b36d00000000U, 0x3c1739e000000000U, 0x0U,
  0x0U, 0x3b81b316U, 0x0U, 0x0U,
  0x3cf28862U, 0x3ac5501000000000U, 0x3d526f9c3c52c356U, 0x3c57a202U,
  0x3b98cf8800000000U, 0x0U, 0x0U, 0x3c5233293c00b9c6U,
  0x0U, 0x0U, 0x3c0da4d93ac6d464U, 0x0U,
  0x0U, 0x0U, 0x3c6557793cadfc89U, 0x3d46c5873c299f90U,
  0x3d23893b00000000U, 0x3b80e755U, 0x3d25e04500000000U, 0x3b742b063bab2ca8U,
  0x3cae8b333d5890b4U, 0x3ca73818U, 0x3b984ba100000000U, 0x0U,
  0x0U, 0x3ce7b372U, 0x0U, 0x0U,
  0x3d8192573d7659f8U, 0x0U, 0x3d15fe4900000000U, 0x3c87b62cU,
  0x3a3f6c04U, 0x0U, 0x3c5598653c3f0e71U, 0x0U,
  0x3b63de0600000000U, 0x3d3ea5883d873be5U, 0x0U, 0x0U,
  0x3c18ca6a3c05bd78U, 0x3c528d6e00000000U, 0x0U, 0x3bad6f2c00000000U,
  0x3c6ad3df00000000U, 0x0U, 0x0U, 0x0U,
  0x0U, 0x3b9abf9e3bd8e37cU, 0x0U, 0x3b333ef4U,
  0x3c6127e200000000U, 0x3b8e598fU, 0x0U, 0x3a947880U,
  0x3d411ca100000000U, 0x3c241f25U, 0x0U, 0x0U,
  0x3aab28b03a0a81e8U, 0x3c245b2600000000U, 0x0U, 0x3cfcab9600000000U,
  0x3b8efd8a3b2ea4f8U, 0x0U, 0x0U, 0x0U,
  0x3b8d834cU, 0x0U, 0x0U, 0x0U,
  0x0U, 0x3b5551afU, 0x0U, 0x0U,
  0x0U, 0x0U, 0x3c23bcadU, 0x3ca67d5c00000000U,
  0x3bd0bd5c00000000U, 0x3d47eb6c00000000U, 0x0U, 0x3d4026dcU,
  0x0U, 0x3c99855200000000U, 0x3d0c3ccd3c0404b0U, 0x3b868f503c4d5a78U,
  0x0U, 0x0U, 0x3c10080eU, 0x3d189008U,
  0x0U, 0x0U, 0x0U, 0x0U,
  0x0U, 0x3b6d3207U, 0x3ad1e82eU, 0x0U,
  0x0U, 0x0U, 0x3c9c653fU, 0x3d29334aU,
  0x0U, 0x0U, 0x3b2e3baa00000000U, 0x0U,
  0x3cb9978200000000U, 0x0U, 0x0U, 0x0U,
  0x3d236d283d106c3eU, 0x3bcd8d97U, 0x3b8b4986U, 0x0U,
  0x3d080b9dU, 0x3bb24c1bU, 0x3c005e7000000000U, 0x0U,
  0x3cf67dbcU, 0x3bdbf662U, 0x0U, 0x0U,
  0x3cd53f4200000000U, 0x0U, 0x0U, 0x3c0d88e200000000U,
  0x3cb9e8173ca61cdfU, 0x3d8539c300000000U, 0x3d8ca59e00000000U, 0x3c442d7cU,
  0x0U, 0x0U, 0x3c528e8eU, 0x3d1482603c032edaU,
  0x3cd4791700000000U, 0x3d4b7c3d00000000U, 0x3d812a5c00000000U, 0x0U,
  0x0U, 0x0U, 0x3b39e0ac00000000U, 0x3d0b92a7U,
  0x3d596008U, 0x0U, 0x3b435bdc00000000U, 0x3c05d3743bd831baU,
  0x3be4a82200000000U, 0x0U, 0x0U, 0x3bb6f2b6U,
  0x0U, 0x0U, 0x0U, 0x3d0e218800000000U,
  0x0U, 0x3d24baca00000000U, 0x3d28dd43U, 0x3be2328100000000U,
  0x0U, 0x0U, 0x0U, 0x0U,
  0x3b889a79U, 0x0U, 0x0U, 0x0U,
  0x0U, 0x0U, 0x0U, 0x3c228369U,
  0x0U, 0x0U, 0x3d0f4bafU, 0x3c110111U,
  0x3d02512cU, 0x0U, 0x3a052cc03c6fa7a4U, 0x0U,
  0x3cb6e896U, 0x0U, 0x0U, 0x0U,
  0x0U, 0x3d40998d00000000U, 0x3bc088beU, 0x3ca80fae00000000U,
  0x0U, 0x3d1cbfbe3d5efcffU, 0x0U, 0x3d2772c400000000U,
  0x0U, 0x3cb838fdU, 0x0U, 0x0U,
  0x3c020fad00000000U, 0x0U, 0x3d5b657cU, 0x0U,
  0x0U, 0x3b95a548U, 0x3cbfc49bU, 0x0U,
  0x3b41daa600000000U, 0x3b1a4b4400000000U, 0x3c50e03300000000U, 0x3d43a55eU,
  0x0U, 0x0U, 0x3be504f9U, 0x3b0f42ca00000000U,
  0x0U, 0x0U, 0x0U, 0x3c1eabe800000000U,
  0x0U, 0x0U, 0x0U, 0x0U,
  0x3b5dc6a0U, 0x3d62d151U, 0x3c0aa662U, 0x3d2be89000000000U,
  0x3d14046000000000U, 0x0U, 0x3c8be66600000000U, 0x0U,
  0x38bb9c803cd2cf45U, 0x3945a84000000000U, 0x0U, 0x3cba154dU,
  0x3ac77e48U, 0x3c9a2ab600000000U, 0x3c55059a3a7f8bf0U, 0x3c97f89600000000U,
  0x0U, 0x0U, 0x0U, 0x0U,
  0x0U, 0x0U, 0x0U, 0x0U,
  0x3b83d22400000000U, 0x0U, 0x3cd2740a00000000U, 0x3a6940a800000000U,
  0x3bad6b1100000000U, 0x0U, 0x3b69ecfe00000000U, 0x0U,
  0x0U, 0x0U, 0x0U, 0x0U,
  0x38910fc8U, 0x3b92330600000000U, 0x3d332f8a3cccdfe1U, 0x0U,
  0x0U, 0x0U, 0x0U, 0x3c2b36df00000000U,
  0x0U, 0x3b8a613b00000000U, 0x3b10022000000000U, 0x0U,
  0x0U, 0x0U, 0x3af906c03cb25095U, 0x3d48caf639ef81c8U,
  0x3cef838600000000U, 0x0U, 0x3d12e03800000000U, 0x0U,
  0x3d1d2b51U, 0x0U, 0x0U, 0x0U,
  0x0U, 0x3cab8a49U, 0x0U, 0x0U,
  0x3d17072c3d49b87fU, 0x0U, 0x3ceee81a00000000U, 0x3c0855e5U,
  0x0U, 0x0U, 0x0U, 0x0U,
  0x0U, 0x3cd569383d303159U, 0x0U, 0x3b721b4cU,
  0x3b96aeb200000000U, 0x0U, 0x3b2cc77200000000U, 0x3c1304f000000000U,
  0x0U, 0x0U, 0x0U, 0x0U,
  0x0U, 0x3a7fffc000000000U, 0x0U, 0x0U,
  0x0U, 0x0U, 0x0U, 0x0U,
  0x3cecdb2b00000000U, 0x0U, 0x0U, 0x0U,
  0x0U, 0x0U, 0x0U, 0x3c3f3d163b8a80acU,
  0x0U, 0x3b05be4e00000000U, 0x0U, 0x0U,
  0x0U, 0x0U, 0x3b8f755400000000U, 0x0U,
  0x0U, 0x0U, 0x0U, 0x0U,
  0x0U, 0x0U, 0x0U, 0x3b56f1eeU,
  0x0U, 0x3d3aa71500000000U, 0x0U, 0x3b686fba3d136e01U,
  0x0U, 0x3c5dc9b100000000U, 0x3d01eff800000000U, 0x0U,
  0x0U, 0x0U, 0x0U, 0x3d1a212eU,
  0x0U, 0x0U, 0x3ba97d3600000000U, 0x0U,
  0x0U, 0x3b24aab000000000U, 0x3bb7b948U, 0x0U,
  0x0U, 0x0U, 0x3c540026U, 0x3d4957d6U,
  0x0U, 0x0U, 0x39a1964000000000U, 0x0U,
  0x0U, 0x0U, 0x0U, 0x0U,
  0x3d1dcdf03cd40ab1U, 0x0U, 0x0U, 0x0U,
  0x3c9ae4b6U, 0x0U, 0x0U, 0x0U,
  0x3cd29284U, 0x3ae4f730U, 0x0U, 0x0U,
  0x3d0a9e7f00000000U, 0x0U, 0x0U, 0x0U,
  0x3cbf496d3cd50fa6U, 0x3d3403b800000000U, 0x3d1f86743bc271ebU, 0x3ae483b400000000U,
  0x0U, 0x0U, 0x3a519448U, 0x3d21a7593b215fe6U,
  0x383c6c0000000000U, 0x3d175f3f00000000U, 0x3d0a0d023a6ae61aU, 0x0U,
  0x0U, 0x0U, 0x0U, 0x3d19cae1U,
  0x3d0e44dcU, 0x0U, 0x3bcf24c100000000U, 0x3b8d4f7000000000U,
  0x3b64093000000000U, 0x3a4d04d000000000U, 0x0U, 0x0U,
  0x0U, 0x0U, 0x0U, 0x3d0c667500000000U,
  0x0U, 0x3d008d6c00000000U, 0x3d1d0d88U, 0x0U,
  0x0U, 0x3aa13afb00000000U, 0x0U, 0x0U,
  0x0U, 0x0U, 0x0U, 0x0U,
  0x0U, 0x0U, 0x0U, 0x0U,
  0x0U, 0x0U, 0x3ce5b08dU, 0x0U,
  0x3cc9c58aU, 0x0U, 0x3ace8e7c3c0615c4U, 0x0U,
  0x3c860226U, 0x0U, 0x0U, 0x0U,
  0x0U, 0x3d39efd800000000U, 0x0U, 0x3cadd7b500000000U,
  0x0U, 0x3cfbf4de3d35586aU, 0x0U, 0x3d06729100000000U,
  0x0U, 0x3cd34b03U, 0x0U, 0x0U,
  0x0U, 0x0U, 0x3d4b84eaU, 0x0U,
  0x0U, 0x0U, 0x3ca659acU, 0x0U,
  0x0U, 0x0U, 0x0U, 0x3d189270U,
  0x0U, 0x0U, 0x0U, 0x39f50bf000000000U,
  0x0U, 0x0U, 0x0U, 0x0U,
  0x0U, 0x3b319eb800000000U, 0x0U, 0x0U,
  0x3a48b68000000000U, 0x3d57ee22U, 0x0U, 0x3d312a4100000000U,
  0x3d020a6c00000000U, 0x0U, 0x3cd2553200000000U, 0x0U,
  0x3ce5cdb5U, 0x3b29085d00000000U, 0x0U, 0x3cc0c900U,
  0x0U, 0x3c05ab0000000000U, 0x3aa145683c5f8ebaU, 0x3c893bb800000000U,
  0x0U, 0x0U, 0x0U, 0x0U,
  0x0U, 0x0U, 0x0U, 0x0U,
  0x0U, 0x0U, 0x3cd0eab800000000U, 0x0U,
  0x0U, 0x0U, 0x0U, 0x0U,
  0x0U, 0x0U, 0x0U, 0x0U,
  0x0U, 0x0U, 0x3d1e7c6d3c7d57caU, 0x378d3600U,
  0x0U, 0x0U, 0x0U, 0x0U,
  0x0U, 0x0U, 0x0U, 0x0U,
  0x0U, 0x0U, 0x3c829c81U, 0x3d0c113a00000000U,
  0x3ce2893d00000000U, 0x0U, 0x3ced648800000000U, 0x0U,
  0x3d18feaaU, 0x0U, 0x0U, 0x0U,
  0x0U, 0x3c93e170U, 0x0U, 0x0U,
  0x3ce14a0f3d3624b5U, 0x0U, 0x3ce09c0000000000U, 0x3c999c5aU,
  0x0U, 0x0U, 0x0U, 0x0U,
  0x0U, 0x3cc6b6543d339458U, 0x0U, 0x0U,
  0x0U, 0x0U, 0x0U, 0x0U,
  0x0U, 0x0U, 0x0U, 0x0U,
  0x0U, 0x0U, 0x0U, 0x0U,
  0x0U, 0x0U, 0x0U, 0x0U,
  0x3cd26aa900000000U, 0x0U, 0x0U, 0x0U,
  0x0U, 0x0U, 0x0U, 0x3befaed700000000U,
  0x0U, 0x0U, 0x0U, 0x0U,
  0x0U, 0x0U, 0x0U, 0x0U,
  0x0U, 0x0U, 0x0U, 0x0U,
  0x0U, 0x0U, 0x0U, 0x0U,
  0x0U, 0x3cf913da00000000U, 0x0U, 0x3d0218c6U,
  0x0U, 0x3c46525900000000U, 0x3cf98d4e00000000U, 0x0U,
  0x0U, 0x0U, 0x0U, 0x3d05dfe2U,
  0x0U, 0x0U, 0x0U, 0x0U,
  0x0U, 0x0U, 0x0U, 0x0U,
  0x0U, 0x0U, 0x3c59d6daU, 0x3d0d7d54U,
  0x0U, 0x0U, 0x0U, 0x0U,
  0x0U, 0x0U, 0x0U, 0x0U,
  0x3cf61da43cb94481U, 0x0U, 0x0U, 0x0U,
  0x3c9b61efU, 0x0U, 0x0U, 0x0U,
  0x3c8d3a13U, 0x0U, 0x0U, 0x0U,
  0x3cc94a5200000000U, 0x0U, 0x0U, 0x0U,
  0x3c78db943cbd47acU, 0x3d0dfc7000000000U, 0x3d079f073b416c1cU, 0x0U,
  0x0U, 0x0U, 0x0U, 0x3cc846ba00000000U,
  0x0U, 0x3cf08e3400000000U, 0x3d21688a00000000U, 0x0U,
  0x3ab036ac00000000U, 0x0U, 0x0U, 0x3cf9c982U,
  0x3ceaa6d1U, 0x0U, 0x3a12f44000000000U, 0x0U,
  0x0U, 0x0U, 0x0U, 0x0U,
  0x0U, 0x0U, 0x0U, 0x3d03644e00000000U,
  0x0U, 0x3ce0cf0400000000U, 0x3d1eda77U, 0x0U,
  0x3bc69f70U, 0x0U, 0x0U, 0x0U,
  0x0U, 0x0U, 0x0U, 0x0U,
  0x0U, 0x0U, 0x0U, 0x0U,
  0x0U, 0x0U, 0x3cc3a1acU, 0x0U,
  0x0U, 0x0U, 0x0U, 0x0U,
  0x0U, 0x0U, 0x0U, 0x0U,
  0x0U, 0x3d0288b200000000U, 0x3c6c1a063d5ea5acU, 0x0U,
  0x3c9a277dU, 0x3d0795a43d24383dU, 0x0U, 0x3cc4833900000000U,
  0x0U, 0x0U, 0x0U, 0x0U,
  0x0U, 0x0U, 0x3d10d223U, 0x0U,
  0x0U, 0x0U, 0x0U, 0x0U,
  0x3c896a7200000000U, 0x0U, 0x3c307fce3b8ddc32U, 0x3d498a0cU,
  0x0U, 0x0U, 0x0U, 0x0U,
  0x0U, 0x3b17ffc8U, 0x0U, 0x0U,
  0x0U, 0x0U, 0x0U, 0x0U,
  0x3b23e5c000000000U, 0x3d1dd4a1U, 0x0U, 0x3d04d9dc00000000U,
  0x3c51593c00000000U, 0x0U, 0x3bb8977800000000U, 0x0U,
  0x3cf7436fU, 0x0U, 0x0U, 0x3d4c82d0U,
  0x0U, 0x3c38fc0a00000000U, 0x3b4b427800000000U, 0x3ccc7b8100000000U,
  0x0U, 0x0U, 0x0U, 0x0U,
  0x0U, 0x0U, 0x0U, 0x0U,
  0x3d108dd600000000U, 0x0U, 0x0U, 0x3c3eaa9800000000U,
  0x0U, 0x0U, 0x0U, 0x0U,
  0x0U, 0x0U, 0x0U, 0x0U,
  0x3c8f1d47U, 0x0U, 0x3d3ca9e000000000U, 0x3d4a2108U,
  0x0U, 0x0U, 0x0U, 0x3c34c7e600000000U,
  0x0U, 0x0U, 0x3d8403a700000000U, 0x0U,
  0x0U, 0x0U, 0x0U, 0x3d25d2e600000000U,
  0x3cc62cc100000000U, 0x0U, 0x3cc0203b00000000U, 0x0U,
  0x3c48f0ceU, 0x0U, 0x0U, 0x0U,
  0x0U, 0x3d0572baU, 0x0U, 0x0U,
  0x3d0e62423d2a7a4aU, 0x3c2624e800000000U, 0x0U, 0x0U,
  0x0U, 0x0U, 0x3c70e3e9U, 0x0U,
  0x0U, 0x3d896b3bU, 0x0U, 0x0U,
  0x3c80713c00000000U, 0x0U, 0x0U, 0x3bcd10b700000000U,
  0x0U, 0x0U, 0x0U, 0x0U,
  0x0U, 0x3c6a98e000000000U, 0x0U, 0x3c1ab498U,
  0x3c49ff6c00000000U, 0x0U, 0x0U, 0x0U,
  0x3c58e77800000000U, 0x0U, 0x0U, 0x0U,
  0x0U, 0x0U, 0x0U, 0x3d4be0ab00000000U,
  0x0U, 0x0U, 0x0U, 0x0U,
  0x0U, 0x0U, 0x0U, 0x0U,
  0x0U, 0x0U, 0x0U, 0x0U,
  0x0U, 0x0U, 0x0U, 0x3c805d2100000000U,
  0x0U, 0x3c8d285a00000000U, 0x0U, 0x3cb73be9U,
  0x0U, 0x3911354000000000U, 0x3d1abc973ba76b3aU, 0x3c6b9a0800000000U,
  0x0U, 0x0U, 0x3c9df8fcU, 0x3cc26abbU,
  0x0U, 0x0U, 0x0U, 0x0U,
  0x0U, 0x0U, 0x0U, 0x0U,
  0x0U, 0x0U, 0x3c2304aeU, 0x3d04adbcU,
  0x0U, 0x0U, 0x0U, 0x0U,
  0x0U, 0x0U, 0x3bd1ba96U, 0x0U,
  0x3c92496e3cc674eeU, 0x0U, 0x0U, 0x0U,
  0x3d545bb2U, 0x3c385418U, 0x3c610f5f00000000U, 0x0U,
  0x3cbb7750U, 0x3c3b21e2U, 0x0U, 0x0U,
  0x0U, 0x0U, 0x0U, 0x3b874f7900000000U,
  0x0U, 0x3cf4c4bd00000000U, 0x3d49cb5b00000000U, 0x0U,
  0x0U, 0x0U, 0x3c6ab632U, 0x3c8419cf00000000U,
  0x3d07f87600000000U, 0x3d130bfc00000000U, 0x3d540f3700000000U, 0x0U,
  0x0U, 0x0U, 0x0U, 0x3c595a0fU,
  0x3c822607U, 0x0U, 0x3c164d0800000000U, 0x0U,
  0x0U, 0x0U, 0x0U, 0x3c84b4f6U,
  0x0U, 0x0U, 0x0U, 0x0U,
  0x0U, 0x3d09009800000000U, 0x3bfdd9cbU, 0x0U,
  0x0U, 0x0U, 0x0U, 0x0U,
  0x0U, 0x0U, 0x0U, 0x0U,
  0x0U, 0x0U, 0x0U, 0x0U,
  0x0U, 0x0U, 0x3c85d47dU, 0x0U,
  0x0U, 0x0U, 0x0U, 0x0U,
  0x0U, 0x0U, 0x0U, 0x0U,
  0x0U, 0x3cd3e42a00000000U, 0x3c9bb2963d5d33beU, 0x0U,
  0x3c9e73c1U, 0x3cd293123d0d84e0U, 0x0U, 0x3c9d14de00000000U,
  0x0U, 0x0U, 0x0U, 0x0U,
  0x0U, 0x0U, 0x3cf4d588U, 0x0U,
  0x3a41c2a0U, 0x0U, 0x0U, 0x0U,
  0x3cad70e800000000U, 0x0U, 0x3c97134639b27ea8U, 0x3d374972U,
  0x0U, 0x0U, 0x0U, 0x0U,
  0x0U, 0x0U, 0x0U, 0x0U,
  0x0U, 0x3b1db19c00000000U, 0x0U, 0x0U,
  0x3be2b0aa00000000U, 0x3d01e7c4U, 0x0U, 0x3cdabfda00000000U,
  0x3bdafb7900000000U, 0x0U, 0x3ad0a18100000000U, 0x0U,
  0x3cd9c148U, 0x0U, 0x0U, 0x3d5045e2U,
  0x0U, 0x3c24831900000000U, 0x0U, 0x3c9cc67c00000000U,
  0x0U, 0x0U, 0x0U, 0x0U,
  0x0U, 0x0U, 0x0U, 0x0U,
  0x3d17138a00000000U, 0x0U, 0x0U, 0x3c74224f00000000U,
  0x0U, 0x0U, 0x0U, 0x0U,
  0x0U, 0x0U, 0x0U, 0x0U,
  0x3c2b003fU, 0x0U, 0x3d1d5b9000000000U, 0x3d370dc2U,
  0x0U, 0x0U, 0x0U, 0x3c45377800000000U,
  0x0U, 0x0U, 0x3d88ef4500000000U, 0x0U,
  0x0U, 0x0U, 0x0U, 0x3d07339000000000U,
  0x3c8843b800000000U, 0x0U, 0x3c9ae12600000000U, 0x0U,
  0x3bcbc11eU, 0x0U, 0x0U, 0x0U,
  0x0U, 0x3ce6a158U, 0x0U, 0x0U,
  0x3cd925eb3d0aefd5U, 0x3bd4746600000000U, 0x0U, 0x0U,
  0x0U, 0x0U, 0x3ca9b4f6U, 0x0U,
  0x3ada279800000000U, 0x3d632330U, 0x0U, 0x0U,
  0x3c8eb36600000000U, 0x0U, 0x0U, 0x3c663dea00000000U,
  0x0U, 0x0U, 0x0U, 0x0U,
  0x0U, 0x3c9e0d723ba92acaU, 0x0U, 0x3c4dbac7U,
  0x3bb995d700000000U, 0x0U, 0x0U, 0x0U,
  0x3c2eade200000000U, 0x0U, 0x0U, 0x0U,
  0x3b02368cU, 0x0U, 0x0U, 0x3d528aa200000000U,
  0x3a78608000000000U, 0x0U, 0x0U, 0x0U,
  0x0U, 0x0U, 0x0U, 0x0U,
  0x0U, 0x0U, 0x0U, 0x0U,
  0x0U, 0x0U, 0x0U, 0x3c9a9a583b2475a4U,
  0x0U, 0x3c3131a400000000U, 0x0U, 0x3c80c4abU,
  0x3b0f75c100000000U, 0x0U, 0x3d031e593bb38f05U, 0x3ca8faa000000000U,
  0x0U, 0x0U, 0x3caf3182U, 0x3c99d0e7U,
  0x0U, 0x0U, 0x0U, 0x0U,
  0x0U, 0x0U, 0x0U, 0x0U,
  0x0U, 0x0U, 0x3c0c328eU, 0x3cd53265U,
  0x0U, 0x0U, 0x0U, 0x0U,
  0x0U, 0x0U, 0x3b2ba0b8U, 0x0U,
  0x3c5981b63c9997dcU, 0x0U, 0x0U, 0x0U,
  0x3d41adb0U, 0x3c91e682U, 0x3c88be5a00000000U, 0x0U,
  0x3cb0c896U, 0x3ca27620U, 0x0U, 0x0U,
  0x0U, 0x0U, 0x0U, 0x3b99c55000000000U,
  0x0U, 0x3cb647bc00000000U, 0x3d23a0b600000000U, 0x0U,
  0x0U, 0x0U, 0x3c95f032U, 0x3c4e6f6d00000000U,
  0x3cf8cf4b00000000U, 0x3cef13ca00000000U, 0x3d32b79800000000U, 0x0U,
  0x0U, 0x0U, 0x0U, 0x3c33f864U,
  0x3c0e8da8U, 0x0U, 0x3c16d44600000000U, 0x0U,
  0x0U, 0x0U, 0x0U, 0x3c9b4880U,
  0x0U, 0x0U, 0x0U, 0x0U,
  0x0U, 0x3cf7c50400000000U, 0x3bae61daU, 0x0U,
  0x3b31a002U, 0x0U, 0x0U, 0x0U,
  0x0U, 0x0U, 0x0U, 0x0U,
  0x0U, 0x0U, 0x0U, 0x3a8c5988U,
  0x0U, 0x0U, 0x3cb8bb7fU, 0x3acb6d3cU,
  0x3cc678b2U, 0x0U, 0x3aecea84U, 0x0U,
  0x3c38c20dU, 0x0U, 0x0U, 0x3b840e64U,
  0x0U, 0x3cef60fa00000000U, 0x3b75ffc63c9ae6d4U, 0x0U,
  0x3c50e40dU, 0x3cdc78903d34a098U, 0x0U, 0x3ceecc2100000000U,
  0x0U, 0x0U, 0x0U, 0x0U,
  0x0U, 0x0U, 0x3d02a968U, 0x0U,
  0x0U, 0x3b9cb9d8U, 0x0U, 0x0U,
  0x3c9290e600000000U, 0x3ad6d42800000000U, 0x3c89df263a51d584U, 0x3d0123d2U,
  0x0U, 0x0U, 0x3bc1190aU, 0x0U,
  0x0U, 0x0U, 0x0U, 0x0U,
  0x0U, 0x0U, 0x0U, 0x0U,
  0x0U, 0x3cee70e2U, 0x3b551490U, 0x3ca6b3ba00000000U,
  0x3cc6aafa00000000U, 0x0U, 0x0U, 0x0U,
  0x3cdf6350U, 0x0U, 0x0U, 0x3d01c574U,
  0x3a440d28U, 0x3c89d43a00000000U, 0x3c69d8b600000000U, 0x39a7956600000000U,
  0x0U, 0x0U, 0x0U, 0x0U,
  0x0U, 0x0U, 0x0U, 0x0U,
  0x3c7a27e700000000U, 0x0U, 0x3bde41de00000000U, 0x3b891eb000000000U,
  0x3bd4c43800000000U, 0x0U, 0x0U, 0x0U,
  0x0U, 0x0U, 0x0U, 0x0U,
  0x3c39e0aaU, 0x3a9ec41000000000U, 0x3d1592cd3c63b71aU, 0x3c69e212U,
  0x0U, 0x0U, 0x0U, 0x3c51695400000000U,
  0x0U, 0x0U, 0x3cc3327500000000U, 0x0U,
  0x0U, 0x0U, 0x3c88e496U, 0x3d2cfd9000000000U,
  0x3be78eb800000000U, 0x0U, 0x3d1018e800000000U, 0x0U,
  0x3c08e704U, 0x0U, 0x0U, 0x0U,
  0x0U, 0x3ca90519U, 0x0U, 0x0U,
  0x3c8670f73d1d90d8U, 0x0U, 0x3a73681000000000U, 0x0U,
  0x0U, 0x0U, 0x3c14886cU, 0x0U,
  0x0U, 0x3b83c6e03d1649e1U, 0x0U, 0x3a005cb6U,
  0x3bf03fdd00000000U, 0x0U, 0x0U, 0x3c3b7a7900000000U,
  0x0U, 0x0U, 0x0U, 0x0U,
  0x0U, 0x3b9934f600000000U, 0x0U, 0x0U,
  0x0U, 0x0U, 0x0U, 0x0U,
  0x3cb32cdb00000000U, 0x0U, 0x0U, 0x0U,
  0x0U, 0x0U, 0x0U, 0x3cd44ae400000000U,
  0x0U, 0x0U, 0x3b897e9cU, 0x0U,
  0x0U, 0x0U, 0x0U, 0x0U,
  0x0U, 0x0U, 0x0U, 0x0U,
  0x0U, 0x0U, 0x0U, 0x3c13b9243a713ffdU,
  0x0U, 0x3c9d193f00000000U, 0x0U, 0x3c8d5d8cU,
  0x3ba4dd4e00000000U, 0x0U, 0x3cb3eff600000000U, 0x3bce7ae600000000U,
  0x0U, 0x0U, 0x3c41a2b2U, 0x3cc7cc8dU,
  0x0U, 0x0U, 0x3b9247e400000000U, 0x0U,
  0x0U, 0x0U, 0x0U, 0x0U,
  0x0U, 0x0U, 0x3c17547fU, 0x3d1a5854U,
  0x0U, 0x0U, 0x3c0e26f4U, 0x0U,
  0x0U, 0x0U, 0x38f73b80U, 0x0U,
  0x3ca3539c3c6e5d0bU, 0x0U, 0x0U, 0x0U,
  0x3cf731daU, 0x3c3188cfU, 0x3b55de5400000000U, 0x0U,
  0x3a32b07c3cb83e42U, 0x3c1ce2c1U, 0x0U, 0x0U,
  0x3c8e894700000000U, 0x0U, 0x0U, 0x0U,
  0x3c9720433c7e34f0U, 0x3cbbb27000000000U, 0x3d1dbda800000000U, 0x0U,
  0x0U, 0x0U, 0x39cd5080U, 0x3cdbd93200000000U,
  0x3c460bba00000000U, 0x3cd5f28a00000000U, 0x3ce7bf4400000000U, 0x0U,
  0x0U, 0x0U, 0x0U, 0x3cce0da7U,
  0x3ccc62acU, 0x0U, 0x3c1e595000000000U, 0x3be246e43c0018ceU,
  0x3ae300b800000000U, 0x3b102e0400000000U, 0x0U, 0x3c801041U,
  0x0U, 0x0U, 0x0U, 0x3b02cb2d00000000U,
  0x0U, 0x3cf0458800000000U, 0x3ca8b848U, 0x0U,
  0x0U, 0x0U, 0x0U, 0x3d07f7f8U,
  0x0U, 0x0U, 0x0U, 0x0U,
  0x0U, 0x0U, 0x0U, 0x0U,
  0x0U, 0x0U, 0x3e099e61U, 0x0U,
  0x3d76f6a0U, 0x0U, 0x3da8d993U, 0x0U,
  0x3d991f8eU, 0x0U, 0x0U, 0x0U,
  0x0U, 0x3e169fb300000000U, 0x0U, 0x3db75cb200000000U,
  0x0U, 0x3e1a01033e17a550U, 0x0U, 0x3e020e0600000000U,
  0x0U, 0x3d9af120U, 0x0U, 0x0U,
  0x0U, 0x0U, 0x3e1a6b02U, 0x0U,
  0x0U, 0x0U, 0x3dae1cd1U, 0x0U,
  0x0U, 0x0U, 0x3d910ee3U, 0x3e3b0b30U,
  0x0U, 0x0U, 0x0U, 0x0U,
  0x0U, 0x0U, 0x0U, 0x0U,
  0x0U, 0x0U, 0x0U, 0x0U,
  0x0U, 0x3e1c55d1U, 0x0U, 0x3e296df200000000U,
  0x3e0f3c7f00000000U, 0x0U, 0x3db8ebfb00000000U, 0x0U,
  0x3e0c0a89U, 0x0U, 0x0U, 0x3d01e1dcU,
  0x0U, 0x0U, 0x3d65175f3d3edf7dU, 0x3cd8251400000000U,
  0x0U, 0x0U, 0x0U, 0x0U,
  0x0U, 0x0U, 0x0U, 0x0U,
  0x0U, 0x0U, 0x3d7e3cbe00000000U, 0x0U,
  0x0U, 0x0U, 0x0U, 0x0U,
  0x0U, 0x0U, 0x0U, 0x3ca745f800000000U,
  0x3dd86a3dU, 0x0U, 0x3e2bc4a33c7eeda4U, 0x3e028c60U,
  0x0U, 0x0U, 0x0U, 0x0U,
  0x0U, 0x0U, 0x0U, 0x0U,
  0x0U, 0x0U, 0x3d94d781U, 0x3e2198c800000000U,
  0x3dd0638e00000000U, 0x0U, 0x3de62ee200000000U, 0x0U,
  0x3ded1743U, 0x0U, 0x0U, 0x0U,
  0x0U, 0x3deb7bafU, 0x0U, 0x0U,
  0x3dfe9f303e39849dU, 0x3d20391200000000U, 0x3d5603e700000000U, 0x3d8328d4U,
  0x0U, 0x0U, 0x0U, 0x0U,
  0x0U, 0x3da8b5583e451fe7U, 0x0U, 0x0U,
  0x0U, 0x0U, 0x0U, 0x0U,
  0x0U, 0x0U, 0x0U, 0x0U,
  0x0U, 0x0U, 0x0U, 0x0U,
  0x3dba440900000000U, 0x0U, 0x0U, 0x0U,
  0x3dd95b8200000000U, 0x0U, 0x0U, 0x0U,
  0x0U, 0x0U, 0x0U, 0x3c61d5ad00000000U,
  0x0U, 0x3d66dc0100000000U, 0x0U, 0x0U,
  0x0U, 0x0U, 0x0U, 0x0U,
  0x0U, 0x0U, 0x0U, 0x0U,
  0x0U, 0x0U, 0x0U, 0x0U,
  0x0U, 0x3dcf02c400000000U, 0x0U, 0x3e110646U,
  0x0U, 0x3d3245b900000000U, 0x3e0b723e00000000U, 0x0U,
  0x0U, 0x0U, 0x0U, 0x3df835c4U,
  0x0U, 0x0U, 0x3ba9cda4U, 0x0U,
  0x0U, 0x0U, 0x0U, 0x0U,
  0x0U, 0x0U, 0x3d650bb4U, 0x3e13cc30U,
  0x0U, 0x0U, 0x0U, 0x0U,
  0x0U, 0x0U, 0x3c151f85U, 0x3cf549c6U,
  0x3ddb8c7c3dea208fU, 0x0U, 0x0U, 0x0U,
  0x3dbe4b31U, 0x0U, 0x0U, 0x0U,
  0x3dc7cdd0U, 0x0U, 0x0U, 0x0U,
  0x3da55bd800000000U, 0x0U, 0x0U, 0x0U,
  0x3d4606a83d447328U, 0x3e27158d00000000U, 0x3e34106300000000U, 0x0U,
  0x0U, 0x0U, 0x0U, 0x3ddb010a00000000U,
  0x3de778ae00000000U, 0x3e0589f300000000U, 0x3e3f5d3b00000000U, 0x0U,
  0x0U, 0x0U, 0x0U, 0x3d8fdd27U,
  0x3d17f6e63e02fc87U, 0x0U, 0x0U, 0x0U,
  0x0U, 0x0U, 0x0U, 0x0U,
  0x0U, 0x0U, 0x0U, 0x3da16e9d00000000U,
  0x0U, 0x3e0e7d1500000000U, 0x3de11416U, 0x0U,
  0x0U, 0x0U, 0x0U, 0x100bb8ab17eU,
  0x707U,
};



AI_API_DECLARE_BEGIN

/*!
 * @brief Get network weights array pointer as a handle ptr.
 * @ingroup network_3_data
 * @return a ai_handle pointer to the weights array
 */
AI_DEPRECATED
AI_API_ENTRY
ai_handle ai_network_3_data_weights_get(void)
{
  static const ai_u8* const s_network_3_weights_map[1 + 2] = {
    AI_PTR(AI_MAGIC_MARKER),
    AI_PTR(s_network_3_weights_array_u64),
    AI_PTR(AI_MAGIC_MARKER)
  };

  return AI_HANDLE_PTR(s_network_3_weights_map);

}


/*!
 * @brief Get network params configuration data structure.
 * @ingroup network_3_data
 * @return true if a valid configuration is present, false otherwise
 */
AI_API_ENTRY
ai_bool ai_network_3_data_params_get(ai_handle network, ai_network_params* params)
{
  if (!(network && params)) return false;
  
  const ai_buffer_array map_activations =
    AI_BUFFER_ARRAY_OBJ_INIT(AI_FLAG_NONE, 0, NULL);
  
  static ai_buffer s_network_3_data_map_weights[AI_NETWORK_3_DATA_WEIGHTS_COUNT] = {
    AI_BUFFER_OBJ_INIT(AI_BUFFER_FORMAT_U8, 1, 1, 28744, 1, s_network_3_weights_array_u64),
    
  };

  const ai_buffer_array map_weights = 
    AI_BUFFER_ARRAY_OBJ_INIT(AI_FLAG_NONE, AI_NETWORK_3_DATA_WEIGHTS_COUNT, s_network_3_data_map_weights);

  return ai_platform_bind_network_params(network, params, &map_weights, &map_activations);
}


AI_API_DECLARE_END
